{
  "version": "1.0",
  "truncation": null,
  "padding": null,
  "added_tokens": [
    {
      "id": 120000,
      "content": "<｜hy_start:opensource｜>",
      "single_word": false,
      "lstrip": false,
      "rstrip": false,
      "normalized": false,
      "special": true
    },
    {
      "id": 120001,
      "content": "<｜hy_middle:opensource｜>",
      "single_word": false,
      "lstrip": false,
      "rstrip": false,
      "normalized": false,
      "special": true
    },
    {
      "id": 120002,
      "content": "<｜hy_pad:opensource｜>",
      "single_word": false,
      "lstrip": false,
      "rstrip": false,
      "normalized": false,
      "special": true
    },
    {
      "id": 120003,
      "content": "<｜hy_fim▁hole｜>",
      "single_word": false,
      "lstrip": false,
      "rstrip": false,
      "normalized": false,
      "special": true
    },
    {
      "id": 120004,
      "content": "<｜hy_fim▁begin｜>",
      "single_word": false,
      "lstrip": false,
      "rstrip": false,
      "normalized": false,
      "special": true
    },
    {
      "id": 120005,
      "content": "<｜hy_fim▁end｜>",
      "single_word": false,
      "lstrip": false,
      "rstrip": false,
      "normalized": false,
      "special": true
    },
    {
      "id": 120006,
      "content": "<｜hy_place▁holder▁no▁120006｜>",
      "single_word": false,
      "lstrip": false,
      "rstrip": false,
      "normalized": false,
      "special": true
    },
    {
      "id": 120007,
      "content": "<｜hy_place▁holder▁no▁120007｜>",
      "single_word": false,
      "lstrip": false,
      "rstrip": false,
      "normalized": false,
      "special": true
    },
    {
      "id": 120008,
      "content": "<｜hy_EOT｜>",
      "single_word": false,
      "lstrip": false,
      "rstrip": false,
      "normalized": false,
      "special": true
    },
    {
      "id": 120009,
      "content": "<｜hy_place▁holder▁no▁120009｜>",
      "single_word": false,
      "lstrip": false,
      "rstrip": false,
      "normalized": false,
      "special": true
    },
    {
      "id": 120010,
      "content": "<｜hy_place▁holder▁no▁120010｜>",
      "single_word": false,
      "lstrip": false,
      "rstrip": false,
      "normalized": false,
      "special": true
    },
    {
      "id": 120011,
      "content": "<｜hy_place▁holder▁no▁120011｜>",
      "single_word": false,
      "lstrip": false,
      "rstrip": false,
      "normalized": false,
      "special": true
    },
    {
      "id": 120012,
      "content": "<｜hy_place▁holder▁no▁120012｜>",
      "single_word": false,
      "lstrip": false,
      "rstrip": false,
      "normalized": false,
      "special": true
    },
    {
      "id": 120013,
      "content": "<｜hy_place▁holder▁no▁120013｜>",
      "single_word": false,
      "lstrip": false,
      "rstrip": false,
      "normalized": false,
      "special": true
    },
    {
      "id": 120014,
      "content": "<｜hy_place▁holder▁no▁120014｜>",
      "single_word": false,
      "lstrip": false,
      "rstrip": false,
      "normalized": false,
      "special": true
    },
    {
      "id": 120015,
      "content": "<｜hy_place▁holder▁no▁120015｜>",
      "single_word": false,
      "lstrip": false,
      "rstrip": false,
      "normalized": false,
      "special": true
    },
    {
      "id": 120016,
      "content": "<｜hy_place▁holder▁no▁120016｜>",
      "single_word": false,
      "lstrip": false,
      "rstrip": false,
      "normalized": false,
      "special": true
    },
    {
      "id": 120017,
      "content": "<｜hy_place▁holder▁no▁120017｜>",
      "single_word": false,
      "lstrip": false,
      "rstrip": false,
      "normalized": false,
      "special": true
    },
    {
      "id": 120018,
      "content": "<｜hy_place▁holder▁no▁0｜>",
      "single_word": false,
      "lstrip": false,
      "rstrip": false,
      "normalized": false,
      "special": true
    },
    {
      "id": 120019,
      "content": "<｜hy_place▁holder▁no▁1｜>",
      "single_word": false,
      "lstrip": false,
      "rstrip": false,
      "normalized": false,
      "special": true
    },
    {
      "id": 120020,
      "content": "<｜hy_place▁holder▁no▁2｜>",
      "single_word": false,
      "lstrip": false,
      "rstrip": false,
      "normalized": false,
      "special": true
    },
    {
      "id": 120021,
      "content": "<｜hy_place▁holder▁no▁3｜>",
      "single_word": false,
      "lstrip": false,
      "rstrip": false,
      "normalized": false,
      "special": true
    },
    {
      "id": 120022,
      "content": "<｜hy_place▁holder▁no▁4｜>",
      "single_word": false,
      "lstrip": false,
      "rstrip": false,
      "normalized": false,
      "special": true
    },
    {
      "id": 120023,
      "content": "<｜hy_place▁holder▁no▁5｜>",
      "single_word": false,
      "lstrip": false,
      "rstrip": false,
      "normalized": false,
      "special": true
    },
    {
      "id": 120024,
      "content": "<｜hy_place▁holder▁no▁6｜>",
      "single_word": false,
      "lstrip": false,
      "rstrip": false,
      "normalized": false,
      "special": true
    },
    {
      "id": 120025,
      "content": "<｜hy_end:opensource｜>",
      "single_word": false,
      "lstrip": false,
      "rstrip": false,
      "normalized": false,
      "special": true
    },
    {
      "id": 120026,
      "content": "<｜hy_place▁holder▁no▁8｜>",
      "single_word": false,
      "lstrip": false,
      "rstrip": false,
      "normalized": false,
      "special": true
    },
    {
      "id": 120027,
      "content": "<｜hy_place▁holder▁no▁9｜>",
      "single_word": false,
      "lstrip": false,
      "rstrip": false,
      "normalized": false,
      "special": true
    },
    {
      "id": 120028,
      "content": "<｜hy_place▁holder▁no▁10｜>",
      "single_word": false,
      "lstrip": false,
      "rstrip": false,
      "normalized": false,
      "special": true
    },
    {
      "id": 120029,
      "content": "<think:opensource>",
      "single_word": false,
      "lstrip": false,
      "rstrip": false,
      "normalized": false,
      "special": false
    },
    {
      "id": 120030,
      "content": "</think:opensource>",
      "single_word": false,
      "lstrip": false,
      "rstrip": false,
      "normalized": false,
      "special": false
    },
    {
      "id": 120031,
      "content": "<｜hy_place▁holder▁no▁13｜>",
      "single_word": false,
      "lstrip": false,
      "rstrip": false,
      "normalized": false,
      "special": false
    },
    {
      "id": 120032,
      "content": "<｜hy_place▁holder▁no▁14｜>",
      "single_word": false,
      "lstrip": false,
      "rstrip": false,
      "normalized": false,
      "special": false
    },
    {
      "id": 120033,
      "content": "<tool_call:opensource>",
      "single_word": false,
      "lstrip": false,
      "rstrip": false,
      "normalized": false,
      "special": false
    },
    {
      "id": 120034,
      "content": "</tool_call:opensource>",
      "single_word": false,
      "lstrip": false,
      "rstrip": false,
      "normalized": false,
      "special": false
    },
    {
      "id": 120035,
      "content": "<tool_calls:opensource>",
      "single_word": false,
      "lstrip": false,
      "rstrip": false,
      "normalized": false,
      "special": false
    },
    {
      "id": 120036,
      "content": "</tool_calls:opensource>",
      "single_word": false,
      "lstrip": false,
      "rstrip": false,
      "normalized": false,
      "special": false
    },
    {
      "id": 120037,
      "content": "<tool_response:opensource>",
      "single_word": false,
      "lstrip": false,
      "rstrip": false,
      "normalized": false,
      "special": true
    },
    {
      "id": 120038,
      "content": "</tool_response:opensource>",
      "single_word": false,
      "lstrip": false,
      "rstrip": false,
      "normalized": false,
      "special": true
    },
    {
      "id": 120039,
      "content": "<｜reasoning_mode:opensource｜>",
      "single_word": false,
      "lstrip": false,
      "rstrip": false,
      "normalized": false,
      "special": true
    },
    {
      "id": 120040,
      "content": "<arg_key:opensource>",
      "single_word": false,
      "lstrip": false,
      "rstrip": false,
      "normalized": false,
      "special": false
    },
    {
      "id": 120041,
      "content": "</arg_key:opensource>",
      "single_word": false,
      "lstrip": false,
      "rstrip": false,
      "normalized": false,
      "special": false
    },
    {
      "id": 120042,
      "content": "<arg_value:opensource>",
      "single_word": false,
      "lstrip": false,
      "rstrip": false,
      "normalized": false,
      "special": false
    },
    {
      "id": 120043,
      "content": "</arg_value:opensource>",
      "single_word": false,
      "lstrip": false,
      "rstrip": false,
      "normalized": false,
      "special": false
    },
    {
      "id": 120044,
      "content": "<｜hy_place▁holder▁no▁26｜>",
      "single_word": false,
      "lstrip": false,
      "rstrip": false,
      "normalized": false,
      "special": true
    },
    {
      "id": 120045,
      "content": "<｜hy_place▁holder▁no▁27｜>",
      "single_word": false,
      "lstrip": false,
      "rstrip": false,
      "normalized": false,
      "special": true
    },
    {
      "id": 120046,
      "content": "<｜hy_place▁holder▁no▁28｜>",
      "single_word": false,
      "lstrip": false,
      "rstrip": false,
      "normalized": false,
      "special": true
    },
    {
      "id": 120047,
      "content": "<｜hy_place▁holder▁no▁29｜>",
      "single_word": false,
      "lstrip": false,
      "rstrip": false,
      "normalized": false,
      "special": true
    },
    {
      "id": 120048,
      "content": "<｜hy_place▁holder▁no▁30｜>",
      "single_word": false,
      "lstrip": false,
      "rstrip": false,
      "normalized": false,
      "special": true
    },
    {
      "id": 120049,
      "content": "<｜hy_place▁holder▁no▁31｜>",
      "single_word": false,
      "lstrip": false,
      "rstrip": false,
      "normalized": false,
      "special": true
    },
    {
      "id": 120050,
      "content": "<｜hy_place▁holder▁no▁32｜>",
      "single_word": false,
      "lstrip": false,
      "rstrip": false,
      "normalized": false,
      "special": true
    },
    {
      "id": 120051,
      "content": "<｜hy_place▁holder▁no▁33｜>",
      "single_word": false,
      "lstrip": false,
      "rstrip": false,
      "normalized": false,
      "special": true
    },
    {
      "id": 120052,
      "content": "<｜hy_place▁holder▁no▁34｜>",
      "single_word": false,
      "lstrip": false,
      "rstrip": false,
      "normalized": false,
      "special": true
    },
    {
      "id": 120053,
      "content": "<｜hy_place▁holder▁no▁35｜>",
      "single_word": false,
      "lstrip": false,
      "rstrip": false,
      "normalized": false,
      "special": true
    },
    {
      "id": 120054,
      "content": "<｜hy_place▁holder▁no▁36｜>",
      "single_word": false,
      "lstrip": false,
      "rstrip": false,
      "normalized": false,
      "special": true
    },
    {
      "id": 120055,
      "content": "<｜hy_place▁holder▁no▁37｜>",
      "single_word": false,
      "lstrip": false,
      "rstrip": false,
      "normalized": false,
      "special": true
    },
    {
      "id": 120056,
      "content": "<｜hy_place▁holder▁no▁38｜>",
      "single_word": false,
      "lstrip": false,
      "rstrip": false,
      "normalized": false,
      "special": true
    },
    {
      "id": 120057,
      "content": "<｜hy_place▁holder▁no▁39｜>",
      "single_word": false,
      "lstrip": false,
      "rstrip": false,
      "normalized": false,
      "special": true
    },
    {
      "id": 120058,
      "content": "<｜hy_place▁holder▁no▁40｜>",
      "single_word": false,
      "lstrip": false,
      "rstrip": false,
      "normalized": false,
      "special": true
    },
    {
      "id": 120059,
      "content": "<｜hy_place▁holder▁no▁41｜>",
      "single_word": false,
      "lstrip": false,
      "rstrip": false,
      "normalized": false,
      "special": true
    },
    {
      "id": 120060,
      "content": "<｜hy_place▁holder▁no▁42｜>",
      "single_word": false,
      "lstrip": false,
      "rstrip": false,
      "normalized": false,
      "special": true
    },
    {
      "id": 120061,
      "content": "<｜hy_place▁holder▁no▁43｜>",
      "single_word": false,
      "lstrip": false,
      "rstrip": false,
      "normalized": false,
      "special": true
    },
    {
      "id": 120062,
      "content": "<｜hy_place▁holder▁no▁44｜>",
      "single_word": false,
      "lstrip": false,
      "rstrip": false,
      "normalized": false,
      "special": true
    },
    {
      "id": 120063,
      "content": "<｜hy_place▁holder▁no▁45｜>",
      "single_word": false,
      "lstrip": false,
      "rstrip": false,
      "normalized": false,
      "special": true
    },
    {
      "id": 120064,
      "content": "<｜hy_place▁holder▁no▁46｜>",
      "single_word": false,
      "lstrip": false,
      "rstrip": false,
      "normalized": false,
      "special": true
    },
    {
      "id": 120065,
      "content": "<｜hy_place▁holder▁no▁47｜>",
      "single_word": false,
      "lstrip": false,
      "rstrip": false,
      "normalized": false,
      "special": true
    },
    {
      "id": 120066,
      "content": "<｜hy_place▁holder▁no▁48｜>",
      "single_word": false,
      "lstrip": false,
      "rstrip": false,
      "normalized": false,
      "special": true
    },
    {
      "id": 120067,
      "content": "<｜hy_place▁holder▁no▁49｜>",
      "single_word": false,
      "lstrip": false,
      "rstrip": false,
      "normalized": false,
      "special": true
    },
    {
      "id": 120068,
      "content": "<｜hy_place▁holder▁no▁50｜>",
      "single_word": false,
      "lstrip": false,
      "rstrip": false,
      "normalized": false,
      "special": true
    },
    {
      "id": 120069,
      "content": "<｜hy_place▁holder▁no▁51｜>",
      "single_word": false,
      "lstrip": false,
      "rstrip": false,
      "normalized": false,
      "special": true
    },
    {
      "id": 120070,
      "content": "<｜hy_place▁holder▁no▁52｜>",
      "single_word": false,
      "lstrip": false,
      "rstrip": false,
      "normalized": false,
      "special": true
    },
    {
      "id": 120071,
      "content": "<｜hy_place▁holder▁no▁53｜>",
      "single_word": false,
      "lstrip": false,
      "rstrip": false,
      "normalized": false,
      "special": true
    },
    {
      "id": 120072,
      "content": "<｜hy_place▁holder▁no▁54｜>",
      "single_word": false,
      "lstrip": false,
      "rstrip": false,
      "normalized": false,
      "special": true
    },
    {
      "id": 120073,
      "content": "<｜hy_place▁holder▁no▁55｜>",
      "single_word": false,
      "lstrip": false,
      "rstrip": false,
      "normalized": false,
      "special": true
    },
    {
      "id": 120074,
      "content": "<｜hy_place▁holder▁no▁56｜>",
      "single_word": false,
      "lstrip": false,
      "rstrip": false,
      "normalized": false,
      "special": true
    },
    {
      "id": 120075,
      "content": "<｜hy_place▁holder▁no▁57｜>",
      "single_word": false,
      "lstrip": false,
      "rstrip": false,
      "normalized": false,
      "special": true
    },
    {
      "id": 120076,
      "content": "<｜hy_place▁holder▁no▁58｜>",
      "single_word": false,
      "lstrip": false,
      "rstrip": false,
      "normalized": false,
      "special": true
    },
    {
      "id": 120077,
      "content": "<｜hy_place▁holder▁no▁59｜>",
      "single_word": false,
      "lstrip": false,
      "rstrip": false,
      "normalized": false,
      "special": true
    },
    {
      "id": 120078,
      "content": "<｜hy_place▁holder▁no▁60｜>",
      "single_word": false,
      "lstrip": false,
      "rstrip": false,
      "normalized": false,
      "special": true
    },
    {
      "id": 120079,
      "content": "<｜hy_place▁holder▁no▁61｜>",
      "single_word": false,
      "lstrip": false,
      "rstrip": false,
      "normalized": false,
      "special": true
    },
    {
      "id": 120080,
      "content": "<｜hy_place▁holder▁no▁62｜>",
      "single_word": false,
      "lstrip": false,
      "rstrip": false,
      "normalized": false,
      "special": true
    },
    {
      "id": 120081,
      "content": "<｜hy_place▁holder▁no▁63｜>",
      "single_word": false,
      "lstrip": false,
      "rstrip": false,
      "normalized": false,
      "special": true
    },
    {
      "id": 120082,
      "content": "<｜hy_place▁holder▁no▁64｜>",
      "single_word": false,
      "lstrip": false,
      "rstrip": false,
      "normalized": false,
      "special": true
    },
    {
      "id": 120083,
      "content": "<｜hy_place▁holder▁no▁65｜>",
      "single_word": false,
      "lstrip": false,
      "rstrip": false,
      "normalized": false,
      "special": true
    },
    {
      "id": 120084,
      "content": "<｜hy_place▁holder▁no▁66｜>",
      "single_word": false,
      "lstrip": false,
      "rstrip": false,
      "normalized": false,
      "special": true
    },
    {
      "id": 120085,
      "content": "<｜hy_place▁holder▁no▁67｜>",
      "single_word": false,
      "lstrip": false,
      "rstrip": false,
      "normalized": false,
      "special": true
    },
    {
      "id": 120086,
      "content": "<｜hy_place▁holder▁no▁68｜>",
      "single_word": false,
      "lstrip": false,
      "rstrip": false,
      "normalized": false,
      "special": true
    },
    {
      "id": 120087,
      "content": "<｜hy_place▁holder▁no▁69｜>",
      "single_word": false,
      "lstrip": false,
      "rstrip": false,
      "normalized": false,
      "special": true
    },
    {
      "id": 120088,
      "content": "<｜hy_place▁holder▁no▁70｜>",
      "single_word": false,
      "lstrip": false,
      "rstrip": false,
      "normalized": false,
      "special": true
    },
    {
      "id": 120089,
      "content": "<｜hy_place▁holder▁no▁71｜>",
      "single_word": false,
      "lstrip": false,
      "rstrip": false,
      "normalized": false,
      "special": true
    },
    {
      "id": 120090,
      "content": "<｜hy_place▁holder▁no▁72｜>",
      "single_word": false,
      "lstrip": false,
      "rstrip": false,
      "normalized": false,
      "special": true
    },
    {
      "id": 120091,
      "content": "<｜hy_place▁holder▁no▁73｜>",
      "single_word": false,
      "lstrip": false,
      "rstrip": false,
      "normalized": false,
      "special": true
    },
    {
      "id": 120092,
      "content": "<｜hy_place▁holder▁no▁74｜>",
      "single_word": false,
      "lstrip": false,
      "rstrip": false,
      "normalized": false,
      "special": true
    },
    {
      "id": 120093,
      "content": "<｜hy_place▁holder▁no▁75｜>",
      "single_word": false,
      "lstrip": false,
      "rstrip": false,
      "normalized": false,
      "special": true
    },
    {
      "id": 120094,
      "content": "<｜hy_place▁holder▁no▁76｜>",
      "single_word": false,
      "lstrip": false,
      "rstrip": false,
      "normalized": false,
      "special": true
    },
    {
      "id": 120095,
      "content": "<｜hy_place▁holder▁no▁77｜>",
      "single_word": false,
      "lstrip": false,
      "rstrip": false,
      "normalized": false,
      "special": true
    },
    {
      "id": 120096,
      "content": "<｜hy_place▁holder▁no▁78｜>",
      "single_word": false,
      "lstrip": false,
      "rstrip": false,
      "normalized": false,
      "special": true
    },
    {
      "id": 120097,
      "content": "<｜hy_place▁holder▁no▁79｜>",
      "single_word": false,
      "lstrip": false,
      "rstrip": false,
      "normalized": false,
      "special": true
    },
    {
      "id": 120098,
      "content": "<｜hy_place▁holder▁no▁80｜>",
      "single_word": false,
      "lstrip": false,
      "rstrip": false,
      "normalized": false,
      "special": true
    },
    {
      "id": 120099,
      "content": "<｜hy_place▁holder▁no▁81｜>",
      "single_word": false,
      "lstrip": false,
      "rstrip": false,
      "normalized": false,
      "special": true
    },
    {
      "id": 120100,
      "content": "<｜hy_place▁holder▁no▁82｜>",
      "single_word": false,
      "lstrip": false,
      "rstrip": false,
      "normalized": false,
      "special": true
    },
    {
      "id": 120101,
      "content": "<｜hy_place▁holder▁no▁83｜>",
      "single_word": false,
      "lstrip": false,
      "rstrip": false,
      "normalized": false,
      "special": true
    },
    {
      "id": 120102,
      "content": "<｜hy_place▁holder▁no▁84｜>",
      "single_word": false,
      "lstrip": false,
      "rstrip": false,
      "normalized": false,
      "special": true
    },
    {
      "id": 120103,
      "content": "<｜hy_place▁holder▁no▁85｜>",
      "single_word": false,
      "lstrip": false,
      "rstrip": false,
      "normalized": false,
      "special": true
    },
    {
      "id": 120104,
      "content": "<｜hy_place▁holder▁no▁86｜>",
      "single_word": false,
      "lstrip": false,
      "rstrip": false,
      "normalized": false,
      "special": true
    },
    {
      "id": 120105,
      "content": "<｜hy_place▁holder▁no▁87｜>",
      "single_word": false,
      "lstrip": false,
      "rstrip": false,
      "normalized": false,
      "special": true
    },
    {
      "id": 120106,
      "content": "<｜hy_place▁holder▁no▁88｜>",
      "single_word": false,
      "lstrip": false,
      "rstrip": false,
      "normalized": false,
      "special": true
    },
    {
      "id": 120107,
      "content": "<｜hy_place▁holder▁no▁89｜>",
      "single_word": false,
      "lstrip": false,
      "rstrip": false,
      "normalized": false,
      "special": true
    },
    {
      "id": 120108,
      "content": "<｜hy_place▁holder▁no▁90｜>",
      "single_word": false,
      "lstrip": false,
      "rstrip": false,
      "normalized": false,
      "special": true
    },
    {
      "id": 120109,
      "content": "<｜hy_place▁holder▁no▁91｜>",
      "single_word": false,
      "lstrip": false,
      "rstrip": false,
      "normalized": false,
      "special": true
    },
    {
      "id": 120110,
      "content": "<｜hy_place▁holder▁no▁92｜>",
      "single_word": false,
      "lstrip": false,
      "rstrip": false,
      "normalized": false,
      "special": true
    },
    {
      "id": 120111,
      "content": "<｜hy_place▁holder▁no▁93｜>",
      "single_word": false,
      "lstrip": false,
      "rstrip": false,
      "normalized": false,
      "special": true
    },
    {
      "id": 120112,
      "content": "<｜hy_place▁holder▁no▁94｜>",
      "single_word": false,
      "lstrip": false,
      "rstrip": false,
      "normalized": false,
      "special": true
    },
    {
      "id": 120113,
      "content": "<｜hy_place▁holder▁no▁95｜>",
      "single_word": false,
      "lstrip": false,
      "rstrip": false,
      "normalized": false,
      "special": true
    },
    {
      "id": 120114,
      "content": "<｜hy_place▁holder▁no▁96｜>",
      "single_word": false,
      "lstrip": false,
      "rstrip": false,
      "normalized": false,
      "special": true
    },
    {
      "id": 120115,
      "content": "<｜hy_place▁holder▁no▁97｜>",
      "single_word": false,
      "lstrip": false,
      "rstrip": false,
      "normalized": false,
      "special": true
    },
    {
      "id": 120116,
      "content": "<｜hy_place▁holder▁no▁98｜>",
      "single_word": false,
      "lstrip": false,
      "rstrip": false,
      "normalized": false,
      "special": true
    },
    {
      "id": 120117,
      "content": "<｜hy_place▁holder▁no▁99｜>",
      "single_word": false,
      "lstrip": false,
      "rstrip": false,
      "normalized": false,
      "special": true
    },
    {
      "id": 120118,
      "content": "<｜hy_place▁holder▁no▁100｜>",
      "single_word": false,
      "lstrip": false,
      "rstrip": false,
      "normalized": false,
      "special": true
    },
    {
      "id": 120119,
      "content": "<｜hy_place▁holder▁no▁101｜>",
      "single_word": false,
      "lstrip": false,
      "rstrip": false,
      "normalized": false,
      "special": true
    },
    {
      "id": 120120,
      "content": "<｜hy_place▁holder▁no▁102｜>",
      "single_word": false,
      "lstrip": false,
      "rstrip": false,
      "normalized": false,
      "special": true
    },
    {
      "id": 120121,
      "content": "<｜hy_place▁holder▁no▁103｜>",
      "single_word": false,
      "lstrip": false,
      "rstrip": false,
      "normalized": false,
      "special": true
    },
    {
      "id": 120122,
      "content": "<｜hy_place▁holder▁no▁104｜>",
      "single_word": false,
      "lstrip": false,
      "rstrip": false,
      "normalized": false,
      "special": true
    },
    {
      "id": 120123,
      "content": "<｜hy_place▁holder▁no▁105｜>",
      "single_word": false,
      "lstrip": false,
      "rstrip": false,
      "normalized": false,
      "special": true
    },
    {
      "id": 120124,
      "content": "<｜hy_place▁holder▁no▁106｜>",
      "single_word": false,
      "lstrip": false,
      "rstrip": false,
      "normalized": false,
      "special": true
    },
    {
      "id": 120125,
      "content": "<｜hy_place▁holder▁no▁107｜>",
      "single_word": false,
      "lstrip": false,
      "rstrip": false,
      "normalized": false,
      "special": true
    },
    {
      "id": 120126,
      "content": "<box:opensource>",
      "single_word": false,
      "lstrip": false,
      "rstrip": false,
      "normalized": false,
      "special": false
    },
    {
      "id": 120127,
      "content": "</box:opensource>",
      "single_word": false,
      "lstrip": false,
      "rstrip": false,
      "normalized": false,
      "special": false
    },
    {
      "id": 120128,
      "content": "<quad:opensource>",
      "single_word": false,
      "lstrip": false,
      "rstrip": false,
      "normalized": false,
      "special": false
    },
    {
      "id": 120129,
      "content": "</quad:opensource>",
      "single_word": false,
      "lstrip": false,
      "rstrip": false,
      "normalized": false,
      "special": false
    },
    {
      "id": 120130,
      "content": "<ref:opensource>",
      "single_word": false,
      "lstrip": false,
      "rstrip": false,
      "normalized": false,
      "special": false
    },
    {
      "id": 120131,
      "content": "</ref:opensource>",
      "single_word": false,
      "lstrip": false,
      "rstrip": false,
      "normalized": false,
      "special": false
    },
    {
      "id": 120132,
      "content": "<pFig:opensource>",
      "single_word": false,
      "lstrip": false,
      "rstrip": false,
      "normalized": false,
      "special": false
    },
    {
      "id": 120133,
      "content": "</pFig:opensource>",
      "single_word": false,
      "lstrip": false,
      "rstrip": false,
      "normalized": false,
      "special": false
    },
    {
      "id": 120134,
      "content": "<det:opensource>",
      "single_word": false,
      "lstrip": false,
      "rstrip": false,
      "normalized": false,
      "special": false
    },
    {
      "id": 120135,
      "content": "</det:opensource>",
      "single_word": false,
      "lstrip": false,
      "rstrip": false,
      "normalized": false,
      "special": false
    },
    {
      "id": 120136,
      "content": "<point:opensource>",
      "single_word": false,
      "lstrip": false,
      "rstrip": false,
      "normalized": false,
      "special": false
    },
    {
      "id": 120137,
      "content": "</point:opensource>",
      "single_word": false,
      "lstrip": false,
      "rstrip": false,
      "normalized": false,
      "special": false
    },
    {
      "id": 120138,
      "content": "<mask:opensource>",
      "single_word": false,
      "lstrip": false,
      "rstrip": false,
      "normalized": false,
      "special": false
    },
    {
      "id": 120139,
      "content": "</mask:opensource>",
      "single_word": false,
      "lstrip": false,
      "rstrip": false,
      "normalized": false,
      "special": false
    },
    {
      "id": 120140,
      "content": "<｜hy_place▁holder▁no▁122｜>",
      "single_word": false,
      "lstrip": false,
      "rstrip": false,
      "normalized": false,
      "special": true
    },
    {
      "id": 120141,
      "content": "<｜hy_place▁holder▁no▁123｜>",
      "single_word": false,
      "lstrip": false,
      "rstrip": false,
      "normalized": false,
      "special": true
    },
    {
      "id": 120142,
      "content": "<｜hy_place▁holder▁no▁124｜>",
      "single_word": false,
      "lstrip": false,
      "rstrip": false,
      "normalized": false,
      "special": true
    },
    {
      "id": 120143,
      "content": "<｜hy_place▁holder▁no▁125｜>",
      "single_word": false,
      "lstrip": false,
      "rstrip": false,
      "normalized": false,
      "special": true
    },
    {
      "id": 120144,
      "content": "<｜hy_place▁holder▁no▁126｜>",
      "single_word": false,
      "lstrip": false,
      "rstrip": false,
      "normalized": false,
      "special": true
    },
    {
      "id": 120145,
      "content": "<｜hy_place▁holder▁no▁127｜>",
      "single_word": false,
      "lstrip": false,
      "rstrip": false,
      "normalized": false,
      "special": true
    },
    {
      "id": 120146,
      "content": "<｜hy_place▁holder▁no▁128｜>",
      "single_word": false,
      "lstrip": false,
      "rstrip": false,
      "normalized": false,
      "special": true
    },
    {
      "id": 120147,
      "content": "<｜hy_place▁holder▁no▁129｜>",
      "single_word": false,
      "lstrip": false,
      "rstrip": false,
      "normalized": false,
      "special": true
    },
    {
      "id": 120148,
      "content": "<｜hy_place▁holder▁no▁130｜>",
      "single_word": false,
      "lstrip": false,
      "rstrip": false,
      "normalized": false,
      "special": true
    },
    {
      "id": 120149,
      "content": "<｜hy_place▁holder▁no▁131｜>",
      "single_word": false,
      "lstrip": false,
      "rstrip": false,
      "normalized": false,
      "special": true
    },
    {
      "id": 120150,
      "content": "<｜hy_place▁holder▁no▁132｜>",
      "single_word": false,
      "lstrip": false,
      "rstrip": false,
      "normalized": false,
      "special": true
    },
    {
      "id": 120151,
      "content": "<｜hy_place▁holder▁no▁133｜>",
      "single_word": false,
      "lstrip": false,
      "rstrip": false,
      "normalized": false,
      "special": true
    },
    {
      "id": 120152,
      "content": "<｜hy_place▁holder▁no▁134｜>",
      "single_word": false,
      "lstrip": false,
      "rstrip": false,
      "normalized": false,
      "special": true
    },
    {
      "id": 120153,
      "content": "<｜hy_place▁holder▁no▁135｜>",
      "single_word": false,
      "lstrip": false,
      "rstrip": false,
      "normalized": false,
      "special": true
    },
    {
      "id": 120154,
      "content": "<｜hy_place▁holder▁no▁136｜>",
      "single_word": false,
      "lstrip": false,
      "rstrip": false,
      "normalized": false,
      "special": true
    },
    {
      "id": 120155,
      "content": "<｜hy_place▁holder▁no▁137｜>",
      "single_word": false,
      "lstrip": false,
      "rstrip": false,
      "normalized": false,
      "special": true
    },
    {
      "id": 120156,
      "content": "<｜hy_place▁holder▁no▁138｜>",
      "single_word": false,
      "lstrip": false,
      "rstrip": false,
      "normalized": false,
      "special": true
    },
    {
      "id": 120157,
      "content": "<｜hy_place▁holder▁no▁139｜>",
      "single_word": false,
      "lstrip": false,
      "rstrip": false,
      "normalized": false,
      "special": true
    },
    {
      "id": 120158,
      "content": "<｜hy_place▁holder▁no▁140｜>",
      "single_word": false,
      "lstrip": false,
      "rstrip": false,
      "normalized": false,
      "special": true
    },
    {
      "id": 120159,
      "content": "<｜hy_place▁holder▁no▁141｜>",
      "single_word": false,
      "lstrip": false,
      "rstrip": false,
      "normalized": false,
      "special": true
    },
    {
      "id": 120160,
      "content": "<｜hy_place▁holder▁no▁142｜>",
      "single_word": false,
      "lstrip": false,
      "rstrip": false,
      "normalized": false,
      "special": true
    },
    {
      "id": 120161,
      "content": "<｜hy_place▁holder▁no▁143｜>",
      "single_word": false,
      "lstrip": false,
      "rstrip": false,
      "normalized": false,
      "special": true
    },
    {
      "id": 120162,
      "content": "<｜hy_place▁holder▁no▁144｜>",
      "single_word": false,
      "lstrip": false,
      "rstrip": false,
      "normalized": false,
      "special": true
    },
    {
      "id": 120163,
      "content": "<｜hy_place▁holder▁no▁145｜>",
      "single_word": false,
      "lstrip": false,
      "rstrip": false,
      "normalized": false,
      "special": true
    },
    {
      "id": 120164,
      "content": "<｜hy_place▁holder▁no▁146｜>",
      "single_word": false,
      "lstrip": false,
      "rstrip": false,
      "normalized": false,
      "special": true
    },
    {
      "id": 120165,
      "content": "<｜hy_place▁holder▁no▁147｜>",
      "single_word": false,
      "lstrip": false,
      "rstrip": false,
      "normalized": false,
      "special": true
    },
    {
      "id": 120166,
      "content": "<｜hy_place▁holder▁no▁148｜>",
      "single_word": false,
      "lstrip": false,
      "rstrip": false,
      "normalized": false,
      "special": true
    },
    {
      "id": 120167,
      "content": "<｜hy_place▁holder▁no▁149｜>",
      "single_word": false,
      "lstrip": false,
      "rstrip": false,
      "normalized": false,
      "special": true
    },
    {
      "id": 120168,
      "content": "<｜hy_place▁holder▁no▁150｜>",
      "single_word": false,
      "lstrip": false,
      "rstrip": false,
      "normalized": false,
      "special": true
    },
    {
      "id": 120169,
      "content": "<｜hy_place▁holder▁no▁151｜>",
      "single_word": false,
      "lstrip": false,
      "rstrip": false,
      "normalized": false,
      "special": true
    },
    {
      "id": 120170,
      "content": "<｜hy_place▁holder▁no▁152｜>",
      "single_word": false,
      "lstrip": false,
      "rstrip": false,
      "normalized": false,
      "special": true
    },
    {
      "id": 120171,
      "content": "<｜hy_place▁holder▁no▁153｜>",
      "single_word": false,
      "lstrip": false,
      "rstrip": false,
      "normalized": false,
      "special": true
    },
    {
      "id": 120172,
      "content": "<｜hy_place▁holder▁no▁154｜>",
      "single_word": false,
      "lstrip": false,
      "rstrip": false,
      "normalized": false,
      "special": true
    },
    {
      "id": 120173,
      "content": "<｜hy_place▁holder▁no▁155｜>",
      "single_word": false,
      "lstrip": false,
      "rstrip": false,
      "normalized": false,
      "special": true
    },
    {
      "id": 120174,
      "content": "<｜hy_place▁holder▁no▁156｜>",
      "single_word": false,
      "lstrip": false,
      "rstrip": false,
      "normalized": false,
      "special": true
    },
    {
      "id": 120175,
      "content": "<｜hy_place▁holder▁no▁157｜>",
      "single_word": false,
      "lstrip": false,
      "rstrip": false,
      "normalized": false,
      "special": true
    },
    {
      "id": 120176,
      "content": "<｜hy_place▁holder▁no▁158｜>",
      "single_word": false,
      "lstrip": false,
      "rstrip": false,
      "normalized": false,
      "special": true
    },
    {
      "id": 120177,
      "content": "<｜hy_place▁holder▁no▁159｜>",
      "single_word": false,
      "lstrip": false,
      "rstrip": false,
      "normalized": false,
      "special": true
    },
    {
      "id": 120178,
      "content": "<｜hy_place▁holder▁no▁160｜>",
      "single_word": false,
      "lstrip": false,
      "rstrip": false,
      "normalized": false,
      "special": true
    },
    {
      "id": 120179,
      "content": "<｜hy_place▁holder▁no▁161｜>",
      "single_word": false,
      "lstrip": false,
      "rstrip": false,
      "normalized": false,
      "special": true
    },
    {
      "id": 120180,
      "content": "<｜hy_place▁holder▁no▁162｜>",
      "single_word": false,
      "lstrip": false,
      "rstrip": false,
      "normalized": false,
      "special": true
    },
    {
      "id": 120181,
      "content": "<｜hy_place▁holder▁no▁163｜>",
      "single_word": false,
      "lstrip": false,
      "rstrip": false,
      "normalized": false,
      "special": true
    },
    {
      "id": 120182,
      "content": "<｜hy_place▁holder▁no▁164｜>",
      "single_word": false,
      "lstrip": false,
      "rstrip": false,
      "normalized": false,
      "special": true
    },
    {
      "id": 120183,
      "content": "<｜hy_place▁holder▁no▁165｜>",
      "single_word": false,
      "lstrip": false,
      "rstrip": false,
      "normalized": false,
      "special": true
    },
    {
      "id": 120184,
      "content": "<｜hy_place▁holder▁no▁166｜>",
      "single_word": false,
      "lstrip": false,
      "rstrip": false,
      "normalized": false,
      "special": true
    },
    {
      "id": 120185,
      "content": "<｜hy_place▁holder▁no▁167｜>",
      "single_word": false,
      "lstrip": false,
      "rstrip": false,
      "normalized": false,
      "special": true
    },
    {
      "id": 120186,
      "content": "<｜hy_place▁holder▁no▁168｜>",
      "single_word": false,
      "lstrip": false,
      "rstrip": false,
      "normalized": false,
      "special": true
    },
    {
      "id": 120187,
      "content": "<｜hy_place▁holder▁no▁169｜>",
      "single_word": false,
      "lstrip": false,
      "rstrip": false,
      "normalized": false,
      "special": true
    },
    {
      "id": 120188,
      "content": "<｜hy_place▁holder▁no▁170｜>",
      "single_word": false,
      "lstrip": false,
      "rstrip": false,
      "normalized": false,
      "special": true
    },
    {
      "id": 120189,
      "content": "<｜hy_place▁holder▁no▁171｜>",
      "single_word": false,
      "lstrip": false,
      "rstrip": false,
      "normalized": false,
      "special": true
    },
    {
      "id": 120190,
      "content": "<｜hy_place▁holder▁no▁172｜>",
      "single_word": false,
      "lstrip": false,
      "rstrip": false,
      "normalized": false,
      "special": true
    },
    {
      "id": 120191,
      "content": "<｜hy_place▁holder▁no▁173｜>",
      "single_word": false,
      "lstrip": false,
      "rstrip": false,
      "normalized": false,
      "special": true
    },
    {
      "id": 120192,
      "content": "<｜hy_place▁holder▁no▁174｜>",
      "single_word": false,
      "lstrip": false,
      "rstrip": false,
      "normalized": false,
      "special": true
    },
    {
      "id": 120193,
      "content": "<｜hy_place▁holder▁no▁175｜>",
      "single_word": false,
      "lstrip": false,
      "rstrip": false,
      "normalized": false,
      "special": true
    },
    {
      "id": 120194,
      "content": "<｜hy_place▁holder▁no▁176｜>",
      "single_word": false,
      "lstrip": false,
      "rstrip": false,
      "normalized": false,
      "special": true
    },
    {
      "id": 120195,
      "content": "<｜hy_place▁holder▁no▁177｜>",
      "single_word": false,
      "lstrip": false,
      "rstrip": false,
      "normalized": false,
      "special": true
    },
    {
      "id": 120196,
      "content": "<｜hy_place▁holder▁no▁178｜>",
      "single_word": false,
      "lstrip": false,
      "rstrip": false,
      "normalized": false,
      "special": true
    },
    {
      "id": 120197,
      "content": "<｜hy_place▁holder▁no▁179｜>",
      "single_word": false,
      "lstrip": false,
      "rstrip": false,
      "normalized": false,
      "special": true
    },
    {
      "id": 120198,
      "content": "<｜hy_place▁holder▁no▁180｜>",
      "single_word": false,
      "lstrip": false,
      "rstrip": false,
      "normalized": false,
      "special": true
    },
    {
      "id": 120199,
      "content": "<｜hy_place▁holder▁no▁181｜>",
      "single_word": false,
      "lstrip": false,
      "rstrip": false,
      "normalized": false,
      "special": true
    },
    {
      "id": 120200,
      "content": "<｜hy_place▁holder▁no▁182｜>",
      "single_word": false,
      "lstrip": false,
      "rstrip": false,
      "normalized": false,
      "special": true
    },
    {
      "id": 120201,
      "content": "<｜hy_place▁holder▁no▁183｜>",
      "single_word": false,
      "lstrip": false,
      "rstrip": false,
      "normalized": false,
      "special": true
    },
    {
      "id": 120202,
      "content": "<｜hy_place▁holder▁no▁184｜>",
      "single_word": false,
      "lstrip": false,
      "rstrip": false,
      "normalized": false,
      "special": true
    },
    {
      "id": 120203,
      "content": "<｜hy_place▁holder▁no▁185｜>",
      "single_word": false,
      "lstrip": false,
      "rstrip": false,
      "normalized": false,
      "special": true
    },
    {
      "id": 120204,
      "content": "<｜hy_place▁holder▁no▁186｜>",
      "single_word": false,
      "lstrip": false,
      "rstrip": false,
      "normalized": false,
      "special": true
    },
    {
      "id": 120205,
      "content": "<｜hy_place▁holder▁no▁187｜>",
      "single_word": false,
      "lstrip": false,
      "rstrip": false,
      "normalized": false,
      "special": true
    },
    {
      "id": 120206,
      "content": "<｜hy_place▁holder▁no▁188｜>",
      "single_word": false,
      "lstrip": false,
      "rstrip": false,
      "normalized": false,
      "special": true
    },
    {
      "id": 120207,
      "content": "<｜hy_place▁holder▁no▁189｜>",
      "single_word": false,
      "lstrip": false,
      "rstrip": false,
      "normalized": false,
      "special": true
    },
    {
      "id": 120208,
      "content": "<｜hy_place▁holder▁no▁190｜>",
      "single_word": false,
      "lstrip": false,
      "rstrip": false,
      "normalized": false,
      "special": true
    },
    {
      "id": 120209,
      "content": "<｜hy_place▁holder▁no▁191｜>",
      "single_word": false,
      "lstrip": false,
      "rstrip": false,
      "normalized": false,
      "special": true
    },
    {
      "id": 120210,
      "content": "<｜hy_place▁holder▁no▁192｜>",
      "single_word": false,
      "lstrip": false,
      "rstrip": false,
      "normalized": false,
      "special": true
    },
    {
      "id": 120211,
      "content": "<｜hy_place▁holder▁no▁193｜>",
      "single_word": false,
      "lstrip": false,
      "rstrip": false,
      "normalized": false,
      "special": true
    },
    {
      "id": 120212,
      "content": "<｜hy_place▁holder▁no▁194｜>",
      "single_word": false,
      "lstrip": false,
      "rstrip": false,
      "normalized": false,
      "special": true
    },
    {
      "id": 120213,
      "content": "<｜hy_place▁holder▁no▁195｜>",
      "single_word": false,
      "lstrip": false,
      "rstrip": false,
      "normalized": false,
      "special": true
    },
    {
      "id": 120214,
      "content": "<｜hy_place▁holder▁no▁196｜>",
      "single_word": false,
      "lstrip": false,
      "rstrip": false,
      "normalized": false,
      "special": true
    },
    {
      "id": 120215,
      "content": "<｜hy_place▁holder▁no▁197｜>",
      "single_word": false,
      "lstrip": false,
      "rstrip": false,
      "normalized": false,
      "special": true
    },
    {
      "id": 120216,
      "content": "<｜hy_place▁holder▁no▁198｜>",
      "single_word": false,
      "lstrip": false,
      "rstrip": false,
      "normalized": false,
      "special": true
    },
    {
      "id": 120217,
      "content": "<｜hy_place▁holder▁no▁199｜>",
      "single_word": false,
      "lstrip": false,
      "rstrip": false,
      "normalized": false,
      "special": true
    },
    {
      "id": 120218,
      "content": "<｜hy_place▁holder▁no▁200｜>",
      "single_word": false,
      "lstrip": false,
      "rstrip": false,
      "normalized": false,
      "special": true
    },
    {
      "id": 120219,
      "content": "<｜hy_place▁holder▁no▁201｜>",
      "single_word": false,
      "lstrip": false,
      "rstrip": false,
      "normalized": false,
      "special": true
    },
    {
      "id": 120220,
      "content": "<｜hy_place▁holder▁no▁202｜>",
      "single_word": false,
      "lstrip": false,
      "rstrip": false,
      "normalized": false,
      "special": true
    },
    {
      "id": 120221,
      "content": "<｜hy_place▁holder▁no▁203｜>",
      "single_word": false,
      "lstrip": false,
      "rstrip": false,
      "normalized": false,
      "special": true
    },
    {
      "id": 120222,
      "content": "<｜hy_place▁holder▁no▁204｜>",
      "single_word": false,
      "lstrip": false,
      "rstrip": false,
      "normalized": false,
      "special": true
    },
    {
      "id": 120223,
      "content": "<｜hy_place▁holder▁no▁205｜>",
      "single_word": false,
      "lstrip": false,
      "rstrip": false,
      "normalized": false,
      "special": true
    },
    {
      "id": 120224,
      "content": "<｜hy_place▁holder▁no▁206｜>",
      "single_word": false,
      "lstrip": false,
      "rstrip": false,
      "normalized": false,
      "special": true
    },
    {
      "id": 120225,
      "content": "<｜hy_place▁holder▁no▁207｜>",
      "single_word": false,
      "lstrip": false,
      "rstrip": false,
      "normalized": false,
      "special": true
    },
    {
      "id": 120226,
      "content": "<｜hy_place▁holder▁no▁208｜>",
      "single_word": false,
      "lstrip": false,
      "rstrip": false,
      "normalized": false,
      "special": true
    },
    {
      "id": 120227,
      "content": "<｜hy_place▁holder▁no▁209｜>",
      "single_word": false,
      "lstrip": false,
      "rstrip": false,
      "normalized": false,
      "special": true
    },
    {
      "id": 120228,
      "content": "<｜hy_place▁holder▁no▁210｜>",
      "single_word": false,
      "lstrip": false,
      "rstrip": false,
      "normalized": false,
      "special": true
    },
    {
      "id": 120229,
      "content": "<｜hy_place▁holder▁no▁211｜>",
      "single_word": false,
      "lstrip": false,
      "rstrip": false,
      "normalized": false,
      "special": true
    },
    {
      "id": 120230,
      "content": "<｜hy_place▁holder▁no▁212｜>",
      "single_word": false,
      "lstrip": false,
      "rstrip": false,
      "normalized": false,
      "special": true
    },
    {
      "id": 120231,
      "content": "<｜hy_place▁holder▁no▁213｜>",
      "single_word": false,
      "lstrip": false,
      "rstrip": false,
      "normalized": false,
      "special": true
    },
    {
      "id": 120232,
      "content": "<｜hy_place▁holder▁no▁214｜>",
      "single_word": false,
      "lstrip": false,
      "rstrip": false,
      "normalized": false,
      "special": true
    },
    {
      "id": 120233,
      "content": "<｜hy_place▁holder▁no▁215｜>",
      "single_word": false,
      "lstrip": false,
      "rstrip": false,
      "normalized": false,
      "special": true
    },
    {
      "id": 120234,
      "content": "<｜hy_place▁holder▁no▁216｜>",
      "single_word": false,
      "lstrip": false,
      "rstrip": false,
      "normalized": false,
      "special": true
    },
    {
      "id": 120235,
      "content": "<｜hy_place▁holder▁no▁217｜>",
      "single_word": false,
      "lstrip": false,
      "rstrip": false,
      "normalized": false,
      "special": true
    },
    {
      "id": 120236,
      "content": "<｜hy_place▁holder▁no▁218｜>",
      "single_word": false,
      "lstrip": false,
      "rstrip": false,
      "normalized": false,
      "special": true
    },
    {
      "id": 120237,
      "content": "<｜hy_place▁holder▁no▁219｜>",
      "single_word": false,
      "lstrip": false,
      "rstrip": false,
      "normalized": false,
      "special": true
    },
    {
      "id": 120238,
      "content": "<｜hy_place▁holder▁no▁220｜>",
      "single_word": false,
      "lstrip": false,
      "rstrip": false,
      "normalized": false,
      "special": true
    },
    {
      "id": 120239,
      "content": "<｜hy_place▁holder▁no▁221｜>",
      "single_word": false,
      "lstrip": false,
      "rstrip": false,
      "normalized": false,
      "special": true
    },
    {
      "id": 120240,
      "content": "<｜hy_place▁holder▁no▁222｜>",
      "single_word": false,
      "lstrip": false,
      "rstrip": false,
      "normalized": false,
      "special": true
    },
    {
      "id": 120241,
      "content": "<｜hy_place▁holder▁no▁223｜>",
      "single_word": false,
      "lstrip": false,
      "rstrip": false,
      "normalized": false,
      "special": true
    },
    {
      "id": 120242,
      "content": "<｜hy_place▁holder▁no▁224｜>",
      "single_word": false,
      "lstrip": false,
      "rstrip": false,
      "normalized": false,
      "special": true
    },
    {
      "id": 120243,
      "content": "<｜hy_place▁holder▁no▁225｜>",
      "single_word": false,
      "lstrip": false,
      "rstrip": false,
      "normalized": false,
      "special": true
    },
    {
      "id": 120244,
      "content": "<｜hy_place▁holder▁no▁226｜>",
      "single_word": false,
      "lstrip": false,
      "rstrip": false,
      "normalized": false,
      "special": true
    },
    {
      "id": 120245,
      "content": "<｜hy_place▁holder▁no▁227｜>",
      "single_word": false,
      "lstrip": false,
      "rstrip": false,
      "normalized": false,
      "special": true
    },
    {
      "id": 120246,
      "content": "<｜hy_place▁holder▁no▁228｜>",
      "single_word": false,
      "lstrip": false,
      "rstrip": false,
      "normalized": false,
      "special": true
    },
    {
      "id": 120247,
      "content": "<｜hy_place▁holder▁no▁229｜>",
      "single_word": false,
      "lstrip": false,
      "rstrip": false,
      "normalized": false,
      "special": true
    },
    {
      "id": 120248,
      "content": "<｜hy_place▁holder▁no▁230｜>",
      "single_word": false,
      "lstrip": false,
      "rstrip": false,
      "normalized": false,
      "special": true
    },
    {
      "id": 120249,
      "content": "<｜hy_place▁holder▁no▁231｜>",
      "single_word": false,
      "lstrip": false,
      "rstrip": false,
      "normalized": false,
      "special": true
    },
    {
      "id": 120250,
      "content": "<｜hy_place▁holder▁no▁232｜>",
      "single_word": false,
      "lstrip": false,
      "rstrip": false,
      "normalized": false,
      "special": true
    },
    {
      "id": 120251,
      "content": "<｜hy_place▁holder▁no▁233｜>",
      "single_word": false,
      "lstrip": false,
      "rstrip": false,
      "normalized": false,
      "special": true
    },
    {
      "id": 120252,
      "content": "<｜hy_place▁holder▁no▁234｜>",
      "single_word": false,
      "lstrip": false,
      "rstrip": false,
      "normalized": false,
      "special": true
    },
    {
      "id": 120253,
      "content": "<｜hy_place▁holder▁no▁235｜>",
      "single_word": false,
      "lstrip": false,
      "rstrip": false,
      "normalized": false,
      "special": true
    },
    {
      "id": 120254,
      "content": "<｜hy_place▁holder▁no▁236｜>",
      "single_word": false,
      "lstrip": false,
      "rstrip": false,
      "normalized": false,
      "special": true
    },
    {
      "id": 120255,
      "content": "<｜hy_place▁holder▁no▁237｜>",
      "single_word": false,
      "lstrip": false,
      "rstrip": false,
      "normalized": false,
      "special": true
    },
    {
      "id": 120256,
      "content": "<｜hy_place▁holder▁no▁238｜>",
      "single_word": false,
      "lstrip": false,
      "rstrip": false,
      "normalized": false,
      "special": true
    },
    {
      "id": 120257,
      "content": "<｜hy_place▁holder▁no▁239｜>",
      "single_word": false,
      "lstrip": false,
      "rstrip": false,
      "normalized": false,
      "special": true
    },
    {
      "id": 120258,
      "content": "<｜hy_place▁holder▁no▁240｜>",
      "single_word": false,
      "lstrip": false,
      "rstrip": false,
      "normalized": false,
      "special": true
    },
    {
      "id": 120259,
      "content": "<｜hy_place▁holder▁no▁241｜>",
      "single_word": false,
      "lstrip": false,
      "rstrip": false,
      "normalized": false,
      "special": true
    },
    {
      "id": 120260,
      "content": "<｜hy_place▁holder▁no▁242｜>",
      "single_word": false,
      "lstrip": false,
      "rstrip": false,
      "normalized": false,
      "special": true
    },
    {
      "id": 120261,
      "content": "<｜hy_place▁holder▁no▁243｜>",
      "single_word": false,
      "lstrip": false,
      "rstrip": false,
      "normalized": false,
      "special": true
    },
    {
      "id": 120262,
      "content": "<｜hy_place▁holder▁no▁244｜>",
      "single_word": false,
      "lstrip": false,
      "rstrip": false,
      "normalized": false,
      "special": true
    },
    {
      "id": 120263,
      "content": "<｜hy_place▁holder▁no▁245｜>",
      "single_word": false,
      "lstrip": false,
      "rstrip": false,
      "normalized": false,
      "special": true
    },
    {
      "id": 120264,
      "content": "<｜hy_place▁holder▁no▁246｜>",
      "single_word": false,
      "lstrip": false,
      "rstrip": false,
      "normalized": false,
      "special": true
    },
    {
      "id": 120265,
      "content": "<｜hy_place▁holder▁no▁247｜>",
      "single_word": false,
      "lstrip": false,
      "rstrip": false,
      "normalized": false,
      "special": true
    },
    {
      "id": 120266,
      "content": "<｜hy_place▁holder▁no▁248｜>",
      "single_word": false,
      "lstrip": false,
      "rstrip": false,
      "normalized": false,
      "special": true
    },
    {
      "id": 120267,
      "content": "<｜hy_place▁holder▁no▁249｜>",
      "single_word": false,
      "lstrip": false,
      "rstrip": false,
      "normalized": false,
      "special": true
    },
    {
      "id": 120268,
      "content": "<｜hy_place▁holder▁no▁250｜>",
      "single_word": false,
      "lstrip": false,
      "rstrip": false,
      "normalized": false,
      "special": true
    },
    {
      "id": 120269,
      "content": "<｜hy_place▁holder▁no▁251｜>",
      "single_word": false,
      "lstrip": false,
      "rstrip": false,
      "normalized": false,
      "special": true
    },
    {
      "id": 120270,
      "content": "<｜hy_place▁holder▁no▁252｜>",
      "single_word": false,
      "lstrip": false,
      "rstrip": false,
      "normalized": false,
      "special": true
    },
    {
      "id": 120271,
      "content": "<｜hy_place▁holder▁no▁253｜>",
      "single_word": false,
      "lstrip": false,
      "rstrip": false,
      "normalized": false,
      "special": true
    },
    {
      "id": 120272,
      "content": "<｜hy_place▁holder▁no▁254｜>",
      "single_word": false,
      "lstrip": false,
      "rstrip": false,
      "normalized": false,
      "special": true
    },
    {
      "id": 120273,
      "content": "<｜hy_place▁holder▁no▁255｜>",
      "single_word": false,
      "lstrip": false,
      "rstrip": false,
      "normalized": false,
      "special": true
    },
    {
      "id": 120274,
      "content": "<｜hy_place▁holder▁no▁256｜>",
      "single_word": false,
      "lstrip": false,
      "rstrip": false,
      "normalized": false,
      "special": true
    },
    {
      "id": 120275,
      "content": "<｜hy_place▁holder▁no▁257｜>",
      "single_word": false,
      "lstrip": false,
      "rstrip": false,
      "normalized": false,
      "special": true
    },
    {
      "id": 120276,
      "content": "<｜hy_place▁holder▁no▁258｜>",
      "single_word": false,
      "lstrip": false,
      "rstrip": false,
      "normalized": false,
      "special": true
    },
    {
      "id": 120277,
      "content": "<｜hy_place▁holder▁no▁259｜>",
      "single_word": false,
      "lstrip": false,
      "rstrip": false,
      "normalized": false,
      "special": true
    },
    {
      "id": 120278,
      "content": "<｜hy_place▁holder▁no▁260｜>",
      "single_word": false,
      "lstrip": false,
      "rstrip": false,
      "normalized": false,
      "special": true
    },
    {
      "id": 120279,
      "content": "<｜hy_place▁holder▁no▁261｜>",
      "single_word": false,
      "lstrip": false,
      "rstrip": false,
      "normalized": false,
      "special": true
    },
    {
      "id": 120280,
      "content": "<｜hy_place▁holder▁no▁262｜>",
      "single_word": false,
      "lstrip": false,
      "rstrip": false,
      "normalized": false,
      "special": true
    },
    {
      "id": 120281,
      "content": "<｜hy_place▁holder▁no▁263｜>",
      "single_word": false,
      "lstrip": false,
      "rstrip": false,
      "normalized": false,
      "special": true
    },
    {
      "id": 120282,
      "content": "<｜hy_place▁holder▁no▁264｜>",
      "single_word": false,
      "lstrip": false,
      "rstrip": false,
      "normalized": false,
      "special": true
    },
    {
      "id": 120283,
      "content": "<｜hy_place▁holder▁no▁265｜>",
      "single_word": false,
      "lstrip": false,
      "rstrip": false,
      "normalized": false,
      "special": true
    },
    {
      "id": 120284,
      "content": "<｜hy_place▁holder▁no▁266｜>",
      "single_word": false,
      "lstrip": false,
      "rstrip": false,
      "normalized": false,
      "special": true
    },
    {
      "id": 120285,
      "content": "<｜hy_place▁holder▁no▁267｜>",
      "single_word": false,
      "lstrip": false,
      "rstrip": false,
      "normalized": false,
      "special": true
    },
    {
      "id": 120286,
      "content": "<｜hy_place▁holder▁no▁268｜>",
      "single_word": false,
      "lstrip": false,
      "rstrip": false,
      "normalized": false,
      "special": true
    },
    {
      "id": 120287,
      "content": "<｜hy_place▁holder▁no▁269｜>",
      "single_word": false,
      "lstrip": false,
      "rstrip": false,
      "normalized": false,
      "special": true
    },
    {
      "id": 120288,
      "content": "<｜hy_place▁holder▁no▁270｜>",
      "single_word": false,
      "lstrip": false,
      "rstrip": false,
      "normalized": false,
      "special": true
    },
    {
      "id": 120289,
      "content": "<｜hy_place▁holder▁no▁271｜>",
      "single_word": false,
      "lstrip": false,
      "rstrip": false,
      "normalized": false,
      "special": true
    },
    {
      "id": 120290,
      "content": "<｜hy_place▁holder▁no▁272｜>",
      "single_word": false,
      "lstrip": false,
      "rstrip": false,
      "normalized": false,
      "special": true
    },
    {
      "id": 120291,
      "content": "<｜hy_place▁holder▁no▁273｜>",
      "single_word": false,
      "lstrip": false,
      "rstrip": false,
      "normalized": false,
      "special": true
    },
    {
      "id": 120292,
      "content": "<｜hy_place▁holder▁no▁274｜>",
      "single_word": false,
      "lstrip": false,
      "rstrip": false,
      "normalized": false,
      "special": true
    },
    {
      "id": 120293,
      "content": "<｜hy_place▁holder▁no▁275｜>",
      "single_word": false,
      "lstrip": false,
      "rstrip": false,
      "normalized": false,
      "special": true
    },
    {
      "id": 120294,
      "content": "<｜hy_place▁holder▁no▁276｜>",
      "single_word": false,
      "lstrip": false,
      "rstrip": false,
      "normalized": false,
      "special": true
    },
    {
      "id": 120295,
      "content": "<｜hy_place▁holder▁no▁277｜>",
      "single_word": false,
      "lstrip": false,
      "rstrip": false,
      "normalized": false,
      "special": true
    },
    {
      "id": 120296,
      "content": "<｜hy_place▁holder▁no▁278｜>",
      "single_word": false,
      "lstrip": false,
      "rstrip": false,
      "normalized": false,
      "special": true
    },
    {
      "id": 120297,
      "content": "<｜hy_place▁holder▁no▁279｜>",
      "single_word": false,
      "lstrip": false,
      "rstrip": false,
      "normalized": false,
      "special": true
    },
    {
      "id": 120298,
      "content": "<｜hy_place▁holder▁no▁280｜>",
      "single_word": false,
      "lstrip": false,
      "rstrip": false,
      "normalized": false,
      "special": true
    },
    {
      "id": 120299,
      "content": "<｜hy_place▁holder▁no▁281｜>",
      "single_word": false,
      "lstrip": false,
      "rstrip": false,
      "normalized": false,
      "special": true
    },
    {
      "id": 120300,
      "content": "<｜hy_place▁holder▁no▁282｜>",
      "single_word": false,
      "lstrip": false,
      "rstrip": false,
      "normalized": false,
      "special": true
    },
    {
      "id": 120301,
      "content": "<｜hy_place▁holder▁no▁283｜>",
      "single_word": false,
      "lstrip": false,
      "rstrip": false,
      "normalized": false,
      "special": true
    },
    {
      "id": 120302,
      "content": "<｜hy_place▁holder▁no▁284｜>",
      "single_word": false,
      "lstrip": false,
      "rstrip": false,
      "normalized": false,
      "special": true
    },
    {
      "id": 120303,
      "content": "<｜hy_place▁holder▁no▁285｜>",
      "single_word": false,
      "lstrip": false,
      "rstrip": false,
      "normalized": false,
      "special": true
    },
    {
      "id": 120304,
      "content": "<｜hy_place▁holder▁no▁286｜>",
      "single_word": false,
      "lstrip": false,
      "rstrip": false,
      "normalized": false,
      "special": true
    },
    {
      "id": 120305,
      "content": "<｜hy_place▁holder▁no▁287｜>",
      "single_word": false,
      "lstrip": false,
      "rstrip": false,
      "normalized": false,
      "special": true
    },
    {
      "id": 120306,
      "content": "<｜hy_place▁holder▁no▁288｜>",
      "single_word": false,
      "lstrip": false,
      "rstrip": false,
      "normalized": false,
      "special": true
    },
    {
      "id": 120307,
      "content": "<｜hy_place▁holder▁no▁289｜>",
      "single_word": false,
      "lstrip": false,
      "rstrip": false,
      "normalized": false,
      "special": true
    },
    {
      "id": 120308,
      "content": "<｜hy_place▁holder▁no▁290｜>",
      "single_word": false,
      "lstrip": false,
      "rstrip": false,
      "normalized": false,
      "special": true
    },
    {
      "id": 120309,
      "content": "<｜hy_place▁holder▁no▁291｜>",
      "single_word": false,
      "lstrip": false,
      "rstrip": false,
      "normalized": false,
      "special": true
    },
    {
      "id": 120310,
      "content": "<｜hy_place▁holder▁no▁292｜>",
      "single_word": false,
      "lstrip": false,
      "rstrip": false,
      "normalized": false,
      "special": true
    },
    {
      "id": 120311,
      "content": "<｜hy_place▁holder▁no▁293｜>",
      "single_word": false,
      "lstrip": false,
      "rstrip": false,
      "normalized": false,
      "special": true
    },
    {
      "id": 120312,
      "content": "<｜hy_place▁holder▁no▁294｜>",
      "single_word": false,
      "lstrip": false,
      "rstrip": false,
      "normalized": false,
      "special": true
    },
    {
      "id": 120313,
      "content": "<｜hy_place▁holder▁no▁295｜>",
      "single_word": false,
      "lstrip": false,
      "rstrip": false,
      "normalized": false,
      "special": true
    },
    {
      "id": 120314,
      "content": "<｜hy_place▁holder▁no▁296｜>",
      "single_word": false,
      "lstrip": false,
      "rstrip": false,
      "normalized": false,
      "special": true
    },
    {
      "id": 120315,
      "content": "<｜hy_place▁holder▁no▁297｜>",
      "single_word": false,
      "lstrip": false,
      "rstrip": false,
      "normalized": false,
      "special": true
    },
    {
      "id": 120316,
      "content": "<｜hy_place▁holder▁no▁298｜>",
      "single_word": false,
      "lstrip": false,
      "rstrip": false,
      "normalized": false,
      "special": true
    },
    {
      "id": 120317,
      "content": "<｜hy_place▁holder▁no▁299｜>",
      "single_word": false,
      "lstrip": false,
      "rstrip": false,
      "normalized": false,
      "special": true
    },
    {
      "id": 120318,
      "content": "<｜hy_place▁holder▁no▁300｜>",
      "single_word": false,
      "lstrip": false,
      "rstrip": false,
      "normalized": false,
      "special": true
    },
    {
      "id": 120319,
      "content": "<｜hy_place▁holder▁no▁301｜>",
      "single_word": false,
      "lstrip": false,
      "rstrip": false,
      "normalized": false,
      "special": true
    },
    {
      "id": 120320,
      "content": "<｜hy_place▁holder▁no▁302｜>",
      "single_word": false,
      "lstrip": false,
      "rstrip": false,
      "normalized": false,
      "special": true
    },
    {
      "id": 120321,
      "content": "<｜hy_place▁holder▁no▁303｜>",
      "single_word": false,
      "lstrip": false,
      "rstrip": false,
      "normalized": false,
      "special": true
    },
    {
      "id": 120322,
      "content": "<｜hy_place▁holder▁no▁304｜>",
      "single_word": false,
      "lstrip": false,
      "rstrip": false,
      "normalized": false,
      "special": true
    },
    {
      "id": 120323,
      "content": "<｜hy_place▁holder▁no▁305｜>",
      "single_word": false,
      "lstrip": false,
      "rstrip": false,
      "normalized": false,
      "special": true
    },
    {
      "id": 120324,
      "content": "<｜hy_place▁holder▁no▁306｜>",
      "single_word": false,
      "lstrip": false,
      "rstrip": false,
      "normalized": false,
      "special": true
    },
    {
      "id": 120325,
      "content": "<｜hy_place▁holder▁no▁307｜>",
      "single_word": false,
      "lstrip": false,
      "rstrip": false,
      "normalized": false,
      "special": true
    },
    {
      "id": 120326,
      "content": "<｜hy_place▁holder▁no▁308｜>",
      "single_word": false,
      "lstrip": false,
      "rstrip": false,
      "normalized": false,
      "special": true
    },
    {
      "id": 120327,
      "content": "<｜hy_place▁holder▁no▁309｜>",
      "single_word": false,
      "lstrip": false,
      "rstrip": false,
      "normalized": false,
      "special": true
    },
    {
      "id": 120328,
      "content": "<｜hy_place▁holder▁no▁310｜>",
      "single_word": false,
      "lstrip": false,
      "rstrip": false,
      "normalized": false,
      "special": true
    },
    {
      "id": 120329,
      "content": "<｜hy_place▁holder▁no▁311｜>",
      "single_word": false,
      "lstrip": false,
      "rstrip": false,
      "normalized": false,
      "special": true
    },
    {
      "id": 120330,
      "content": "<｜hy_place▁holder▁no▁312｜>",
      "single_word": false,
      "lstrip": false,
      "rstrip": false,
      "normalized": false,
      "special": true
    },
    {
      "id": 120331,
      "content": "<｜hy_place▁holder▁no▁313｜>",
      "single_word": false,
      "lstrip": false,
      "rstrip": false,
      "normalized": false,
      "special": true
    },
    {
      "id": 120332,
      "content": "<｜hy_place▁holder▁no▁314｜>",
      "single_word": false,
      "lstrip": false,
      "rstrip": false,
      "normalized": false,
      "special": true
    },
    {
      "id": 120333,
      "content": "<｜hy_place▁holder▁no▁315｜>",
      "single_word": false,
      "lstrip": false,
      "rstrip": false,
      "normalized": false,
      "special": true
    },
    {
      "id": 120334,
      "content": "<｜hy_place▁holder▁no▁316｜>",
      "single_word": false,
      "lstrip": false,
      "rstrip": false,
      "normalized": false,
      "special": true
    },
    {
      "id": 120335,
      "content": "<｜hy_place▁holder▁no▁317｜>",
      "single_word": false,
      "lstrip": false,
      "rstrip": false,
      "normalized": false,
      "special": true
    },
    {
      "id": 120336,
      "content": "<｜hy_place▁holder▁no▁318｜>",
      "single_word": false,
      "lstrip": false,
      "rstrip": false,
      "normalized": false,
      "special": true
    },
    {
      "id": 120337,
      "content": "<｜hy_place▁holder▁no▁319｜>",
      "single_word": false,
      "lstrip": false,
      "rstrip": false,
      "normalized": false,
      "special": true
    },
    {
      "id": 120338,
      "content": "<｜hy_place▁holder▁no▁320｜>",
      "single_word": false,
      "lstrip": false,
      "rstrip": false,
      "normalized": false,
      "special": true
    },
    {
      "id": 120339,
      "content": "<｜hy_place▁holder▁no▁321｜>",
      "single_word": false,
      "lstrip": false,
      "rstrip": false,
      "normalized": false,
      "special": true
    },
    {
      "id": 120340,
      "content": "<｜hy_place▁holder▁no▁322｜>",
      "single_word": false,
      "lstrip": false,
      "rstrip": false,
      "normalized": false,
      "special": true
    },
    {
      "id": 120341,
      "content": "<｜hy_place▁holder▁no▁323｜>",
      "single_word": false,
      "lstrip": false,
      "rstrip": false,
      "normalized": false,
      "special": true
    },
    {
      "id": 120342,
      "content": "<｜hy_place▁holder▁no▁324｜>",
      "single_word": false,
      "lstrip": false,
      "rstrip": false,
      "normalized": false,
      "special": true
    },
    {
      "id": 120343,
      "content": "<｜hy_place▁holder▁no▁325｜>",
      "single_word": false,
      "lstrip": false,
      "rstrip": false,
      "normalized": false,
      "special": true
    },
    {
      "id": 120344,
      "content": "<｜hy_place▁holder▁no▁326｜>",
      "single_word": false,
      "lstrip": false,
      "rstrip": false,
      "normalized": false,
      "special": true
    },
    {
      "id": 120345,
      "content": "<｜hy_place▁holder▁no▁327｜>",
      "single_word": false,
      "lstrip": false,
      "rstrip": false,
      "normalized": false,
      "special": true
    },
    {
      "id": 120346,
      "content": "<｜hy_place▁holder▁no▁328｜>",
      "single_word": false,
      "lstrip": false,
      "rstrip": false,
      "normalized": false,
      "special": true
    },
    {
      "id": 120347,
      "content": "<｜hy_place▁holder▁no▁329｜>",
      "single_word": false,
      "lstrip": false,
      "rstrip": false,
      "normalized": false,
      "special": true
    },
    {
      "id": 120348,
      "content": "<｜hy_place▁holder▁no▁330｜>",
      "single_word": false,
      "lstrip": false,
      "rstrip": false,
      "normalized": false,
      "special": true
    },
    {
      "id": 120349,
      "content": "<｜hy_place▁holder▁no▁331｜>",
      "single_word": false,
      "lstrip": false,
      "rstrip": false,
      "normalized": false,
      "special": true
    },
    {
      "id": 120350,
      "content": "<｜hy_place▁holder▁no▁332｜>",
      "single_word": false,
      "lstrip": false,
      "rstrip": false,
      "normalized": false,
      "special": true
    },
    {
      "id": 120351,
      "content": "<｜hy_place▁holder▁no▁333｜>",
      "single_word": false,
      "lstrip": false,
      "rstrip": false,
      "normalized": false,
      "special": true
    },
    {
      "id": 120352,
      "content": "<｜hy_place▁holder▁no▁334｜>",
      "single_word": false,
      "lstrip": false,
      "rstrip": false,
      "normalized": false,
      "special": true
    },
    {
      "id": 120353,
      "content": "<｜hy_place▁holder▁no▁335｜>",
      "single_word": false,
      "lstrip": false,
      "rstrip": false,
      "normalized": false,
      "special": true
    },
    {
      "id": 120354,
      "content": "<｜hy_place▁holder▁no▁336｜>",
      "single_word": false,
      "lstrip": false,
      "rstrip": false,
      "normalized": false,
      "special": true
    },
    {
      "id": 120355,
      "content": "<｜hy_place▁holder▁no▁337｜>",
      "single_word": false,
      "lstrip": false,
      "rstrip": false,
      "normalized": false,
      "special": true
    },
    {
      "id": 120356,
      "content": "<｜hy_place▁holder▁no▁338｜>",
      "single_word": false,
      "lstrip": false,
      "rstrip": false,
      "normalized": false,
      "special": true
    },
    {
      "id": 120357,
      "content": "<｜hy_place▁holder▁no▁339｜>",
      "single_word": false,
      "lstrip": false,
      "rstrip": false,
      "normalized": false,
      "special": true
    },
    {
      "id": 120358,
      "content": "<｜hy_place▁holder▁no▁340｜>",
      "single_word": false,
      "lstrip": false,
      "rstrip": false,
      "normalized": false,
      "special": true
    },
    {
      "id": 120359,
      "content": "<｜hy_place▁holder▁no▁341｜>",
      "single_word": false,
      "lstrip": false,
      "rstrip": false,
      "normalized": false,
      "special": true
    },
    {
      "id": 120360,
      "content": "<｜hy_place▁holder▁no▁342｜>",
      "single_word": false,
      "lstrip": false,
      "rstrip": false,
      "normalized": false,
      "special": true
    },
    {
      "id": 120361,
      "content": "<｜hy_place▁holder▁no▁343｜>",
      "single_word": false,
      "lstrip": false,
      "rstrip": false,
      "normalized": false,
      "special": true
    },
    {
      "id": 120362,
      "content": "<｜hy_place▁holder▁no▁344｜>",
      "single_word": false,
      "lstrip": false,
      "rstrip": false,
      "normalized": false,
      "special": true
    },
    {
      "id": 120363,
      "content": "<｜hy_place▁holder▁no▁345｜>",
      "single_word": false,
      "lstrip": false,
      "rstrip": false,
      "normalized": false,
      "special": true
    },
    {
      "id": 120364,
      "content": "<｜hy_place▁holder▁no▁346｜>",
      "single_word": false,
      "lstrip": false,
      "rstrip": false,
      "normalized": false,
      "special": true
    },
    {
      "id": 120365,
      "content": "<｜hy_place▁holder▁no▁347｜>",
      "single_word": false,
      "lstrip": false,
      "rstrip": false,
      "normalized": false,
      "special": true
    },
    {
      "id": 120366,
      "content": "<｜hy_place▁holder▁no▁348｜>",
      "single_word": false,
      "lstrip": false,
      "rstrip": false,
      "normalized": false,
      "special": true
    },
    {
      "id": 120367,
      "content": "<｜hy_place▁holder▁no▁349｜>",
      "single_word": false,
      "lstrip": false,
      "rstrip": false,
      "normalized": false,
      "special": true
    },
    {
      "id": 120368,
      "content": "<｜hy_place▁holder▁no▁350｜>",
      "single_word": false,
      "lstrip": false,
      "rstrip": false,
      "normalized": false,
      "special": true
    },
    {
      "id": 120369,
      "content": "<｜hy_place▁holder▁no▁351｜>",
      "single_word": false,
      "lstrip": false,
      "rstrip": false,
      "normalized": false,
      "special": true
    },
    {
      "id": 120370,
      "content": "<｜hy_place▁holder▁no▁352｜>",
      "single_word": false,
      "lstrip": false,
      "rstrip": false,
      "normalized": false,
      "special": true
    },
    {
      "id": 120371,
      "content": "<｜hy_place▁holder▁no▁353｜>",
      "single_word": false,
      "lstrip": false,
      "rstrip": false,
      "normalized": false,
      "special": true
    },
    {
      "id": 120372,
      "content": "<｜hy_place▁holder▁no▁354｜>",
      "single_word": false,
      "lstrip": false,
      "rstrip": false,
      "normalized": false,
      "special": true
    },
    {
      "id": 120373,
      "content": "<｜hy_place▁holder▁no▁355｜>",
      "single_word": false,
      "lstrip": false,
      "rstrip": false,
      "normalized": false,
      "special": true
    },
    {
      "id": 120374,
      "content": "<｜hy_place▁holder▁no▁356｜>",
      "single_word": false,
      "lstrip": false,
      "rstrip": false,
      "normalized": false,
      "special": true
    },
    {
      "id": 120375,
      "content": "<｜hy_place▁holder▁no▁357｜>",
      "single_word": false,
      "lstrip": false,
      "rstrip": false,
      "normalized": false,
      "special": true
    },
    {
      "id": 120376,
      "content": "<｜hy_place▁holder▁no▁358｜>",
      "single_word": false,
      "lstrip": false,
      "rstrip": false,
      "normalized": false,
      "special": true
    },
    {
      "id": 120377,
      "content": "<｜hy_place▁holder▁no▁359｜>",
      "single_word": false,
      "lstrip": false,
      "rstrip": false,
      "normalized": false,
      "special": true
    },
    {
      "id": 120378,
      "content": "<｜hy_place▁holder▁no▁360｜>",
      "single_word": false,
      "lstrip": false,
      "rstrip": false,
      "normalized": false,
      "special": true
    },
    {
      "id": 120379,
      "content": "<｜hy_place▁holder▁no▁361｜>",
      "single_word": false,
      "lstrip": false,
      "rstrip": false,
      "normalized": false,
      "special": true
    },
    {
      "id": 120380,
      "content": "<｜hy_place▁holder▁no▁362｜>",
      "single_word": false,
      "lstrip": false,
      "rstrip": false,
      "normalized": false,
      "special": true
    },
    {
      "id": 120381,
      "content": "<｜hy_place▁holder▁no▁363｜>",
      "single_word": false,
      "lstrip": false,
      "rstrip": false,
      "normalized": false,
      "special": true
    },
    {
      "id": 120382,
      "content": "<｜hy_place▁holder▁no▁364｜>",
      "single_word": false,
      "lstrip": false,
      "rstrip": false,
      "normalized": false,
      "special": true
    },
    {
      "id": 120383,
      "content": "<｜hy_place▁holder▁no▁365｜>",
      "single_word": false,
      "lstrip": false,
      "rstrip": false,
      "normalized": false,
      "special": true
    },
    {
      "id": 120384,
      "content": "<｜hy_place▁holder▁no▁366｜>",
      "single_word": false,
      "lstrip": false,
      "rstrip": false,
      "normalized": false,
      "special": true
    },
    {
      "id": 120385,
      "content": "<｜hy_place▁holder▁no▁367｜>",
      "single_word": false,
      "lstrip": false,
      "rstrip": false,
      "normalized": false,
      "special": true
    },
    {
      "id": 120386,
      "content": "<｜hy_place▁holder▁no▁368｜>",
      "single_word": false,
      "lstrip": false,
      "rstrip": false,
      "normalized": false,
      "special": true
    },
    {
      "id": 120387,
      "content": "<｜hy_place▁holder▁no▁369｜>",
      "single_word": false,
      "lstrip": false,
      "rstrip": false,
      "normalized": false,
      "special": true
    },
    {
      "id": 120388,
      "content": "<｜hy_place▁holder▁no▁370｜>",
      "single_word": false,
      "lstrip": false,
      "rstrip": false,
      "normalized": false,
      "special": true
    },
    {
      "id": 120389,
      "content": "<｜hy_place▁holder▁no▁371｜>",
      "single_word": false,
      "lstrip": false,
      "rstrip": false,
      "normalized": false,
      "special": true
    },
    {
      "id": 120390,
      "content": "<｜hy_place▁holder▁no▁372｜>",
      "single_word": false,
      "lstrip": false,
      "rstrip": false,
      "normalized": false,
      "special": true
    },
    {
      "id": 120391,
      "content": "<｜hy_place▁holder▁no▁373｜>",
      "single_word": false,
      "lstrip": false,
      "rstrip": false,
      "normalized": false,
      "special": true
    },
    {
      "id": 120392,
      "content": "<｜hy_place▁holder▁no▁374｜>",
      "single_word": false,
      "lstrip": false,
      "rstrip": false,
      "normalized": false,
      "special": true
    },
    {
      "id": 120393,
      "content": "<｜hy_place▁holder▁no▁375｜>",
      "single_word": false,
      "lstrip": false,
      "rstrip": false,
      "normalized": false,
      "special": true
    },
    {
      "id": 120394,
      "content": "<｜hy_place▁holder▁no▁376｜>",
      "single_word": false,
      "lstrip": false,
      "rstrip": false,
      "normalized": false,
      "special": true
    },
    {
      "id": 120395,
      "content": "<｜hy_place▁holder▁no▁377｜>",
      "single_word": false,
      "lstrip": false,
      "rstrip": false,
      "normalized": false,
      "special": true
    },
    {
      "id": 120396,
      "content": "<｜hy_place▁holder▁no▁378｜>",
      "single_word": false,
      "lstrip": false,
      "rstrip": false,
      "normalized": false,
      "special": true
    },
    {
      "id": 120397,
      "content": "<｜hy_place▁holder▁no▁379｜>",
      "single_word": false,
      "lstrip": false,
      "rstrip": false,
      "normalized": false,
      "special": true
    },
    {
      "id": 120398,
      "content": "<｜hy_place▁holder▁no▁380｜>",
      "single_word": false,
      "lstrip": false,
      "rstrip": false,
      "normalized": false,
      "special": true
    },
    {
      "id": 120399,
      "content": "<｜hy_place▁holder▁no▁381｜>",
      "single_word": false,
      "lstrip": false,
      "rstrip": false,
      "normalized": false,
      "special": true
    },
    {
      "id": 120400,
      "content": "<｜hy_place▁holder▁no▁382｜>",
      "single_word": false,
      "lstrip": false,
      "rstrip": false,
      "normalized": false,
      "special": true
    },
    {
      "id": 120401,
      "content": "<｜hy_place▁holder▁no▁383｜>",
      "single_word": false,
      "lstrip": false,
      "rstrip": false,
      "normalized": false,
      "special": true
    },
    {
      "id": 120402,
      "content": "<｜hy_place▁holder▁no▁384｜>",
      "single_word": false,
      "lstrip": false,
      "rstrip": false,
      "normalized": false,
      "special": true
    },
    {
      "id": 120403,
      "content": "<｜hy_place▁holder▁no▁385｜>",
      "single_word": false,
      "lstrip": false,
      "rstrip": false,
      "normalized": false,
      "special": true
    },
    {
      "id": 120404,
      "content": "<｜hy_place▁holder▁no▁386｜>",
      "single_word": false,
      "lstrip": false,
      "rstrip": false,
      "normalized": false,
      "special": true
    },
    {
      "id": 120405,
      "content": "<｜hy_place▁holder▁no▁387｜>",
      "single_word": false,
      "lstrip": false,
      "rstrip": false,
      "normalized": false,
      "special": true
    },
    {
      "id": 120406,
      "content": "<｜hy_place▁holder▁no▁388｜>",
      "single_word": false,
      "lstrip": false,
      "rstrip": false,
      "normalized": false,
      "special": true
    },
    {
      "id": 120407,
      "content": "<｜hy_place▁holder▁no▁389｜>",
      "single_word": false,
      "lstrip": false,
      "rstrip": false,
      "normalized": false,
      "special": true
    },
    {
      "id": 120408,
      "content": "<｜hy_place▁holder▁no▁390｜>",
      "single_word": false,
      "lstrip": false,
      "rstrip": false,
      "normalized": false,
      "special": true
    },
    {
      "id": 120409,
      "content": "<｜hy_place▁holder▁no▁391｜>",
      "single_word": false,
      "lstrip": false,
      "rstrip": false,
      "normalized": false,
      "special": true
    },
    {
      "id": 120410,
      "content": "<｜hy_place▁holder▁no▁392｜>",
      "single_word": false,
      "lstrip": false,
      "rstrip": false,
      "normalized": false,
      "special": true
    },
    {
      "id": 120411,
      "content": "<｜hy_place▁holder▁no▁393｜>",
      "single_word": false,
      "lstrip": false,
      "rstrip": false,
      "normalized": false,
      "special": true
    },
    {
      "id": 120412,
      "content": "<｜hy_place▁holder▁no▁394｜>",
      "single_word": false,
      "lstrip": false,
      "rstrip": false,
      "normalized": false,
      "special": true
    },
    {
      "id": 120413,
      "content": "<｜hy_place▁holder▁no▁395｜>",
      "single_word": false,
      "lstrip": false,
      "rstrip": false,
      "normalized": false,
      "special": true
    },
    {
      "id": 120414,
      "content": "<｜hy_place▁holder▁no▁396｜>",
      "single_word": false,
      "lstrip": false,
      "rstrip": false,
      "normalized": false,
      "special": true
    },
    {
      "id": 120415,
      "content": "<｜hy_place▁holder▁no▁397｜>",
      "single_word": false,
      "lstrip": false,
      "rstrip": false,
      "normalized": false,
      "special": true
    },
    {
      "id": 120416,
      "content": "<｜hy_place▁holder▁no▁398｜>",
      "single_word": false,
      "lstrip": false,
      "rstrip": false,
      "normalized": false,
      "special": true
    },
    {
      "id": 120417,
      "content": "<｜hy_place▁holder▁no▁399｜>",
      "single_word": false,
      "lstrip": false,
      "rstrip": false,
      "normalized": false,
      "special": true
    },
    {
      "id": 120418,
      "content": "<｜hy_place▁holder▁no▁400｜>",
      "single_word": false,
      "lstrip": false,
      "rstrip": false,
      "normalized": false,
      "special": true
    },
    {
      "id": 120419,
      "content": "<｜hy_place▁holder▁no▁401｜>",
      "single_word": false,
      "lstrip": false,
      "rstrip": false,
      "normalized": false,
      "special": true
    },
    {
      "id": 120420,
      "content": "<｜hy_place▁holder▁no▁402｜>",
      "single_word": false,
      "lstrip": false,
      "rstrip": false,
      "normalized": false,
      "special": true
    },
    {
      "id": 120421,
      "content": "<｜hy_place▁holder▁no▁403｜>",
      "single_word": false,
      "lstrip": false,
      "rstrip": false,
      "normalized": false,
      "special": true
    },
    {
      "id": 120422,
      "content": "<｜hy_place▁holder▁no▁404｜>",
      "single_word": false,
      "lstrip": false,
      "rstrip": false,
      "normalized": false,
      "special": true
    },
    {
      "id": 120423,
      "content": "<｜hy_place▁holder▁no▁405｜>",
      "single_word": false,
      "lstrip": false,
      "rstrip": false,
      "normalized": false,
      "special": true
    },
    {
      "id": 120424,
      "content": "<｜hy_place▁holder▁no▁406｜>",
      "single_word": false,
      "lstrip": false,
      "rstrip": false,
      "normalized": false,
      "special": true
    },
    {
      "id": 120425,
      "content": "<｜hy_place▁holder▁no▁407｜>",
      "single_word": false,
      "lstrip": false,
      "rstrip": false,
      "normalized": false,
      "special": true
    },
    {
      "id": 120426,
      "content": "<｜hy_place▁holder▁no▁408｜>",
      "single_word": false,
      "lstrip": false,
      "rstrip": false,
      "normalized": false,
      "special": true
    },
    {
      "id": 120427,
      "content": "<｜hy_place▁holder▁no▁409｜>",
      "single_word": false,
      "lstrip": false,
      "rstrip": false,
      "normalized": false,
      "special": true
    },
    {
      "id": 120428,
      "content": "<｜hy_place▁holder▁no▁410｜>",
      "single_word": false,
      "lstrip": false,
      "rstrip": false,
      "normalized": false,
      "special": true
    },
    {
      "id": 120429,
      "content": "<｜hy_place▁holder▁no▁411｜>",
      "single_word": false,
      "lstrip": false,
      "rstrip": false,
      "normalized": false,
      "special": true
    },
    {
      "id": 120430,
      "content": "<｜hy_place▁holder▁no▁412｜>",
      "single_word": false,
      "lstrip": false,
      "rstrip": false,
      "normalized": false,
      "special": true
    },
    {
      "id": 120431,
      "content": "<｜hy_place▁holder▁no▁413｜>",
      "single_word": false,
      "lstrip": false,
      "rstrip": false,
      "normalized": false,
      "special": true
    },
    {
      "id": 120432,
      "content": "<｜hy_place▁holder▁no▁414｜>",
      "single_word": false,
      "lstrip": false,
      "rstrip": false,
      "normalized": false,
      "special": true
    },
    {
      "id": 120433,
      "content": "<｜hy_place▁holder▁no▁415｜>",
      "single_word": false,
      "lstrip": false,
      "rstrip": false,
      "normalized": false,
      "special": true
    },
    {
      "id": 120434,
      "content": "<｜hy_place▁holder▁no▁416｜>",
      "single_word": false,
      "lstrip": false,
      "rstrip": false,
      "normalized": false,
      "special": true
    },
    {
      "id": 120435,
      "content": "<｜hy_place▁holder▁no▁417｜>",
      "single_word": false,
      "lstrip": false,
      "rstrip": false,
      "normalized": false,
      "special": true
    },
    {
      "id": 120436,
      "content": "<｜hy_place▁holder▁no▁418｜>",
      "single_word": false,
      "lstrip": false,
      "rstrip": false,
      "normalized": false,
      "special": true
    },
    {
      "id": 120437,
      "content": "<｜hy_place▁holder▁no▁419｜>",
      "single_word": false,
      "lstrip": false,
      "rstrip": false,
      "normalized": false,
      "special": true
    },
    {
      "id": 120438,
      "content": "<｜hy_place▁holder▁no▁420｜>",
      "single_word": false,
      "lstrip": false,
      "rstrip": false,
      "normalized": false,
      "special": true
    },
    {
      "id": 120439,
      "content": "<｜hy_place▁holder▁no▁421｜>",
      "single_word": false,
      "lstrip": false,
      "rstrip": false,
      "normalized": false,
      "special": true
    },
    {
      "id": 120440,
      "content": "<｜hy_place▁holder▁no▁422｜>",
      "single_word": false,
      "lstrip": false,
      "rstrip": false,
      "normalized": false,
      "special": true
    },
    {
      "id": 120441,
      "content": "<｜hy_place▁holder▁no▁423｜>",
      "single_word": false,
      "lstrip": false,
      "rstrip": false,
      "normalized": false,
      "special": true
    },
    {
      "id": 120442,
      "content": "<｜hy_place▁holder▁no▁424｜>",
      "single_word": false,
      "lstrip": false,
      "rstrip": false,
      "normalized": false,
      "special": true
    },
    {
      "id": 120443,
      "content": "<｜hy_place▁holder▁no▁425｜>",
      "single_word": false,
      "lstrip": false,
      "rstrip": false,
      "normalized": false,
      "special": true
    },
    {
      "id": 120444,
      "content": "<｜hy_place▁holder▁no▁426｜>",
      "single_word": false,
      "lstrip": false,
      "rstrip": false,
      "normalized": false,
      "special": true
    },
    {
      "id": 120445,
      "content": "<｜hy_place▁holder▁no▁427｜>",
      "single_word": false,
      "lstrip": false,
      "rstrip": false,
      "normalized": false,
      "special": true
    },
    {
      "id": 120446,
      "content": "<｜hy_place▁holder▁no▁428｜>",
      "single_word": false,
      "lstrip": false,
      "rstrip": false,
      "normalized": false,
      "special": true
    },
    {
      "id": 120447,
      "content": "<｜hy_place▁holder▁no▁429｜>",
      "single_word": false,
      "lstrip": false,
      "rstrip": false,
      "normalized": false,
      "special": true
    },
    {
      "id": 120448,
      "content": "<｜hy_place▁holder▁no▁430｜>",
      "single_word": false,
      "lstrip": false,
      "rstrip": false,
      "normalized": false,
      "special": true
    },
    {
      "id": 120449,
      "content": "<｜hy_place▁holder▁no▁431｜>",
      "single_word": false,
      "lstrip": false,
      "rstrip": false,
      "normalized": false,
      "special": true
    },
    {
      "id": 120450,
      "content": "<｜hy_place▁holder▁no▁432｜>",
      "single_word": false,
      "lstrip": false,
      "rstrip": false,
      "normalized": false,
      "special": true
    },
    {
      "id": 120451,
      "content": "<｜hy_place▁holder▁no▁433｜>",
      "single_word": false,
      "lstrip": false,
      "rstrip": false,
      "normalized": false,
      "special": true
    },
    {
      "id": 120452,
      "content": "<｜hy_place▁holder▁no▁434｜>",
      "single_word": false,
      "lstrip": false,
      "rstrip": false,
      "normalized": false,
      "special": true
    },
    {
      "id": 120453,
      "content": "<｜hy_place▁holder▁no▁435｜>",
      "single_word": false,
      "lstrip": false,
      "rstrip": false,
      "normalized": false,
      "special": true
    },
    {
      "id": 120454,
      "content": "<｜hy_place▁holder▁no▁436｜>",
      "single_word": false,
      "lstrip": false,
      "rstrip": false,
      "normalized": false,
      "special": true
    },
    {
      "id": 120455,
      "content": "<｜hy_place▁holder▁no▁437｜>",
      "single_word": false,
      "lstrip": false,
      "rstrip": false,
      "normalized": false,
      "special": true
    },
    {
      "id": 120456,
      "content": "<｜hy_place▁holder▁no▁438｜>",
      "single_word": false,
      "lstrip": false,
      "rstrip": false,
      "normalized": false,
      "special": true
    },
    {
      "id": 120457,
      "content": "<｜hy_place▁holder▁no▁439｜>",
      "single_word": false,
      "lstrip": false,
      "rstrip": false,
      "normalized": false,
      "special": true
    },
    {
      "id": 120458,
      "content": "<｜hy_place▁holder▁no▁440｜>",
      "single_word": false,
      "lstrip": false,
      "rstrip": false,
      "normalized": false,
      "special": true
    },
    {
      "id": 120459,
      "content": "<｜hy_place▁holder▁no▁441｜>",
      "single_word": false,
      "lstrip": false,
      "rstrip": false,
      "normalized": false,
      "special": true
    },
    {
      "id": 120460,
      "content": "<｜hy_place▁holder▁no▁442｜>",
      "single_word": false,
      "lstrip": false,
      "rstrip": false,
      "normalized": false,
      "special": true
    },
    {
      "id": 120461,
      "content": "<｜hy_place▁holder▁no▁443｜>",
      "single_word": false,
      "lstrip": false,
      "rstrip": false,
      "normalized": false,
      "special": true
    },
    {
      "id": 120462,
      "content": "<｜hy_place▁holder▁no▁444｜>",
      "single_word": false,
      "lstrip": false,
      "rstrip": false,
      "normalized": false,
      "special": true
    },
    {
      "id": 120463,
      "content": "<｜hy_place▁holder▁no▁445｜>",
      "single_word": false,
      "lstrip": false,
      "rstrip": false,
      "normalized": false,
      "special": true
    },
    {
      "id": 120464,
      "content": "<｜hy_place▁holder▁no▁446｜>",
      "single_word": false,
      "lstrip": false,
      "rstrip": false,
      "normalized": false,
      "special": true
    },
    {
      "id": 120465,
      "content": "<｜hy_place▁holder▁no▁447｜>",
      "single_word": false,
      "lstrip": false,
      "rstrip": false,
      "normalized": false,
      "special": true
    },
    {
      "id": 120466,
      "content": "<｜hy_place▁holder▁no▁448｜>",
      "single_word": false,
      "lstrip": false,
      "rstrip": false,
      "normalized": false,
      "special": true
    },
    {
      "id": 120467,
      "content": "<｜hy_place▁holder▁no▁449｜>",
      "single_word": false,
      "lstrip": false,
      "rstrip": false,
      "normalized": false,
      "special": true
    },
    {
      "id": 120468,
      "content": "<｜hy_place▁holder▁no▁450｜>",
      "single_word": false,
      "lstrip": false,
      "rstrip": false,
      "normalized": false,
      "special": true
    },
    {
      "id": 120469,
      "content": "<｜hy_place▁holder▁no▁451｜>",
      "single_word": false,
      "lstrip": false,
      "rstrip": false,
      "normalized": false,
      "special": true
    },
    {
      "id": 120470,
      "content": "<｜hy_place▁holder▁no▁452｜>",
      "single_word": false,
      "lstrip": false,
      "rstrip": false,
      "normalized": false,
      "special": true
    },
    {
      "id": 120471,
      "content": "<｜hy_place▁holder▁no▁453｜>",
      "single_word": false,
      "lstrip": false,
      "rstrip": false,
      "normalized": false,
      "special": true
    },
    {
      "id": 120472,
      "content": "<｜hy_place▁holder▁no▁454｜>",
      "single_word": false,
      "lstrip": false,
      "rstrip": false,
      "normalized": false,
      "special": true
    },
    {
      "id": 120473,
      "content": "<｜hy_place▁holder▁no▁455｜>",
      "single_word": false,
      "lstrip": false,
      "rstrip": false,
      "normalized": false,
      "special": true
    },
    {
      "id": 120474,
      "content": "<｜hy_place▁holder▁no▁456｜>",
      "single_word": false,
      "lstrip": false,
      "rstrip": false,
      "normalized": false,
      "special": true
    },
    {
      "id": 120475,
      "content": "<｜hy_place▁holder▁no▁457｜>",
      "single_word": false,
      "lstrip": false,
      "rstrip": false,
      "normalized": false,
      "special": true
    },
    {
      "id": 120476,
      "content": "<｜hy_place▁holder▁no▁458｜>",
      "single_word": false,
      "lstrip": false,
      "rstrip": false,
      "normalized": false,
      "special": true
    },
    {
      "id": 120477,
      "content": "<｜hy_place▁holder▁no▁459｜>",
      "single_word": false,
      "lstrip": false,
      "rstrip": false,
      "normalized": false,
      "special": true
    },
    {
      "id": 120478,
      "content": "<｜hy_place▁holder▁no▁460｜>",
      "single_word": false,
      "lstrip": false,
      "rstrip": false,
      "normalized": false,
      "special": true
    },
    {
      "id": 120479,
      "content": "<｜hy_place▁holder▁no▁461｜>",
      "single_word": false,
      "lstrip": false,
      "rstrip": false,
      "normalized": false,
      "special": true
    },
    {
      "id": 120480,
      "content": "<｜hy_place▁holder▁no▁462｜>",
      "single_word": false,
      "lstrip": false,
      "rstrip": false,
      "normalized": false,
      "special": true
    },
    {
      "id": 120481,
      "content": "<｜hy_place▁holder▁no▁463｜>",
      "single_word": false,
      "lstrip": false,
      "rstrip": false,
      "normalized": false,
      "special": true
    },
    {
      "id": 120482,
      "content": "<｜hy_place▁holder▁no▁464｜>",
      "single_word": false,
      "lstrip": false,
      "rstrip": false,
      "normalized": false,
      "special": true
    },
    {
      "id": 120483,
      "content": "<｜hy_place▁holder▁no▁465｜>",
      "single_word": false,
      "lstrip": false,
      "rstrip": false,
      "normalized": false,
      "special": true
    },
    {
      "id": 120484,
      "content": "<｜hy_place▁holder▁no▁466｜>",
      "single_word": false,
      "lstrip": false,
      "rstrip": false,
      "normalized": false,
      "special": true
    },
    {
      "id": 120485,
      "content": "<｜hy_place▁holder▁no▁467｜>",
      "single_word": false,
      "lstrip": false,
      "rstrip": false,
      "normalized": false,
      "special": true
    },
    {
      "id": 120486,
      "content": "<｜hy_place▁holder▁no▁468｜>",
      "single_word": false,
      "lstrip": false,
      "rstrip": false,
      "normalized": false,
      "special": true
    },
    {
      "id": 120487,
      "content": "<｜hy_place▁holder▁no▁469｜>",
      "single_word": false,
      "lstrip": false,
      "rstrip": false,
      "normalized": false,
      "special": true
    },
    {
      "id": 120488,
      "content": "<｜hy_place▁holder▁no▁470｜>",
      "single_word": false,
      "lstrip": false,
      "rstrip": false,
      "normalized": false,
      "special": true
    },
    {
      "id": 120489,
      "content": "<｜hy_place▁holder▁no▁471｜>",
      "single_word": false,
      "lstrip": false,
      "rstrip": false,
      "normalized": false,
      "special": true
    },
    {
      "id": 120490,
      "content": "<｜hy_place▁holder▁no▁472｜>",
      "single_word": false,
      "lstrip": false,
      "rstrip": false,
      "normalized": false,
      "special": true
    },
    {
      "id": 120491,
      "content": "<｜hy_place▁holder▁no▁473｜>",
      "single_word": false,
      "lstrip": false,
      "rstrip": false,
      "normalized": false,
      "special": true
    },
    {
      "id": 120492,
      "content": "<｜hy_place▁holder▁no▁474｜>",
      "single_word": false,
      "lstrip": false,
      "rstrip": false,
      "normalized": false,
      "special": true
    },
    {
      "id": 120493,
      "content": "<｜hy_place▁holder▁no▁475｜>",
      "single_word": false,
      "lstrip": false,
      "rstrip": false,
      "normalized": false,
      "special": true
    },
    {
      "id": 120494,
      "content": "<｜hy_place▁holder▁no▁476｜>",
      "single_word": false,
      "lstrip": false,
      "rstrip": false,
      "normalized": false,
      "special": true
    },
    {
      "id": 120495,
      "content": "<｜hy_place▁holder▁no▁477｜>",
      "single_word": false,
      "lstrip": false,
      "rstrip": false,
      "normalized": false,
      "special": true
    },
    {
      "id": 120496,
      "content": "<｜hy_place▁holder▁no▁478｜>",
      "single_word": false,
      "lstrip": false,
      "rstrip": false,
      "normalized": false,
      "special": true
    },
    {
      "id": 120497,
      "content": "<｜hy_place▁holder▁no▁479｜>",
      "single_word": false,
      "lstrip": false,
      "rstrip": false,
      "normalized": false,
      "special": true
    },
    {
      "id": 120498,
      "content": "<｜hy_place▁holder▁no▁480｜>",
      "single_word": false,
      "lstrip": false,
      "rstrip": false,
      "normalized": false,
      "special": true
    },
    {
      "id": 120499,
      "content": "<｜hy_place▁holder▁no▁481｜>",
      "single_word": false,
      "lstrip": false,
      "rstrip": false,
      "normalized": false,
      "special": true
    },
    {
      "id": 120500,
      "content": "<｜hy_place▁holder▁no▁482｜>",
      "single_word": false,
      "lstrip": false,
      "rstrip": false,
      "normalized": false,
      "special": true
    },
    {
      "id": 120501,
      "content": "<｜hy_place▁holder▁no▁483｜>",
      "single_word": false,
      "lstrip": false,
      "rstrip": false,
      "normalized": false,
      "special": true
    },
    {
      "id": 120502,
      "content": "<｜hy_place▁holder▁no▁484｜>",
      "single_word": false,
      "lstrip": false,
      "rstrip": false,
      "normalized": false,
      "special": true
    },
    {
      "id": 120503,
      "content": "<｜hy_place▁holder▁no▁485｜>",
      "single_word": false,
      "lstrip": false,
      "rstrip": false,
      "normalized": false,
      "special": true
    },
    {
      "id": 120504,
      "content": "<｜hy_place▁holder▁no▁486｜>",
      "single_word": false,
      "lstrip": false,
      "rstrip": false,
      "normalized": false,
      "special": true
    },
    {
      "id": 120505,
      "content": "<｜hy_place▁holder▁no▁487｜>",
      "single_word": false,
      "lstrip": false,
      "rstrip": false,
      "normalized": false,
      "special": true
    },
    {
      "id": 120506,
      "content": "<｜hy_place▁holder▁no▁488｜>",
      "single_word": false,
      "lstrip": false,
      "rstrip": false,
      "normalized": false,
      "special": true
    },
    {
      "id": 120507,
      "content": "<｜hy_place▁holder▁no▁489｜>",
      "single_word": false,
      "lstrip": false,
      "rstrip": false,
      "normalized": false,
      "special": true
    },
    {
      "id": 120508,
      "content": "<｜hy_place▁holder▁no▁490｜>",
      "single_word": false,
      "lstrip": false,
      "rstrip": false,
      "normalized": false,
      "special": true
    },
    {
      "id": 120509,
      "content": "<｜hy_place▁holder▁no▁491｜>",
      "single_word": false,
      "lstrip": false,
      "rstrip": false,
      "normalized": false,
      "special": true
    },
    {
      "id": 120510,
      "content": "<｜hy_place▁holder▁no▁492｜>",
      "single_word": false,
      "lstrip": false,
      "rstrip": false,
      "normalized": false,
      "special": true
    },
    {
      "id": 120511,
      "content": "<｜hy_place▁holder▁no▁493｜>",
      "single_word": false,
      "lstrip": false,
      "rstrip": false,
      "normalized": false,
      "special": true
    },
    {
      "id": 120512,
      "content": "<｜hy_place▁holder▁no▁494｜>",
      "single_word": false,
      "lstrip": false,
      "rstrip": false,
      "normalized": false,
      "special": true
    },
    {
      "id": 120513,
      "content": "<｜hy_place▁holder▁no▁495｜>",
      "single_word": false,
      "lstrip": false,
      "rstrip": false,
      "normalized": false,
      "special": true
    },
    {
      "id": 120514,
      "content": "<｜hy_place▁holder▁no▁496｜>",
      "single_word": false,
      "lstrip": false,
      "rstrip": false,
      "normalized": false,
      "special": true
    },
    {
      "id": 120515,
      "content": "<｜hy_place▁holder▁no▁497｜>",
      "single_word": false,
      "lstrip": false,
      "rstrip": false,
      "normalized": false,
      "special": true
    },
    {
      "id": 120516,
      "content": "<｜hy_place▁holder▁no▁498｜>",
      "single_word": false,
      "lstrip": false,
      "rstrip": false,
      "normalized": false,
      "special": true
    },
    {
      "id": 120517,
      "content": "<｜hy_place▁holder▁no▁499｜>",
      "single_word": false,
      "lstrip": false,
      "rstrip": false,
      "normalized": false,
      "special": true
    },
    {
      "id": 120518,
      "content": "<｜hy_place▁holder▁no▁500｜>",
      "single_word": false,
      "lstrip": false,
      "rstrip": false,
      "normalized": false,
      "special": true
    },
    {
      "id": 120519,
      "content": "<｜hy_place▁holder▁no▁501｜>",
      "single_word": false,
      "lstrip": false,
      "rstrip": false,
      "normalized": false,
      "special": true
    },
    {
      "id": 120520,
      "content": "<｜hy_place▁holder▁no▁502｜>",
      "single_word": false,
      "lstrip": false,
      "rstrip": false,
      "normalized": false,
      "special": true
    },
    {
      "id": 120521,
      "content": "<｜hy_place▁holder▁no▁503｜>",
      "single_word": false,
      "lstrip": false,
      "rstrip": false,
      "normalized": false,
      "special": true
    },
    {
      "id": 120522,
      "content": "<｜hy_place▁holder▁no▁504｜>",
      "single_word": false,
      "lstrip": false,
      "rstrip": false,
      "normalized": false,
      "special": true
    },
    {
      "id": 120523,
      "content": "<｜hy_place▁holder▁no▁505｜>",
      "single_word": false,
      "lstrip": false,
      "rstrip": false,
      "normalized": false,
      "special": true
    },
    {
      "id": 120524,
      "content": "<｜hy_place▁holder▁no▁506｜>",
      "single_word": false,
      "lstrip": false,
      "rstrip": false,
      "normalized": false,
      "special": true
    },
    {
      "id": 120525,
      "content": "<｜hy_place▁holder▁no▁507｜>",
      "single_word": false,
      "lstrip": false,
      "rstrip": false,
      "normalized": false,
      "special": true
    },
    {
      "id": 120526,
      "content": "<｜hy_place▁holder▁no▁508｜>",
      "single_word": false,
      "lstrip": false,
      "rstrip": false,
      "normalized": false,
      "special": true
    },
    {
      "id": 120527,
      "content": "<｜hy_place▁holder▁no▁509｜>",
      "single_word": false,
      "lstrip": false,
      "rstrip": false,
      "normalized": false,
      "special": true
    },
    {
      "id": 120528,
      "content": "<｜hy_place▁holder▁no▁510｜>",
      "single_word": false,
      "lstrip": false,
      "rstrip": false,
      "normalized": false,
      "special": true
    },
    {
      "id": 120529,
      "content": "<｜hy_place▁holder▁no▁511｜>",
      "single_word": false,
      "lstrip": false,
      "rstrip": false,
      "normalized": false,
      "special": true
    },
    {
      "id": 120530,
      "content": "<｜hy_place▁holder▁no▁512｜>",
      "single_word": false,
      "lstrip": false,
      "rstrip": false,
      "normalized": false,
      "special": true
    },
    {
      "id": 120531,
      "content": "<｜hy_place▁holder▁no▁513｜>",
      "single_word": false,
      "lstrip": false,
      "rstrip": false,
      "normalized": false,
      "special": true
    },
    {
      "id": 120532,
      "content": "<｜hy_place▁holder▁no▁514｜>",
      "single_word": false,
      "lstrip": false,
      "rstrip": false,
      "normalized": false,
      "special": true
    },
    {
      "id": 120533,
      "content": "<｜hy_place▁holder▁no▁515｜>",
      "single_word": false,
      "lstrip": false,
      "rstrip": false,
      "normalized": false,
      "special": true
    },
    {
      "id": 120534,
      "content": "<｜hy_place▁holder▁no▁516｜>",
      "single_word": false,
      "lstrip": false,
      "rstrip": false,
      "normalized": false,
      "special": true
    },
    {
      "id": 120535,
      "content": "<｜hy_place▁holder▁no▁517｜>",
      "single_word": false,
      "lstrip": false,
      "rstrip": false,
      "normalized": false,
      "special": true
    },
    {
      "id": 120536,
      "content": "<｜hy_place▁holder▁no▁518｜>",
      "single_word": false,
      "lstrip": false,
      "rstrip": false,
      "normalized": false,
      "special": true
    },
    {
      "id": 120537,
      "content": "<｜hy_place▁holder▁no▁519｜>",
      "single_word": false,
      "lstrip": false,
      "rstrip": false,
      "normalized": false,
      "special": true
    },
    {
      "id": 120538,
      "content": "<｜hy_place▁holder▁no▁520｜>",
      "single_word": false,
      "lstrip": false,
      "rstrip": false,
      "normalized": false,
      "special": true
    },
    {
      "id": 120539,
      "content": "<｜hy_place▁holder▁no▁521｜>",
      "single_word": false,
      "lstrip": false,
      "rstrip": false,
      "normalized": false,
      "special": true
    },
    {
      "id": 120540,
      "content": "<｜hy_place▁holder▁no▁522｜>",
      "single_word": false,
      "lstrip": false,
      "rstrip": false,
      "normalized": false,
      "special": true
    },
    {
      "id": 120541,
      "content": "<｜hy_place▁holder▁no▁523｜>",
      "single_word": false,
      "lstrip": false,
      "rstrip": false,
      "normalized": false,
      "special": true
    },
    {
      "id": 120542,
      "content": "<｜hy_place▁holder▁no▁524｜>",
      "single_word": false,
      "lstrip": false,
      "rstrip": false,
      "normalized": false,
      "special": true
    },
    {
      "id": 120543,
      "content": "<｜hy_place▁holder▁no▁525｜>",
      "single_word": false,
      "lstrip": false,
      "rstrip": false,
      "normalized": false,
      "special": true
    },
    {
      "id": 120544,
      "content": "<｜hy_place▁holder▁no▁526｜>",
      "single_word": false,
      "lstrip": false,
      "rstrip": false,
      "normalized": false,
      "special": true
    },
    {
      "id": 120545,
      "content": "<｜hy_place▁holder▁no▁527｜>",
      "single_word": false,
      "lstrip": false,
      "rstrip": false,
      "normalized": false,
      "special": true
    },
    {
      "id": 120546,
      "content": "<｜hy_place▁holder▁no▁528｜>",
      "single_word": false,
      "lstrip": false,
      "rstrip": false,
      "normalized": false,
      "special": true
    },
    {
      "id": 120547,
      "content": "<｜hy_place▁holder▁no▁529｜>",
      "single_word": false,
      "lstrip": false,
      "rstrip": false,
      "normalized": false,
      "special": true
    },
    {
      "id": 120548,
      "content": "<｜hy_place▁holder▁no▁530｜>",
      "single_word": false,
      "lstrip": false,
      "rstrip": false,
      "normalized": false,
      "special": true
    },
    {
      "id": 120549,
      "content": "<｜hy_place▁holder▁no▁531｜>",
      "single_word": false,
      "lstrip": false,
      "rstrip": false,
      "normalized": false,
      "special": true
    },
    {
      "id": 120550,
      "content": "<｜hy_place▁holder▁no▁532｜>",
      "single_word": false,
      "lstrip": false,
      "rstrip": false,
      "normalized": false,
      "special": true
    },
    {
      "id": 120551,
      "content": "<｜hy_place▁holder▁no▁533｜>",
      "single_word": false,
      "lstrip": false,
      "rstrip": false,
      "normalized": false,
      "special": true
    },
    {
      "id": 120552,
      "content": "<｜hy_place▁holder▁no▁534｜>",
      "single_word": false,
      "lstrip": false,
      "rstrip": false,
      "normalized": false,
      "special": true
    },
    {
      "id": 120553,
      "content": "<｜hy_place▁holder▁no▁535｜>",
      "single_word": false,
      "lstrip": false,
      "rstrip": false,
      "normalized": false,
      "special": true
    },
    {
      "id": 120554,
      "content": "<｜hy_place▁holder▁no▁536｜>",
      "single_word": false,
      "lstrip": false,
      "rstrip": false,
      "normalized": false,
      "special": true
    },
    {
      "id": 120555,
      "content": "<｜hy_place▁holder▁no▁537｜>",
      "single_word": false,
      "lstrip": false,
      "rstrip": false,
      "normalized": false,
      "special": true
    },
    {
      "id": 120556,
      "content": "<｜hy_place▁holder▁no▁538｜>",
      "single_word": false,
      "lstrip": false,
      "rstrip": false,
      "normalized": false,
      "special": true
    },
    {
      "id": 120557,
      "content": "<｜hy_place▁holder▁no▁539｜>",
      "single_word": false,
      "lstrip": false,
      "rstrip": false,
      "normalized": false,
      "special": true
    },
    {
      "id": 120558,
      "content": "<｜hy_place▁holder▁no▁540｜>",
      "single_word": false,
      "lstrip": false,
      "rstrip": false,
      "normalized": false,
      "special": true
    },
    {
      "id": 120559,
      "content": "<｜hy_place▁holder▁no▁541｜>",
      "single_word": false,
      "lstrip": false,
      "rstrip": false,
      "normalized": false,
      "special": true
    },
    {
      "id": 120560,
      "content": "<｜hy_place▁holder▁no▁542｜>",
      "single_word": false,
      "lstrip": false,
      "rstrip": false,
      "normalized": false,
      "special": true
    },
    {
      "id": 120561,
      "content": "<｜hy_place▁holder▁no▁543｜>",
      "single_word": false,
      "lstrip": false,
      "rstrip": false,
      "normalized": false,
      "special": true
    },
    {
      "id": 120562,
      "content": "<｜hy_place▁holder▁no▁544｜>",
      "single_word": false,
      "lstrip": false,
      "rstrip": false,
      "normalized": false,
      "special": true
    },
    {
      "id": 120563,
      "content": "<｜hy_place▁holder▁no▁545｜>",
      "single_word": false,
      "lstrip": false,
      "rstrip": false,
      "normalized": false,
      "special": true
    },
    {
      "id": 120564,
      "content": "<｜hy_place▁holder▁no▁546｜>",
      "single_word": false,
      "lstrip": false,
      "rstrip": false,
      "normalized": false,
      "special": true
    },
    {
      "id": 120565,
      "content": "<｜hy_place▁holder▁no▁547｜>",
      "single_word": false,
      "lstrip": false,
      "rstrip": false,
      "normalized": false,
      "special": true
    },
    {
      "id": 120566,
      "content": "<｜hy_place▁holder▁no▁548｜>",
      "single_word": false,
      "lstrip": false,
      "rstrip": false,
      "normalized": false,
      "special": true
    },
    {
      "id": 120567,
      "content": "<｜hy_place▁holder▁no▁549｜>",
      "single_word": false,
      "lstrip": false,
      "rstrip": false,
      "normalized": false,
      "special": true
    },
    {
      "id": 120568,
      "content": "<｜hy_place▁holder▁no▁550｜>",
      "single_word": false,
      "lstrip": false,
      "rstrip": false,
      "normalized": false,
      "special": true
    },
    {
      "id": 120569,
      "content": "<｜hy_place▁holder▁no▁551｜>",
      "single_word": false,
      "lstrip": false,
      "rstrip": false,
      "normalized": false,
      "special": true
    },
    {
      "id": 120570,
      "content": "<｜hy_place▁holder▁no▁552｜>",
      "single_word": false,
      "lstrip": false,
      "rstrip": false,
      "normalized": false,
      "special": true
    },
    {
      "id": 120571,
      "content": "<｜hy_place▁holder▁no▁553｜>",
      "single_word": false,
      "lstrip": false,
      "rstrip": false,
      "normalized": false,
      "special": true
    },
    {
      "id": 120572,
      "content": "<｜hy_place▁holder▁no▁554｜>",
      "single_word": false,
      "lstrip": false,
      "rstrip": false,
      "normalized": false,
      "special": true
    },
    {
      "id": 120573,
      "content": "<｜hy_place▁holder▁no▁555｜>",
      "single_word": false,
      "lstrip": false,
      "rstrip": false,
      "normalized": false,
      "special": true
    },
    {
      "id": 120574,
      "content": "<｜hy_place▁holder▁no▁556｜>",
      "single_word": false,
      "lstrip": false,
      "rstrip": false,
      "normalized": false,
      "special": true
    },
    {
      "id": 120575,
      "content": "<｜hy_place▁holder▁no▁557｜>",
      "single_word": false,
      "lstrip": false,
      "rstrip": false,
      "normalized": false,
      "special": true
    },
    {
      "id": 120576,
      "content": "<｜hy_place▁holder▁no▁558｜>",
      "single_word": false,
      "lstrip": false,
      "rstrip": false,
      "normalized": false,
      "special": true
    },
    {
      "id": 120577,
      "content": "<｜hy_place▁holder▁no▁559｜>",
      "single_word": false,
      "lstrip": false,
      "rstrip": false,
      "normalized": false,
      "special": true
    },
    {
      "id": 120578,
      "content": "<｜hy_place▁holder▁no▁560｜>",
      "single_word": false,
      "lstrip": false,
      "rstrip": false,
      "normalized": false,
      "special": true
    },
    {
      "id": 120579,
      "content": "<｜hy_place▁holder▁no▁561｜>",
      "single_word": false,
      "lstrip": false,
      "rstrip": false,
      "normalized": false,
      "special": true
    },
    {
      "id": 120580,
      "content": "<｜hy_place▁holder▁no▁562｜>",
      "single_word": false,
      "lstrip": false,
      "rstrip": false,
      "normalized": false,
      "special": true
    },
    {
      "id": 120581,
      "content": "<｜hy_place▁holder▁no▁563｜>",
      "single_word": false,
      "lstrip": false,
      "rstrip": false,
      "normalized": false,
      "special": true
    },
    {
      "id": 120582,
      "content": "<｜hy_place▁holder▁no▁564｜>",
      "single_word": false,
      "lstrip": false,
      "rstrip": false,
      "normalized": false,
      "special": true
    },
    {
      "id": 120583,
      "content": "<｜hy_place▁holder▁no▁565｜>",
      "single_word": false,
      "lstrip": false,
      "rstrip": false,
      "normalized": false,
      "special": true
    },
    {
      "id": 120584,
      "content": "<｜hy_place▁holder▁no▁566｜>",
      "single_word": false,
      "lstrip": false,
      "rstrip": false,
      "normalized": false,
      "special": true
    },
    {
      "id": 120585,
      "content": "<｜hy_place▁holder▁no▁567｜>",
      "single_word": false,
      "lstrip": false,
      "rstrip": false,
      "normalized": false,
      "special": true
    },
    {
      "id": 120586,
      "content": "<｜hy_place▁holder▁no▁568｜>",
      "single_word": false,
      "lstrip": false,
      "rstrip": false,
      "normalized": false,
      "special": true
    },
    {
      "id": 120587,
      "content": "<｜hy_place▁holder▁no▁569｜>",
      "single_word": false,
      "lstrip": false,
      "rstrip": false,
      "normalized": false,
      "special": true
    },
    {
      "id": 120588,
      "content": "<｜hy_place▁holder▁no▁570｜>",
      "single_word": false,
      "lstrip": false,
      "rstrip": false,
      "normalized": false,
      "special": true
    },
    {
      "id": 120589,
      "content": "<｜hy_place▁holder▁no▁571｜>",
      "single_word": false,
      "lstrip": false,
      "rstrip": false,
      "normalized": false,
      "special": true
    },
    {
      "id": 120590,
      "content": "<｜hy_place▁holder▁no▁572｜>",
      "single_word": false,
      "lstrip": false,
      "rstrip": false,
      "normalized": false,
      "special": true
    },
    {
      "id": 120591,
      "content": "<｜hy_place▁holder▁no▁573｜>",
      "single_word": false,
      "lstrip": false,
      "rstrip": false,
      "normalized": false,
      "special": true
    },
    {
      "id": 120592,
      "content": "<｜hy_place▁holder▁no▁574｜>",
      "single_word": false,
      "lstrip": false,
      "rstrip": false,
      "normalized": false,
      "special": true
    },
    {
      "id": 120593,
      "content": "<｜hy_place▁holder▁no▁575｜>",
      "single_word": false,
      "lstrip": false,
      "rstrip": false,
      "normalized": false,
      "special": true
    },
    {
      "id": 120594,
      "content": "<｜hy_place▁holder▁no▁576｜>",
      "single_word": false,
      "lstrip": false,
      "rstrip": false,
      "normalized": false,
      "special": true
    },
    {
      "id": 120595,
      "content": "<｜hy_place▁holder▁no▁577｜>",
      "single_word": false,
      "lstrip": false,
      "rstrip": false,
      "normalized": false,
      "special": true
    },
    {
      "id": 120596,
      "content": "<｜hy_place▁holder▁no▁578｜>",
      "single_word": false,
      "lstrip": false,
      "rstrip": false,
      "normalized": false,
      "special": true
    },
    {
      "id": 120597,
      "content": "<｜hy_place▁holder▁no▁579｜>",
      "single_word": false,
      "lstrip": false,
      "rstrip": false,
      "normalized": false,
      "special": true
    },
    {
      "id": 120598,
      "content": "<｜hy_place▁holder▁no▁580｜>",
      "single_word": false,
      "lstrip": false,
      "rstrip": false,
      "normalized": false,
      "special": true
    },
    {
      "id": 120599,
      "content": "<｜hy_place▁holder▁no▁581｜>",
      "single_word": false,
      "lstrip": false,
      "rstrip": false,
      "normalized": false,
      "special": true
    },
    {
      "id": 120600,
      "content": "<｜hy_place▁holder▁no▁582｜>",
      "single_word": false,
      "lstrip": false,
      "rstrip": false,
      "normalized": false,
      "special": true
    },
    {
      "id": 120601,
      "content": "<｜hy_place▁holder▁no▁583｜>",
      "single_word": false,
      "lstrip": false,
      "rstrip": false,
      "normalized": false,
      "special": true
    },
    {
      "id": 120602,
      "content": "<｜hy_place▁holder▁no▁584｜>",
      "single_word": false,
      "lstrip": false,
      "rstrip": false,
      "normalized": false,
      "special": true
    },
    {
      "id": 120603,
      "content": "<｜hy_place▁holder▁no▁585｜>",
      "single_word": false,
      "lstrip": false,
      "rstrip": false,
      "normalized": false,
      "special": true
    },
    {
      "id": 120604,
      "content": "<｜hy_place▁holder▁no▁586｜>",
      "single_word": false,
      "lstrip": false,
      "rstrip": false,
      "normalized": false,
      "special": true
    },
    {
      "id": 120605,
      "content": "<｜hy_place▁holder▁no▁587｜>",
      "single_word": false,
      "lstrip": false,
      "rstrip": false,
      "normalized": false,
      "special": true
    },
    {
      "id": 120606,
      "content": "<｜hy_place▁holder▁no▁588｜>",
      "single_word": false,
      "lstrip": false,
      "rstrip": false,
      "normalized": false,
      "special": true
    },
    {
      "id": 120607,
      "content": "<｜hy_place▁holder▁no▁589｜>",
      "single_word": false,
      "lstrip": false,
      "rstrip": false,
      "normalized": false,
      "special": true
    },
    {
      "id": 120608,
      "content": "<｜hy_place▁holder▁no▁590｜>",
      "single_word": false,
      "lstrip": false,
      "rstrip": false,
      "normalized": false,
      "special": true
    },
    {
      "id": 120609,
      "content": "<｜hy_place▁holder▁no▁591｜>",
      "single_word": false,
      "lstrip": false,
      "rstrip": false,
      "normalized": false,
      "special": true
    },
    {
      "id": 120610,
      "content": "<｜hy_place▁holder▁no▁592｜>",
      "single_word": false,
      "lstrip": false,
      "rstrip": false,
      "normalized": false,
      "special": true
    },
    {
      "id": 120611,
      "content": "<｜hy_place▁holder▁no▁593｜>",
      "single_word": false,
      "lstrip": false,
      "rstrip": false,
      "normalized": false,
      "special": true
    },
    {
      "id": 120612,
      "content": "<｜hy_place▁holder▁no▁594｜>",
      "single_word": false,
      "lstrip": false,
      "rstrip": false,
      "normalized": false,
      "special": true
    },
    {
      "id": 120613,
      "content": "<｜hy_place▁holder▁no▁595｜>",
      "single_word": false,
      "lstrip": false,
      "rstrip": false,
      "normalized": false,
      "special": true
    },
    {
      "id": 120614,
      "content": "<｜hy_place▁holder▁no▁596｜>",
      "single_word": false,
      "lstrip": false,
      "rstrip": false,
      "normalized": false,
      "special": true
    },
    {
      "id": 120615,
      "content": "<｜hy_place▁holder▁no▁597｜>",
      "single_word": false,
      "lstrip": false,
      "rstrip": false,
      "normalized": false,
      "special": true
    },
    {
      "id": 120616,
      "content": "<｜hy_place▁holder▁no▁598｜>",
      "single_word": false,
      "lstrip": false,
      "rstrip": false,
      "normalized": false,
      "special": true
    },
    {
      "id": 120617,
      "content": "<｜hy_place▁holder▁no▁599｜>",
      "single_word": false,
      "lstrip": false,
      "rstrip": false,
      "normalized": false,
      "special": true
    },
    {
      "id": 120618,
      "content": "<｜hy_place▁holder▁no▁600｜>",
      "single_word": false,
      "lstrip": false,
      "rstrip": false,
      "normalized": false,
      "special": true
    },
    {
      "id": 120619,
      "content": "<｜hy_place▁holder▁no▁601｜>",
      "single_word": false,
      "lstrip": false,
      "rstrip": false,
      "normalized": false,
      "special": true
    },
    {
      "id": 120620,
      "content": "<｜hy_place▁holder▁no▁602｜>",
      "single_word": false,
      "lstrip": false,
      "rstrip": false,
      "normalized": false,
      "special": true
    },
    {
      "id": 120621,
      "content": "<｜hy_place▁holder▁no▁603｜>",
      "single_word": false,
      "lstrip": false,
      "rstrip": false,
      "normalized": false,
      "special": true
    },
    {
      "id": 120622,
      "content": "<｜hy_place▁holder▁no▁604｜>",
      "single_word": false,
      "lstrip": false,
      "rstrip": false,
      "normalized": false,
      "special": true
    },
    {
      "id": 120623,
      "content": "<｜hy_place▁holder▁no▁605｜>",
      "single_word": false,
      "lstrip": false,
      "rstrip": false,
      "normalized": false,
      "special": true
    },
    {
      "id": 120624,
      "content": "<｜hy_place▁holder▁no▁606｜>",
      "single_word": false,
      "lstrip": false,
      "rstrip": false,
      "normalized": false,
      "special": true
    },
    {
      "id": 120625,
      "content": "<｜hy_place▁holder▁no▁607｜>",
      "single_word": false,
      "lstrip": false,
      "rstrip": false,
      "normalized": false,
      "special": true
    },
    {
      "id": 120626,
      "content": "<｜hy_place▁holder▁no▁608｜>",
      "single_word": false,
      "lstrip": false,
      "rstrip": false,
      "normalized": false,
      "special": true
    },
    {
      "id": 120627,
      "content": "<｜hy_place▁holder▁no▁609｜>",
      "single_word": false,
      "lstrip": false,
      "rstrip": false,
      "normalized": false,
      "special": true
    },
    {
      "id": 120628,
      "content": "<｜hy_place▁holder▁no▁610｜>",
      "single_word": false,
      "lstrip": false,
      "rstrip": false,
      "normalized": false,
      "special": true
    },
    {
      "id": 120629,
      "content": "<｜hy_place▁holder▁no▁611｜>",
      "single_word": false,
      "lstrip": false,
      "rstrip": false,
      "normalized": false,
      "special": true
    },
    {
      "id": 120630,
      "content": "<｜hy_place▁holder▁no▁612｜>",
      "single_word": false,
      "lstrip": false,
      "rstrip": false,
      "normalized": false,
      "special": true
    },
    {
      "id": 120631,
      "content": "<｜hy_place▁holder▁no▁613｜>",
      "single_word": false,
      "lstrip": false,
      "rstrip": false,
      "normalized": false,
      "special": true
    },
    {
      "id": 120632,
      "content": "<｜hy_place▁holder▁no▁614｜>",
      "single_word": false,
      "lstrip": false,
      "rstrip": false,
      "normalized": false,
      "special": true
    },
    {
      "id": 120633,
      "content": "<｜hy_place▁holder▁no▁615｜>",
      "single_word": false,
      "lstrip": false,
      "rstrip": false,
      "normalized": false,
      "special": true
    },
    {
      "id": 120634,
      "content": "<｜hy_place▁holder▁no▁616｜>",
      "single_word": false,
      "lstrip": false,
      "rstrip": false,
      "normalized": false,
      "special": true
    },
    {
      "id": 120635,
      "content": "<｜hy_place▁holder▁no▁617｜>",
      "single_word": false,
      "lstrip": false,
      "rstrip": false,
      "normalized": false,
      "special": true
    },
    {
      "id": 120636,
      "content": "<｜hy_place▁holder▁no▁618｜>",
      "single_word": false,
      "lstrip": false,
      "rstrip": false,
      "normalized": false,
      "special": true
    },
    {
      "id": 120637,
      "content": "<｜hy_place▁holder▁no▁619｜>",
      "single_word": false,
      "lstrip": false,
      "rstrip": false,
      "normalized": false,
      "special": true
    },
    {
      "id": 120638,
      "content": "<｜hy_place▁holder▁no▁620｜>",
      "single_word": false,
      "lstrip": false,
      "rstrip": false,
      "normalized": false,
      "special": true
    },
    {
      "id": 120639,
      "content": "<｜hy_place▁holder▁no▁621｜>",
      "single_word": false,
      "lstrip": false,
      "rstrip": false,
      "normalized": false,
      "special": true
    },
    {
      "id": 120640,
      "content": "<｜hy_place▁holder▁no▁622｜>",
      "single_word": false,
      "lstrip": false,
      "rstrip": false,
      "normalized": false,
      "special": true
    },
    {
      "id": 120641,
      "content": "<｜hy_place▁holder▁no▁623｜>",
      "single_word": false,
      "lstrip": false,
      "rstrip": false,
      "normalized": false,
      "special": true
    },
    {
      "id": 120642,
      "content": "<｜hy_place▁holder▁no▁624｜>",
      "single_word": false,
      "lstrip": false,
      "rstrip": false,
      "normalized": false,
      "special": true
    },
    {
      "id": 120643,
      "content": "<｜hy_place▁holder▁no▁625｜>",
      "single_word": false,
      "lstrip": false,
      "rstrip": false,
      "normalized": false,
      "special": true
    },
    {
      "id": 120644,
      "content": "<｜hy_place▁holder▁no▁626｜>",
      "single_word": false,
      "lstrip": false,
      "rstrip": false,
      "normalized": false,
      "special": true
    },
    {
      "id": 120645,
      "content": "<｜hy_place▁holder▁no▁627｜>",
      "single_word": false,
      "lstrip": false,
      "rstrip": false,
      "normalized": false,
      "special": true
    },
    {
      "id": 120646,
      "content": "<｜hy_place▁holder▁no▁628｜>",
      "single_word": false,
      "lstrip": false,
      "rstrip": false,
      "normalized": false,
      "special": true
    },
    {
      "id": 120647,
      "content": "<｜hy_place▁holder▁no▁629｜>",
      "single_word": false,
      "lstrip": false,
      "rstrip": false,
      "normalized": false,
      "special": true
    },
    {
      "id": 120648,
      "content": "<｜hy_place▁holder▁no▁630｜>",
      "single_word": false,
      "lstrip": false,
      "rstrip": false,
      "normalized": false,
      "special": true
    },
    {
      "id": 120649,
      "content": "<｜hy_place▁holder▁no▁631｜>",
      "single_word": false,
      "lstrip": false,
      "rstrip": false,
      "normalized": false,
      "special": true
    },
    {
      "id": 120650,
      "content": "<｜hy_place▁holder▁no▁632｜>",
      "single_word": false,
      "lstrip": false,
      "rstrip": false,
      "normalized": false,
      "special": true
    },
    {
      "id": 120651,
      "content": "<｜hy_place▁holder▁no▁633｜>",
      "single_word": false,
      "lstrip": false,
      "rstrip": false,
      "normalized": false,
      "special": true
    },
    {
      "id": 120652,
      "content": "<｜hy_place▁holder▁no▁634｜>",
      "single_word": false,
      "lstrip": false,
      "rstrip": false,
      "normalized": false,
      "special": true
    },
    {
      "id": 120653,
      "content": "<｜hy_place▁holder▁no▁635｜>",
      "single_word": false,
      "lstrip": false,
      "rstrip": false,
      "normalized": false,
      "special": true
    },
    {
      "id": 120654,
      "content": "<｜hy_place▁holder▁no▁636｜>",
      "single_word": false,
      "lstrip": false,
      "rstrip": false,
      "normalized": false,
      "special": true
    },
    {
      "id": 120655,
      "content": "<｜hy_place▁holder▁no▁637｜>",
      "single_word": false,
      "lstrip": false,
      "rstrip": false,
      "normalized": false,
      "special": true
    },
    {
      "id": 120656,
      "content": "<｜hy_place▁holder▁no▁638｜>",
      "single_word": false,
      "lstrip": false,
      "rstrip": false,
      "normalized": false,
      "special": true
    },
    {
      "id": 120657,
      "content": "<｜hy_place▁holder▁no▁639｜>",
      "single_word": false,
      "lstrip": false,
      "rstrip": false,
      "normalized": false,
      "special": true
    },
    {
      "id": 120658,
      "content": "<｜hy_place▁holder▁no▁640｜>",
      "single_word": false,
      "lstrip": false,
      "rstrip": false,
      "normalized": false,
      "special": true
    },
    {
      "id": 120659,
      "content": "<｜hy_place▁holder▁no▁641｜>",
      "single_word": false,
      "lstrip": false,
      "rstrip": false,
      "normalized": false,
      "special": true
    },
    {
      "id": 120660,
      "content": "<｜hy_place▁holder▁no▁642｜>",
      "single_word": false,
      "lstrip": false,
      "rstrip": false,
      "normalized": false,
      "special": true
    },
    {
      "id": 120661,
      "content": "<｜hy_place▁holder▁no▁643｜>",
      "single_word": false,
      "lstrip": false,
      "rstrip": false,
      "normalized": false,
      "special": true
    },
    {
      "id": 120662,
      "content": "<｜hy_place▁holder▁no▁644｜>",
      "single_word": false,
      "lstrip": false,
      "rstrip": false,
      "normalized": false,
      "special": true
    },
    {
      "id": 120663,
      "content": "<｜hy_place▁holder▁no▁645｜>",
      "single_word": false,
      "lstrip": false,
      "rstrip": false,
      "normalized": false,
      "special": true
    },
    {
      "id": 120664,
      "content": "<｜hy_place▁holder▁no▁646｜>",
      "single_word": false,
      "lstrip": false,
      "rstrip": false,
      "normalized": false,
      "special": true
    },
    {
      "id": 120665,
      "content": "<｜hy_place▁holder▁no▁647｜>",
      "single_word": false,
      "lstrip": false,
      "rstrip": false,
      "normalized": false,
      "special": true
    },
    {
      "id": 120666,
      "content": "<｜hy_place▁holder▁no▁648｜>",
      "single_word": false,
      "lstrip": false,
      "rstrip": false,
      "normalized": false,
      "special": true
    },
    {
      "id": 120667,
      "content": "<｜hy_place▁holder▁no▁649｜>",
      "single_word": false,
      "lstrip": false,
      "rstrip": false,
      "normalized": false,
      "special": true
    },
    {
      "id": 120668,
      "content": "<｜hy_place▁holder▁no▁650｜>",
      "single_word": false,
      "lstrip": false,
      "rstrip": false,
      "normalized": false,
      "special": true
    },
    {
      "id": 120669,
      "content": "<｜hy_place▁holder▁no▁651｜>",
      "single_word": false,
      "lstrip": false,
      "rstrip": false,
      "normalized": false,
      "special": true
    },
    {
      "id": 120670,
      "content": "<｜hy_place▁holder▁no▁652｜>",
      "single_word": false,
      "lstrip": false,
      "rstrip": false,
      "normalized": false,
      "special": true
    },
    {
      "id": 120671,
      "content": "<｜hy_place▁holder▁no▁653｜>",
      "single_word": false,
      "lstrip": false,
      "rstrip": false,
      "normalized": false,
      "special": true
    },
    {
      "id": 120672,
      "content": "<｜hy_place▁holder▁no▁654｜>",
      "single_word": false,
      "lstrip": false,
      "rstrip": false,
      "normalized": false,
      "special": true
    },
    {
      "id": 120673,
      "content": "<｜hy_place▁holder▁no▁655｜>",
      "single_word": false,
      "lstrip": false,
      "rstrip": false,
      "normalized": false,
      "special": true
    },
    {
      "id": 120674,
      "content": "<｜hy_place▁holder▁no▁656｜>",
      "single_word": false,
      "lstrip": false,
      "rstrip": false,
      "normalized": false,
      "special": true
    },
    {
      "id": 120675,
      "content": "<｜hy_place▁holder▁no▁657｜>",
      "single_word": false,
      "lstrip": false,
      "rstrip": false,
      "normalized": false,
      "special": true
    },
    {
      "id": 120676,
      "content": "<｜hy_place▁holder▁no▁658｜>",
      "single_word": false,
      "lstrip": false,
      "rstrip": false,
      "normalized": false,
      "special": true
    },
    {
      "id": 120677,
      "content": "<｜hy_place▁holder▁no▁659｜>",
      "single_word": false,
      "lstrip": false,
      "rstrip": false,
      "normalized": false,
      "special": true
    },
    {
      "id": 120678,
      "content": "<｜hy_place▁holder▁no▁660｜>",
      "single_word": false,
      "lstrip": false,
      "rstrip": false,
      "normalized": false,
      "special": true
    },
    {
      "id": 120679,
      "content": "<｜hy_place▁holder▁no▁661｜>",
      "single_word": false,
      "lstrip": false,
      "rstrip": false,
      "normalized": false,
      "special": true
    },
    {
      "id": 120680,
      "content": "<｜hy_place▁holder▁no▁662｜>",
      "single_word": false,
      "lstrip": false,
      "rstrip": false,
      "normalized": false,
      "special": true
    },
    {
      "id": 120681,
      "content": "<｜hy_place▁holder▁no▁663｜>",
      "single_word": false,
      "lstrip": false,
      "rstrip": false,
      "normalized": false,
      "special": true
    },
    {
      "id": 120682,
      "content": "<｜hy_place▁holder▁no▁664｜>",
      "single_word": false,
      "lstrip": false,
      "rstrip": false,
      "normalized": false,
      "special": true
    },
    {
      "id": 120683,
      "content": "<｜hy_place▁holder▁no▁665｜>",
      "single_word": false,
      "lstrip": false,
      "rstrip": false,
      "normalized": false,
      "special": true
    },
    {
      "id": 120684,
      "content": "<｜hy_place▁holder▁no▁666｜>",
      "single_word": false,
      "lstrip": false,
      "rstrip": false,
      "normalized": false,
      "special": true
    },
    {
      "id": 120685,
      "content": "<｜hy_place▁holder▁no▁667｜>",
      "single_word": false,
      "lstrip": false,
      "rstrip": false,
      "normalized": false,
      "special": true
    },
    {
      "id": 120686,
      "content": "<｜hy_place▁holder▁no▁668｜>",
      "single_word": false,
      "lstrip": false,
      "rstrip": false,
      "normalized": false,
      "special": true
    },
    {
      "id": 120687,
      "content": "<｜hy_place▁holder▁no▁669｜>",
      "single_word": false,
      "lstrip": false,
      "rstrip": false,
      "normalized": false,
      "special": true
    },
    {
      "id": 120688,
      "content": "<｜hy_place▁holder▁no▁670｜>",
      "single_word": false,
      "lstrip": false,
      "rstrip": false,
      "normalized": false,
      "special": true
    },
    {
      "id": 120689,
      "content": "<｜hy_place▁holder▁no▁671｜>",
      "single_word": false,
      "lstrip": false,
      "rstrip": false,
      "normalized": false,
      "special": true
    },
    {
      "id": 120690,
      "content": "<｜hy_place▁holder▁no▁672｜>",
      "single_word": false,
      "lstrip": false,
      "rstrip": false,
      "normalized": false,
      "special": true
    },
    {
      "id": 120691,
      "content": "<｜hy_place▁holder▁no▁673｜>",
      "single_word": false,
      "lstrip": false,
      "rstrip": false,
      "normalized": false,
      "special": true
    },
    {
      "id": 120692,
      "content": "<｜hy_place▁holder▁no▁674｜>",
      "single_word": false,
      "lstrip": false,
      "rstrip": false,
      "normalized": false,
      "special": true
    },
    {
      "id": 120693,
      "content": "<｜hy_place▁holder▁no▁675｜>",
      "single_word": false,
      "lstrip": false,
      "rstrip": false,
      "normalized": false,
      "special": true
    },
    {
      "id": 120694,
      "content": "<｜hy_place▁holder▁no▁676｜>",
      "single_word": false,
      "lstrip": false,
      "rstrip": false,
      "normalized": false,
      "special": true
    },
    {
      "id": 120695,
      "content": "<｜hy_place▁holder▁no▁677｜>",
      "single_word": false,
      "lstrip": false,
      "rstrip": false,
      "normalized": false,
      "special": true
    },
    {
      "id": 120696,
      "content": "<｜hy_place▁holder▁no▁678｜>",
      "single_word": false,
      "lstrip": false,
      "rstrip": false,
      "normalized": false,
      "special": true
    },
    {
      "id": 120697,
      "content": "<｜hy_place▁holder▁no▁679｜>",
      "single_word": false,
      "lstrip": false,
      "rstrip": false,
      "normalized": false,
      "special": true
    },
    {
      "id": 120698,
      "content": "<｜hy_place▁holder▁no▁680｜>",
      "single_word": false,
      "lstrip": false,
      "rstrip": false,
      "normalized": false,
      "special": true
    },
    {
      "id": 120699,
      "content": "<｜hy_place▁holder▁no▁681｜>",
      "single_word": false,
      "lstrip": false,
      "rstrip": false,
      "normalized": false,
      "special": true
    },
    {
      "id": 120700,
      "content": "<｜hy_place▁holder▁no▁682｜>",
      "single_word": false,
      "lstrip": false,
      "rstrip": false,
      "normalized": false,
      "special": true
    },
    {
      "id": 120701,
      "content": "<｜hy_place▁holder▁no▁683｜>",
      "single_word": false,
      "lstrip": false,
      "rstrip": false,
      "normalized": false,
      "special": true
    },
    {
      "id": 120702,
      "content": "<｜hy_place▁holder▁no▁684｜>",
      "single_word": false,
      "lstrip": false,
      "rstrip": false,
      "normalized": false,
      "special": true
    },
    {
      "id": 120703,
      "content": "<｜hy_place▁holder▁no▁685｜>",
      "single_word": false,
      "lstrip": false,
      "rstrip": false,
      "normalized": false,
      "special": true
    },
    {
      "id": 120704,
      "content": "<｜hy_place▁holder▁no▁686｜>",
      "single_word": false,
      "lstrip": false,
      "rstrip": false,
      "normalized": false,
      "special": true
    },
    {
      "id": 120705,
      "content": "<｜hy_place▁holder▁no▁687｜>",
      "single_word": false,
      "lstrip": false,
      "rstrip": false,
      "normalized": false,
      "special": true
    },
    {
      "id": 120706,
      "content": "<｜hy_place▁holder▁no▁688｜>",
      "single_word": false,
      "lstrip": false,
      "rstrip": false,
      "normalized": false,
      "special": true
    },
    {
      "id": 120707,
      "content": "<｜hy_place▁holder▁no▁689｜>",
      "single_word": false,
      "lstrip": false,
      "rstrip": false,
      "normalized": false,
      "special": true
    },
    {
      "id": 120708,
      "content": "<｜hy_place▁holder▁no▁690｜>",
      "single_word": false,
      "lstrip": false,
      "rstrip": false,
      "normalized": false,
      "special": true
    },
    {
      "id": 120709,
      "content": "<｜hy_place▁holder▁no▁691｜>",
      "single_word": false,
      "lstrip": false,
      "rstrip": false,
      "normalized": false,
      "special": true
    },
    {
      "id": 120710,
      "content": "<｜hy_place▁holder▁no▁692｜>",
      "single_word": false,
      "lstrip": false,
      "rstrip": false,
      "normalized": false,
      "special": true
    },
    {
      "id": 120711,
      "content": "<｜hy_place▁holder▁no▁693｜>",
      "single_word": false,
      "lstrip": false,
      "rstrip": false,
      "normalized": false,
      "special": true
    },
    {
      "id": 120712,
      "content": "<｜hy_place▁holder▁no▁694｜>",
      "single_word": false,
      "lstrip": false,
      "rstrip": false,
      "normalized": false,
      "special": true
    },
    {
      "id": 120713,
      "content": "<｜hy_place▁holder▁no▁695｜>",
      "single_word": false,
      "lstrip": false,
      "rstrip": false,
      "normalized": false,
      "special": true
    },
    {
      "id": 120714,
      "content": "<｜hy_place▁holder▁no▁696｜>",
      "single_word": false,
      "lstrip": false,
      "rstrip": false,
      "normalized": false,
      "special": true
    },
    {
      "id": 120715,
      "content": "<｜hy_place▁holder▁no▁697｜>",
      "single_word": false,
      "lstrip": false,
      "rstrip": false,
      "normalized": false,
      "special": true
    },
    {
      "id": 120716,
      "content": "<｜hy_place▁holder▁no▁698｜>",
      "single_word": false,
      "lstrip": false,
      "rstrip": false,
      "normalized": false,
      "special": true
    },
    {
      "id": 120717,
      "content": "<｜hy_place▁holder▁no▁699｜>",
      "single_word": false,
      "lstrip": false,
      "rstrip": false,
      "normalized": false,
      "special": true
    },
    {
      "id": 120718,
      "content": "<｜hy_place▁holder▁no▁700｜>",
      "single_word": false,
      "lstrip": false,
      "rstrip": false,
      "normalized": false,
      "special": true
    },
    {
      "id": 120719,
      "content": "<｜hy_place▁holder▁no▁701｜>",
      "single_word": false,
      "lstrip": false,
      "rstrip": false,
      "normalized": false,
      "special": true
    },
    {
      "id": 120720,
      "content": "<｜hy_place▁holder▁no▁702｜>",
      "single_word": false,
      "lstrip": false,
      "rstrip": false,
      "normalized": false,
      "special": true
    },
    {
      "id": 120721,
      "content": "<｜hy_place▁holder▁no▁703｜>",
      "single_word": false,
      "lstrip": false,
      "rstrip": false,
      "normalized": false,
      "special": true
    },
    {
      "id": 120722,
      "content": "<｜hy_place▁holder▁no▁704｜>",
      "single_word": false,
      "lstrip": false,
      "rstrip": false,
      "normalized": false,
      "special": true
    },
    {
      "id": 120723,
      "content": "<｜hy_place▁holder▁no▁705｜>",
      "single_word": false,
      "lstrip": false,
      "rstrip": false,
      "normalized": false,
      "special": true
    },
    {
      "id": 120724,
      "content": "<｜hy_place▁holder▁no▁706｜>",
      "single_word": false,
      "lstrip": false,
      "rstrip": false,
      "normalized": false,
      "special": true
    },
    {
      "id": 120725,
      "content": "<｜hy_place▁holder▁no▁707｜>",
      "single_word": false,
      "lstrip": false,
      "rstrip": false,
      "normalized": false,
      "special": true
    },
    {
      "id": 120726,
      "content": "<｜hy_place▁holder▁no▁708｜>",
      "single_word": false,
      "lstrip": false,
      "rstrip": false,
      "normalized": false,
      "special": true
    },
    {
      "id": 120727,
      "content": "<｜hy_place▁holder▁no▁709｜>",
      "single_word": false,
      "lstrip": false,
      "rstrip": false,
      "normalized": false,
      "special": true
    },
    {
      "id": 120728,
      "content": "<｜hy_place▁holder▁no▁710｜>",
      "single_word": false,
      "lstrip": false,
      "rstrip": false,
      "normalized": false,
      "special": true
    },
    {
      "id": 120729,
      "content": "<｜hy_place▁holder▁no▁711｜>",
      "single_word": false,
      "lstrip": false,
      "rstrip": false,
      "normalized": false,
      "special": true
    },
    {
      "id": 120730,
      "content": "<｜hy_place▁holder▁no▁712｜>",
      "single_word": false,
      "lstrip": false,
      "rstrip": false,
      "normalized": false,
      "special": true
    },
    {
      "id": 120731,
      "content": "<｜hy_place▁holder▁no▁713｜>",
      "single_word": false,
      "lstrip": false,
      "rstrip": false,
      "normalized": false,
      "special": true
    },
    {
      "id": 120732,
      "content": "<｜hy_place▁holder▁no▁714｜>",
      "single_word": false,
      "lstrip": false,
      "rstrip": false,
      "normalized": false,
      "special": true
    },
    {
      "id": 120733,
      "content": "<｜hy_place▁holder▁no▁715｜>",
      "single_word": false,
      "lstrip": false,
      "rstrip": false,
      "normalized": false,
      "special": true
    },
    {
      "id": 120734,
      "content": "<｜hy_place▁holder▁no▁716｜>",
      "single_word": false,
      "lstrip": false,
      "rstrip": false,
      "normalized": false,
      "special": true
    },
    {
      "id": 120735,
      "content": "<｜hy_place▁holder▁no▁717｜>",
      "single_word": false,
      "lstrip": false,
      "rstrip": false,
      "normalized": false,
      "special": true
    },
    {
      "id": 120736,
      "content": "<｜hy_place▁holder▁no▁718｜>",
      "single_word": false,
      "lstrip": false,
      "rstrip": false,
      "normalized": false,
      "special": true
    },
    {
      "id": 120737,
      "content": "<｜hy_place▁holder▁no▁719｜>",
      "single_word": false,
      "lstrip": false,
      "rstrip": false,
      "normalized": false,
      "special": true
    },
    {
      "id": 120738,
      "content": "<｜hy_place▁holder▁no▁720｜>",
      "single_word": false,
      "lstrip": false,
      "rstrip": false,
      "normalized": false,
      "special": true
    },
    {
      "id": 120739,
      "content": "<｜hy_place▁holder▁no▁721｜>",
      "single_word": false,
      "lstrip": false,
      "rstrip": false,
      "normalized": false,
      "special": true
    },
    {
      "id": 120740,
      "content": "<｜hy_place▁holder▁no▁722｜>",
      "single_word": false,
      "lstrip": false,
      "rstrip": false,
      "normalized": false,
      "special": true
    },
    {
      "id": 120741,
      "content": "<｜hy_place▁holder▁no▁723｜>",
      "single_word": false,
      "lstrip": false,
      "rstrip": false,
      "normalized": false,
      "special": true
    },
    {
      "id": 120742,
      "content": "<｜hy_place▁holder▁no▁724｜>",
      "single_word": false,
      "lstrip": false,
      "rstrip": false,
      "normalized": false,
      "special": true
    },
    {
      "id": 120743,
      "content": "<｜hy_place▁holder▁no▁725｜>",
      "single_word": false,
      "lstrip": false,
      "rstrip": false,
      "normalized": false,
      "special": true
    },
    {
      "id": 120744,
      "content": "<｜hy_place▁holder▁no▁726｜>",
      "single_word": false,
      "lstrip": false,
      "rstrip": false,
      "normalized": false,
      "special": true
    },
    {
      "id": 120745,
      "content": "<｜hy_place▁holder▁no▁727｜>",
      "single_word": false,
      "lstrip": false,
      "rstrip": false,
      "normalized": false,
      "special": true
    },
    {
      "id": 120746,
      "content": "<｜hy_place▁holder▁no▁728｜>",
      "single_word": false,
      "lstrip": false,
      "rstrip": false,
      "normalized": false,
      "special": true
    },
    {
      "id": 120747,
      "content": "<｜hy_place▁holder▁no▁729｜>",
      "single_word": false,
      "lstrip": false,
      "rstrip": false,
      "normalized": false,
      "special": true
    },
    {
      "id": 120748,
      "content": "<｜hy_place▁holder▁no▁730｜>",
      "single_word": false,
      "lstrip": false,
      "rstrip": false,
      "normalized": false,
      "special": true
    },
    {
      "id": 120749,
      "content": "<｜hy_place▁holder▁no▁731｜>",
      "single_word": false,
      "lstrip": false,
      "rstrip": false,
      "normalized": false,
      "special": true
    },
    {
      "id": 120750,
      "content": "<｜hy_place▁holder▁no▁732｜>",
      "single_word": false,
      "lstrip": false,
      "rstrip": false,
      "normalized": false,
      "special": true
    },
    {
      "id": 120751,
      "content": "<｜hy_place▁holder▁no▁733｜>",
      "single_word": false,
      "lstrip": false,
      "rstrip": false,
      "normalized": false,
      "special": true
    },
    {
      "id": 120752,
      "content": "<｜hy_place▁holder▁no▁734｜>",
      "single_word": false,
      "lstrip": false,
      "rstrip": false,
      "normalized": false,
      "special": true
    },
    {
      "id": 120753,
      "content": "<｜hy_place▁holder▁no▁735｜>",
      "single_word": false,
      "lstrip": false,
      "rstrip": false,
      "normalized": false,
      "special": true
    },
    {
      "id": 120754,
      "content": "<｜hy_place▁holder▁no▁736｜>",
      "single_word": false,
      "lstrip": false,
      "rstrip": false,
      "normalized": false,
      "special": true
    },
    {
      "id": 120755,
      "content": "<｜hy_place▁holder▁no▁737｜>",
      "single_word": false,
      "lstrip": false,
      "rstrip": false,
      "normalized": false,
      "special": true
    },
    {
      "id": 120756,
      "content": "<｜hy_place▁holder▁no▁738｜>",
      "single_word": false,
      "lstrip": false,
      "rstrip": false,
      "normalized": false,
      "special": true
    },
    {
      "id": 120757,
      "content": "<｜hy_place▁holder▁no▁739｜>",
      "single_word": false,
      "lstrip": false,
      "rstrip": false,
      "normalized": false,
      "special": true
    },
    {
      "id": 120758,
      "content": "<｜hy_place▁holder▁no▁740｜>",
      "single_word": false,
      "lstrip": false,
      "rstrip": false,
      "normalized": false,
      "special": true
    },
    {
      "id": 120759,
      "content": "<｜hy_place▁holder▁no▁741｜>",
      "single_word": false,
      "lstrip": false,
      "rstrip": false,
      "normalized": false,
      "special": true
    },
    {
      "id": 120760,
      "content": "<｜hy_place▁holder▁no▁742｜>",
      "single_word": false,
      "lstrip": false,
      "rstrip": false,
      "normalized": false,
      "special": true
    },
    {
      "id": 120761,
      "content": "<｜hy_place▁holder▁no▁743｜>",
      "single_word": false,
      "lstrip": false,
      "rstrip": false,
      "normalized": false,
      "special": true
    },
    {
      "id": 120762,
      "content": "<｜hy_place▁holder▁no▁744｜>",
      "single_word": false,
      "lstrip": false,
      "rstrip": false,
      "normalized": false,
      "special": true
    },
    {
      "id": 120763,
      "content": "<｜hy_place▁holder▁no▁745｜>",
      "single_word": false,
      "lstrip": false,
      "rstrip": false,
      "normalized": false,
      "special": true
    },
    {
      "id": 120764,
      "content": "<｜hy_place▁holder▁no▁746｜>",
      "single_word": false,
      "lstrip": false,
      "rstrip": false,
      "normalized": false,
      "special": true
    },
    {
      "id": 120765,
      "content": "<｜hy_place▁holder▁no▁747｜>",
      "single_word": false,
      "lstrip": false,
      "rstrip": false,
      "normalized": false,
      "special": true
    },
    {
      "id": 120766,
      "content": "<｜hy_place▁holder▁no▁748｜>",
      "single_word": false,
      "lstrip": false,
      "rstrip": false,
      "normalized": false,
      "special": true
    },
    {
      "id": 120767,
      "content": "<｜hy_place▁holder▁no▁749｜>",
      "single_word": false,
      "lstrip": false,
      "rstrip": false,
      "normalized": false,
      "special": true
    },
    {
      "id": 120768,
      "content": "<｜hy_place▁holder▁no▁750｜>",
      "single_word": false,
      "lstrip": false,
      "rstrip": false,
      "normalized": false,
      "special": true
    },
    {
      "id": 120769,
      "content": "<｜hy_place▁holder▁no▁751｜>",
      "single_word": false,
      "lstrip": false,
      "rstrip": false,
      "normalized": false,
      "special": true
    },
    {
      "id": 120770,
      "content": "<｜hy_place▁holder▁no▁752｜>",
      "single_word": false,
      "lstrip": false,
      "rstrip": false,
      "normalized": false,
      "special": true
    },
    {
      "id": 120771,
      "content": "<｜hy_place▁holder▁no▁753｜>",
      "single_word": false,
      "lstrip": false,
      "rstrip": false,
      "normalized": false,
      "special": true
    },
    {
      "id": 120772,
      "content": "<｜hy_place▁holder▁no▁754｜>",
      "single_word": false,
      "lstrip": false,
      "rstrip": false,
      "normalized": false,
      "special": true
    },
    {
      "id": 120773,
      "content": "<｜hy_place▁holder▁no▁755｜>",
      "single_word": false,
      "lstrip": false,
      "rstrip": false,
      "normalized": false,
      "special": true
    },
    {
      "id": 120774,
      "content": "<｜hy_place▁holder▁no▁756｜>",
      "single_word": false,
      "lstrip": false,
      "rstrip": false,
      "normalized": false,
      "special": true
    },
    {
      "id": 120775,
      "content": "<｜hy_place▁holder▁no▁757｜>",
      "single_word": false,
      "lstrip": false,
      "rstrip": false,
      "normalized": false,
      "special": true
    },
    {
      "id": 120776,
      "content": "<｜hy_place▁holder▁no▁758｜>",
      "single_word": false,
      "lstrip": false,
      "rstrip": false,
      "normalized": false,
      "special": true
    },
    {
      "id": 120777,
      "content": "<｜hy_place▁holder▁no▁759｜>",
      "single_word": false,
      "lstrip": false,
      "rstrip": false,
      "normalized": false,
      "special": true
    },
    {
      "id": 120778,
      "content": "<｜hy_place▁holder▁no▁760｜>",
      "single_word": false,
      "lstrip": false,
      "rstrip": false,
      "normalized": false,
      "special": true
    },
    {
      "id": 120779,
      "content": "<｜hy_place▁holder▁no▁761｜>",
      "single_word": false,
      "lstrip": false,
      "rstrip": false,
      "normalized": false,
      "special": true
    },
    {
      "id": 120780,
      "content": "<｜hy_place▁holder▁no▁762｜>",
      "single_word": false,
      "lstrip": false,
      "rstrip": false,
      "normalized": false,
      "special": true
    },
    {
      "id": 120781,
      "content": "<｜hy_place▁holder▁no▁763｜>",
      "single_word": false,
      "lstrip": false,
      "rstrip": false,
      "normalized": false,
      "special": true
    },
    {
      "id": 120782,
      "content": "<｜hy_place▁holder▁no▁764｜>",
      "single_word": false,
      "lstrip": false,
      "rstrip": false,
      "normalized": false,
      "special": true
    },
    {
      "id": 120783,
      "content": "<｜hy_place▁holder▁no▁765｜>",
      "single_word": false,
      "lstrip": false,
      "rstrip": false,
      "normalized": false,
      "special": true
    },
    {
      "id": 120784,
      "content": "<｜hy_place▁holder▁no▁766｜>",
      "single_word": false,
      "lstrip": false,
      "rstrip": false,
      "normalized": false,
      "special": true
    },
    {
      "id": 120785,
      "content": "<｜hy_place▁holder▁no▁767｜>",
      "single_word": false,
      "lstrip": false,
      "rstrip": false,
      "normalized": false,
      "special": true
    },
    {
      "id": 120786,
      "content": "<｜hy_place▁holder▁no▁768｜>",
      "single_word": false,
      "lstrip": false,
      "rstrip": false,
      "normalized": false,
      "special": true
    },
    {
      "id": 120787,
      "content": "<｜hy_place▁holder▁no▁769｜>",
      "single_word": false,
      "lstrip": false,
      "rstrip": false,
      "normalized": false,
      "special": true
    },
    {
      "id": 120788,
      "content": "<｜hy_place▁holder▁no▁770｜>",
      "single_word": false,
      "lstrip": false,
      "rstrip": false,
      "normalized": false,
      "special": true
    },
    {
      "id": 120789,
      "content": "<｜hy_place▁holder▁no▁771｜>",
      "single_word": false,
      "lstrip": false,
      "rstrip": false,
      "normalized": false,
      "special": true
    },
    {
      "id": 120790,
      "content": "<｜hy_place▁holder▁no▁772｜>",
      "single_word": false,
      "lstrip": false,
      "rstrip": false,
      "normalized": false,
      "special": true
    },
    {
      "id": 120791,
      "content": "<｜hy_place▁holder▁no▁773｜>",
      "single_word": false,
      "lstrip": false,
      "rstrip": false,
      "normalized": false,
      "special": true
    },
    {
      "id": 120792,
      "content": "<｜hy_place▁holder▁no▁774｜>",
      "single_word": false,
      "lstrip": false,
      "rstrip": false,
      "normalized": false,
      "special": true
    },
    {
      "id": 120793,
      "content": "<｜hy_place▁holder▁no▁775｜>",
      "single_word": false,
      "lstrip": false,
      "rstrip": false,
      "normalized": false,
      "special": true
    },
    {
      "id": 120794,
      "content": "<｜hy_place▁holder▁no▁776｜>",
      "single_word": false,
      "lstrip": false,
      "rstrip": false,
      "normalized": false,
      "special": true
    },
    {
      "id": 120795,
      "content": "<｜hy_place▁holder▁no▁777｜>",
      "single_word": false,
      "lstrip": false,
      "rstrip": false,
      "normalized": false,
      "special": true
    },
    {
      "id": 120796,
      "content": "<｜hy_place▁holder▁no▁778｜>",
      "single_word": false,
      "lstrip": false,
      "rstrip": false,
      "normalized": false,
      "special": true
    },
    {
      "id": 120797,
      "content": "<｜hy_place▁holder▁no▁779｜>",
      "single_word": false,
      "lstrip": false,
      "rstrip": false,
      "normalized": false,
      "special": true
    },
    {
      "id": 120798,
      "content": "<｜hy_place▁holder▁no▁780｜>",
      "single_word": false,
      "lstrip": false,
      "rstrip": false,
      "normalized": false,
      "special": true
    },
    {
      "id": 120799,
      "content": "<｜hy_place▁holder▁no▁781｜>",
      "single_word": false,
      "lstrip": false,
      "rstrip": false,
      "normalized": false,
      "special": true
    },
    {
      "id": 120800,
      "content": "<｜hy_place▁holder▁no▁782｜>",
      "single_word": false,
      "lstrip": false,
      "rstrip": false,
      "normalized": false,
      "special": true
    },
    {
      "id": 120801,
      "content": "<｜hy_place▁holder▁no▁783｜>",
      "single_word": false,
      "lstrip": false,
      "rstrip": false,
      "normalized": false,
      "special": true
    },
    {
      "id": 120802,
      "content": "<｜hy_place▁holder▁no▁784｜>",
      "single_word": false,
      "lstrip": false,
      "rstrip": false,
      "normalized": false,
      "special": true
    },
    {
      "id": 120803,
      "content": "<｜hy_place▁holder▁no▁785｜>",
      "single_word": false,
      "lstrip": false,
      "rstrip": false,
      "normalized": false,
      "special": true
    },
    {
      "id": 120804,
      "content": "<｜hy_place▁holder▁no▁786｜>",
      "single_word": false,
      "lstrip": false,
      "rstrip": false,
      "normalized": false,
      "special": true
    },
    {
      "id": 120805,
      "content": "<｜hy_place▁holder▁no▁787｜>",
      "single_word": false,
      "lstrip": false,
      "rstrip": false,
      "normalized": false,
      "special": true
    },
    {
      "id": 120806,
      "content": "<｜hy_place▁holder▁no▁788｜>",
      "single_word": false,
      "lstrip": false,
      "rstrip": false,
      "normalized": false,
      "special": true
    },
    {
      "id": 120807,
      "content": "<｜hy_place▁holder▁no▁789｜>",
      "single_word": false,
      "lstrip": false,
      "rstrip": false,
      "normalized": false,
      "special": true
    },
    {
      "id": 120808,
      "content": "<｜hy_place▁holder▁no▁790｜>",
      "single_word": false,
      "lstrip": false,
      "rstrip": false,
      "normalized": false,
      "special": true
    },
    {
      "id": 120809,
      "content": "<｜hy_place▁holder▁no▁791｜>",
      "single_word": false,
      "lstrip": false,
      "rstrip": false,
      "normalized": false,
      "special": true
    },
    {
      "id": 120810,
      "content": "<｜hy_place▁holder▁no▁792｜>",
      "single_word": false,
      "lstrip": false,
      "rstrip": false,
      "normalized": false,
      "special": true
    },
    {
      "id": 120811,
      "content": "<｜hy_place▁holder▁no▁793｜>",
      "single_word": false,
      "lstrip": false,
      "rstrip": false,
      "normalized": false,
      "special": true
    },
    {
      "id": 120812,
      "content": "<｜hy_place▁holder▁no▁794｜>",
      "single_word": false,
      "lstrip": false,
      "rstrip": false,
      "normalized": false,
      "special": true
    },
    {
      "id": 120813,
      "content": "<｜hy_place▁holder▁no▁795｜>",
      "single_word": false,
      "lstrip": false,
      "rstrip": false,
      "normalized": false,
      "special": true
    },
    {
      "id": 120814,
      "content": "<｜hy_place▁holder▁no▁796｜>",
      "single_word": false,
      "lstrip": false,
      "rstrip": false,
      "normalized": false,
      "special": true
    },
    {
      "id": 120815,
      "content": "<｜hy_place▁holder▁no▁797｜>",
      "single_word": false,
      "lstrip": false,
      "rstrip": false,
      "normalized": false,
      "special": true
    },
    {
      "id": 120816,
      "content": "<｜hy_place▁holder▁no▁798｜>",
      "single_word": false,
      "lstrip": false,
      "rstrip": false,
      "normalized": false,
      "special": true
    },
    {
      "id": 120817,
      "content": "<｜hy_place▁holder▁no▁799｜>",
      "single_word": false,
      "lstrip": false,
      "rstrip": false,
      "normalized": false,
      "special": true
    },
    {
      "id": 120818,
      "content": "<｜hy_place▁holder▁no▁800｜>",
      "single_word": false,
      "lstrip": false,
      "rstrip": false,
      "normalized": false,
      "special": true
    },
    {
      "id": 120819,
      "content": "<｜hy_place▁holder▁no▁801｜>",
      "single_word": false,
      "lstrip": false,
      "rstrip": false,
      "normalized": false,
      "special": true
    },
    {
      "id": 120820,
      "content": "<｜hy_place▁holder▁no▁802｜>",
      "single_word": false,
      "lstrip": false,
      "rstrip": false,
      "normalized": false,
      "special": true
    },
    {
      "id": 120821,
      "content": "<｜hy_place▁holder▁no▁803｜>",
      "single_word": false,
      "lstrip": false,
      "rstrip": false,
      "normalized": false,
      "special": true
    },
    {
      "id": 120822,
      "content": "<｜hy_place▁holder▁no▁804｜>",
      "single_word": false,
      "lstrip": false,
      "rstrip": false,
      "normalized": false,
      "special": true
    },
    {
      "id": 120823,
      "content": "<｜hy_place▁holder▁no▁805｜>",
      "single_word": false,
      "lstrip": false,
      "rstrip": false,
      "normalized": false,
      "special": true
    },
    {
      "id": 120824,
      "content": "<｜hy_place▁holder▁no▁806｜>",
      "single_word": false,
      "lstrip": false,
      "rstrip": false,
      "normalized": false,
      "special": true
    },
    {
      "id": 120825,
      "content": "<｜hy_place▁holder▁no▁807｜>",
      "single_word": false,
      "lstrip": false,
      "rstrip": false,
      "normalized": false,
      "special": true
    },
    {
      "id": 120826,
      "content": "<｜hy_place▁holder▁no▁808｜>",
      "single_word": false,
      "lstrip": false,
      "rstrip": false,
      "normalized": false,
      "special": true
    },
    {
      "id": 120827,
      "content": "<｜hy_place▁holder▁no▁809｜>",
      "single_word": false,
      "lstrip": false,
      "rstrip": false,
      "normalized": false,
      "special": true
    },
    {
      "id": 120828,
      "content": "<｜hy_place▁holder▁no▁810｜>",
      "single_word": false,
      "lstrip": false,
      "rstrip": false,
      "normalized": false,
      "special": true
    },
    {
      "id": 120829,
      "content": "<｜hy_place▁holder▁no▁811｜>",
      "single_word": false,
      "lstrip": false,
      "rstrip": false,
      "normalized": false,
      "special": true
    },
    {
      "id": 120830,
      "content": "<｜hy_place▁holder▁no▁812｜>",
      "single_word": false,
      "lstrip": false,
      "rstrip": false,
      "normalized": false,
      "special": true
    },
    {
      "id": 120831,
      "content": "<｜hy_place▁holder▁no▁813｜>",
      "single_word": false,
      "lstrip": false,
      "rstrip": false,
      "normalized": false,
      "special": true
    }
  ],
  "normalizer": {
    "type": "Sequence",
    "normalizers": []
  },
  "pre_tokenizer": {
    "type": "Sequence",
    "pretokenizers": [
      {
        "type": "Split",
        "pattern": {
          "Regex": "\\p{N}{1,3}"
        },
        "behavior": "Isolated",
        "invert": false
      },
      {
        "type": "Split",
        "pattern": {
          "Regex": "[一-龥぀-ゟ゠-ヿ]+"
        },
        "behavior": "Isolated",
        "invert": false
      },
      {
        "type": "Split",
        "pattern": {
          "Regex": "[!\"#$%&'()*+,\\-./:;<=>?@\\[\\\\\\]^_`{|}~][A-Za-z]+|[^\r\n\\p{L}\\p{P}\\p{S}]?[\\p{L}\\p{M}]+| ?[\\p{P}\\p{S}]+[\r\n]*|\\s*[\r\n]+|\\s+(?!\\S)|\\s+"
        },
        "behavior": "Isolated",
        "invert": false
      },
      {
        "type": "ByteLevel",
        "add_prefix_space": false,
        "trim_offsets": true,
        "use_regex": false
      }
    ]
  },
  "post_processor": {
    "type": "ByteLevel",
    "add_prefix_space": true,
    "trim_offsets": false,
    "use_regex": true
  },
  "decoder": {
    "type": "ByteLevel",
    "add_prefix_space": true,
    "trim_offsets": true,
    "use_regex": true
  },
  "model": {
    "type": "BPE",
    "dropout": null,
    "unk_token": null,
    "continuing_subword_prefix": null,
    "end_of_word_suffix": null,
    "fuse_unk": false,
    "byte_fallback": false,
    "ignore_merges": false,
    "vocab": {
      "!": 0,
      "\"": 1,
      "#": 2,
      "$": 3,
      "%": 4,
      "&": 5,
      "'": 6,
      "(": 7,
      ")": 8,
      "*": 9,
      "+": 10,
      ",": 11,
      "-": 12,
      ".": 13,
      "/": 14,
      "0": 15,
      "1": 16,
      "2": 17,
      "3": 18,
      "4": 19,
      "5": 20,
      "6": 21,
      "7": 22,
      "8": 23,
      "9": 24,
      ":": 25,
      ";": 26,
      "<": 27,
      "=": 28,
      ">": 29,
      "?": 30,
      "@": 31,
      "A": 32,
      "B": 33,
      "C": 34,
      "D": 35,
      "E": 36,
      "F": 37,
      "G": 38,
      "H": 39,
      "I": 40,
      "J": 41,
      "K": 42,
      "L": 43,
      "M": 44,
      "N": 45,
      "O": 46,
      "P": 47,
      "Q": 48,
      "R": 49,
      "S": 50,
      "T": 51,
      "U": 52,
      "V": 53,
      "W": 54,
      "X": 55,
      "Y": 56,
      "Z": 57,
      "[": 58,
      "\\": 59,
      "]": 60,
      "^": 61,
      "_": 62,
      "`": 63,
      "a": 64,
      "b": 65,
      "c": 66,
      "d": 67,
      "e": 68,
      "f": 69,
      "g": 70,
      "h": 71,
      "i": 72,
      "j": 73,
      "k": 74,
      "l": 75,
      "m": 76,
      "n": 77,
      "o": 78,
      "p": 79,
      "q": 80,
      "r": 81,
      "s": 82,
      "t": 83,
      "u": 84,
      "v": 85,
      "w": 86,
      "x": 87,
      "y": 88,
      "z": 89,
      "{": 90,
      "|": 91,
      "}": 92,
      "~": 93,
      "¡": 94,
      "¢": 95,
      "£": 96,
      "¤": 97,
      "¥": 98,
      "¦": 99,
      "§": 100,
      "¨": 101,
      "©": 102,
      "ª": 103,
      "«": 104,
      "¬": 105,
      "®": 106,
      "¯": 107,
      "°": 108,
      "±": 109,
      "²": 110,
      "³": 111,
      "´": 112,
      "µ": 113,
      "¶": 114,
      "·": 115,
      "¸": 116,
      "¹": 117,
      "º": 118,
      "»": 119,
      "¼": 120,
      "½": 121,
      "¾": 122,
      "¿": 123,
      "À": 124,
      "Á": 125,
      "Â": 126,
      "Ã": 127,
      "Ä": 128,
      "Å": 129,
      "Æ": 130,
      "Ç": 131,
      "È": 132,
      "É": 133,
      "Ê": 134,
      "Ë": 135,
      "Ì": 136,
      "Í": 137,
      "Î": 138,
      "Ï": 139,
      "Ð": 140,
      "Ñ": 141,
      "Ò": 142,
      "Ó": 143,
      "Ô": 144,
      "Õ": 145,
      "Ö": 146,
      "×": 147,
      "Ø": 148,
      "Ù": 149,
      "Ú": 150,
      "Û": 151,
      "Ü": 152,
      "Ý": 153,
      "Þ": 154,
      "ß": 155,
      "à": 156,
      "á": 157,
      "â": 158,
      "ã": 159,
      "ä": 160,
      "å": 161,
      "æ": 162,
      "ç": 163,
      "è": 164,
      "é": 165,
      "ê": 166,
      "ë": 167,
      "ì": 168,
      "í": 169,
      "î": 170,
      "ï": 171,
      "ð": 172,
      "ñ": 173,
      "ò": 174,
      "ó": 175,
      "ô": 176,
      "õ": 177,
      "ö": 178,
      "÷": 179,
      "ø": 180,
      "ù": 181,
      "ú": 182,
      "û": 183,
      "ü": 184,
      "ý": 185,
      "þ": 186,
      "ÿ": 187,
      "Ā": 188,
      "ā": 189,
      "Ă": 190,
      "ă": 191,
      "Ą": 192,
      "ą": 193,
      "Ć": 194,
      "ć": 195,
      "Ĉ": 196,
      "ĉ": 197,
      "Ċ": 198,
      "ċ": 199,
      "Č": 200,
      "č": 201,
      "Ď": 202,
      "ď": 203,
      "Đ": 204,
      "đ": 205,
      "Ē": 206,
      "ē": 207,
      "Ĕ": 208,
      "ĕ": 209,
      "Ė": 210,
      "ė": 211,
      "Ę": 212,
      "ę": 213,
      "Ě": 214,
      "ě": 215,
      "Ĝ": 216,
      "ĝ": 217,
      "Ğ": 218,
      "ğ": 219,
      "Ġ": 220,
      "ġ": 221,
      "Ģ": 222,
      "ģ": 223,
      "Ĥ": 224,
      "ĥ": 225,
      "Ħ": 226,
      "ħ": 227,
      "Ĩ": 228,
      "ĩ": 229,
      "Ī": 230,
      "ī": 231,
      "Ĭ": 232,
      "ĭ": 233,
      "Į": 234,
      "į": 235,
      "İ": 236,
      "ı": 237,
      "Ĳ": 238,
      "ĳ": 239,
      "Ĵ": 240,
      "ĵ": 241,
      "Ķ": 242,
      "ķ": 243,
      "ĸ": 244,
      "Ĺ": 245,
      "ĺ": 246,
      "Ļ": 247,
      "ļ": 248,
      "Ľ": 249,
      "ľ": 250,
      "Ŀ": 251,
      "ŀ": 252,
      "Ł": 253,
      "ł": 254,
      "Ń": 255,
      "ĠĠ": 256,
      "Ġt": 257,
      "in": 258,
      "Ġa": 259,
      "er": 260,
      "on": 261,
      "he": 262,
      "re": 263,
      "at": 264,
      "ĠĠĠĠ": 265,
      "en": 266,
      "Ġs": 267,
      "ĊĊ": 268,
      "Ġthe": 269,
      "or": 270,
      "Ġc": 271,
      "ä¸": 272,
      "es": 273,
      "an": 274,
      "ï¼": 275,
      "it": 276,
      "is": 277,
      "al": 278,
      "Ġp": 279,
      "Ġo": 280,
      "Ġd": 281,
      "Ġw": 282,
      "Ġf": 283,
      "ed": 284,
      "ion": 285,
      "ar": 286,
      "ing": 287,
      "ãĢ": 288,
      "Ġb": 289,
      "Ġm": 290,
      "le": 291,
      "Ġan": 292,
      "ic": 293,
      "çļ": 294,
      "çļĦ": 295,
      "ro": 296,
      "Ġin": 297,
      "ï¼Į": 298,
      "Ġof": 299,
      "ou": 300,
      "as": 301,
      "Ġto": 302,
      "Ġand": 303,
      "ent": 304,
      "ct": 305,
      "et": 306,
      "ĠÐ": 307,
      "äº": 308,
      "st": 309,
      "el": 310,
      "åı": 311,
      "Ġn": 312,
      "om": 313,
      "Ġth": 314,
      "Ġh": 315,
      "Ð¾": 316,
      "æľ": 317,
      "Ġre": 318,
      "Ġe": 319,
      "ãĢĤ": 320,
      "Ġl": 321,
      "ä»": 322,
      "ĠĠĠĠĠĠĠĠ": 323,
      "il": 324,
      "âĢ": 325,
      "ĠĠĠ": 326,
      "td": 327,
      "åħ": 328,
      "Ðµ": 329,
      "id": 330,
      "im": 331,
      ">Ċ": 332,
      "ol": 333,
      "Ð°": 334,
      "ut": 335,
      "am": 336,
      "åĪ": 337,
      "un": 338,
      "us": 339,
      "ation": 340,
      "Ġis": 341,
      "ac": 342,
      "ig": 343,
      "ĠT": 344,
      "å®": 345,
      "--": 346,
      "Ġ(": 347,
      "ĠS": 348,
      "Ð¸": 349,
      "å¤": 350,
      "ot": 351,
      "çĶ": 352,
      "Ġg": 353,
      "è¿": 354,
      "ä½": 355,
      "ĠI": 356,
      "iv": 357,
      "</": 358,
      "ur": 359,
      "ĠA": 360,
      "ÑĤ": 361,
      "åĲ": 362,
      "ad": 363,
      ".ĊĊ": 364,
      "ĠC": 365,
      "æĺ": 366,
      "Ð½": 367,
      "Ġ|": 368,
      "åľ": 369,
      "ow": 370,
      "Ġv": 371,
      "ul": 372,
      "Ġfor": 373,
      "ch": 374,
      "od": 375,
      "tr": 376,
      "Ñģ": 377,
      "em": 378,
      "ãĢģ": 379,
      "if": 380,
      "åĬ": 381,
      "æĪ": 382,
      "æĸ": 383,
      "ly": 384,
      "ç»": 385,
      "ÑĢ": 386,
      "ce": 387,
      "qu": 388,
      "Ġy": 389,
      "Ġbe": 390,
      "è¯": 391,
      "Ð¾Ð": 392,
      "os": 393,
      "Ġcon": 394,
      "um": 395,
      "Ġon": 396,
      "ag": 397,
      "ä¸Ģ": 398,
      "ay": 399,
      "ĠP": 400,
      "ter": 401,
      "ab": 402,
      "ith": 403,
      "ä¹": 404,
      "20": 405,
      "ĠM": 406,
      "æĺ¯": 407,
      "ãģ": 408,
      "ir": 409,
      "Ġde": 410,
      "Ġpro": 411,
      "åŃ": 412,
      "Ġ\\": 413,
      "ers": 414,
      "Ġthat": 415,
      "Ġ=": 416,
      "th": 417,
      "å°": 418,
      "è®": 419,
      "ate": 420,
      "à¸": 421,
      "Ġst": 422,
      "åĽ": 423,
      "av": 424,
      "<td": 425,
      "æĹ": 426,
      "Ġ$": 427,
      "ect": 428,
      "æķ": 429,
      "Ġwith": 430,
      ";Ċ": 431,
      "Ġal": 432,
      "Ġas": 433,
      "ĠD": 434,
      "Ġyou": 435,
      "est": 436,
      "éĢ": 437,
      "åº": 438,
      "ĠB": 439,
      "ap": 440,
      "res": 441,
      "Ġit": 442,
      "åľ¨": 443,
      "åį": 444,
      "æĿ": 445,
      "ä¼": 446,
      "è¡": 447,
      "ver": 448,
      "æī": 449,
      "ess": 450,
      "Ġwh": 451,
      "æľī": 452,
      "å¹": 453,
      "ĠĠĠĠĠĠĠ": 454,
      "Ġcom": 455,
      "éĩ": 456,
      "pl": 457,
      "å¼": 458,
      "Ġex": 459,
      "Ø§": 460,
      "ere": 461,
      "oc": 462,
      "ĠR": 463,
      "se": 464,
      "up": 465,
      "ĠF": 466,
      "00": 467,
      "ä¸į": 468,
      "Ð»": 469,
      "ht": 470,
      "Ġr": 471,
      "ĠE": 472,
      "op": 473,
      "Ġor": 474,
      "and": 475,
      "..": 476,
      "ain": 477,
      "**": 478,
      "å·": 479,
      "å¯": 480,
      "ä¸Ń": 481,
      "çĶ¨": 482,
      "åĮ": 483,
      "ity": 484,
      "åĨ": 485,
      "ist": 486,
      "åĩ": 487,
      "Ġare": 488,
      "å¸": 489,
      "åĴ": 490,
      ".Ċ": 491,
      "ĠH": 492,
      "çĽ": 493,
      "##": 494,
      "ec": 495,
      "ĠL": 496,
      "Ġus": 497,
      "èĢ": 498,
      "ĠThe": 499,
      "å¾": 500,
      "æł": 501,
      "ĥ½": 502,
      "åĴĮ": 503,
      "è§": 504,
      "ant": 505,
      "ort": 506,
      "æĢ": 507,
      "ub": 508,
      "``": 509,
      "ke": 510,
      "ie": 511,
      "äºĨ": 512,
      "ib": 513,
      "ĠW": 514,
      "ï¼ļ": 515,
      "Ġ-": 516,
      "ore": 517,
      "rom": 518,
      "ĠN": 519,
      "ment": 520,
      "act": 521,
      "ip": 522,
      "äºº": 523,
      "te": 524,
      "end": 525,
      "----": 526,
      "ure": 527,
      "à¤": 528,
      "ill": 529,
      "ä»¥": 530,
      "Ġun": 531,
      "ä¸º": 532,
      "Ġby": 533,
      "ĠG": 534,
      "ãĢĤĊĊ": 535,
      "Ñĥ": 536,
      "og": 537,
      "Ðº": 538,
      "Ġat": 539,
      "ive": 540,
      "ies": 541,
      "æ³": 542,
      "ä¸ª": 543,
      "ial": 544,
      "art": 545,
      "æĬ": 546,
      "Ġtr": 547,
      "ç§": 548,
      "Ġ\"": 549,
      "ud": 550,
      "çİ": 551,
      "iz": 552,
      "è¦": 553,
      "ine": 554,
      "Ġne": 555,
      "æŀ": 556,
      "ight": 557,
      "è´": 558,
      "ld": 559,
      "10": 560,
      "çī": 561,
      "Ġch": 562,
      "éĹ": 563,
      "ang": 564,
      "Ġcan": 565,
      "Ġ{": 566,
      "å±": 567,
      "Ġthis": 568,
      "Ġse": 569,
      "åı¯": 570,
      "Ð²": 571,
      "Ñı": 572,
      "æİ": 573,
      "è¦ģ": 574,
      "age": 575,
      "ĠĠĠĠĠĠĠĠĠĠĠĠĠĠĠĠ": 576,
      "âĢľ": 577,
      "æŃ": 578,
      "ame": 579,
      "nt": 580,
      "ãĤ": 581,
      "nd": 582,
      "Ġnot": 583,
      "all": 584,
      "å½": 585,
      "Ġk": 586,
      "Ġfrom": 587,
      "ÙĦ": 588,
      "ave": 589,
      "æĶ": 590,
      "ue": 591,
      "ä¿": 592,
      "Ġhe": 593,
      "ĠO": 594,
      "çŃ": 595,
      "âĢĿ": 596,
      "Ð¼": 597,
      "ions": 598,
      "per": 599,
      "Ġle": 600,
      "èĥ½": 601,
      "æĹ¶": 602,
      "__": 603,
      "å¤§": 604,
      "éĿ": 605,
      "_{": 606,
      "ff": 607,
      "æ°": 608,
      "éĻ": 609,
      "æĪĳ": 610,
      "ass": 611,
      "able": 612,
      "åİ": 613,
      "çĲ": 614,
      "å¿": 615,
      "Ġen": 616,
      ")Ċ": 617,
      "pt": 618,
      "èµ": 619,
      "ell": 620,
      "ust": 621,
      "è¡Į": 622,
      "ath": 623,
      "ä¸Ĭ": 624,
      "Ġsh": 625,
      "çĶŁ": 626,
      "19": 627,
      "ical": 628,
      "é¢": 629,
      "orm": 630,
      "ĠØ": 631,
      "Ġwe": 632,
      "èĩ": 633,
      "å¥": 634,
      "ult": 635,
      "çº": 636,
      "port": 637,
      "ost": 638,
      "Ñĭ": 639,
      "our": 640,
      "æµ": 641,
      "Ġcomp": 642,
      "are": 643,
      "ich": 644,
      "åŃ¦": 645,
      "ä½ľ": 646,
      "ĠĠĊ": 647,
      ");Ċ": 648,
      "Ġwas": 649,
      "Ġqu": 650,
      "è¿Ļ": 651,
      "Ġ}": 652,
      "//": 653,
      "å¯¹": 654,
      "åĪĨ": 655,
      "cl": 656,
      "Ġj": 657,
      "åĳ": 658,
      "ind": 659,
      "ĠJ": 660,
      "ĠÐ¿": 661,
      "æĸ¹": 662,
      "ak": 663,
      "xt": 664,
      "Ð´": 665,
      "Ġsp": 666,
      "æķ°": 667,
      "ated": 668,
      "int": 669,
      "ack": 670,
      "è¾": 671,
      "Ġhave": 672,
      "Ġim": 673,
      "Ġcl": 674,
      "ÑģÑĤ": 675,
      "Ġ<": 676,
      "ans": 677,
      "ug": 678,
      "ov": 679,
      "æĮ": 680,
      "ä¾": 681,
      "Ġad": 682,
      "âĢĻ": 683,
      "uct": 684,
      "ard": 685,
      "äºİ": 686,
      "à¦": 687,
      "åıĳ": 688,
      "çĲĨ": 689,
      "ãĥ": 690,
      "cc": 691,
      "æĪĲ": 692,
      "Ġres": 693,
      "è½": 694,
      "ĠU": 695,
      "ÑĮ": 696,
      "åĪ°": 697,
      "ould": 698,
      "ç®": 699,
      "ide": 700,
      "å¦": 701,
      "ä¸ĭ": 702,
      "hen": 703,
      "ile": 704,
      "out": 705,
      "fer": 706,
      "ase": 707,
      "der": 708,
      "ia": 709,
      "ç¨": 710,
      "ĠÙ": 711,
      "ire": 712,
      "ĠIn": 713,
      "åĩº": 714,
      "'s": 715,
      "Ġab": 716,
      "åĵ": 717,
      "æĭ": 718,
      "å·¥": 719,
      "201": 720,
      "ata": 721,
      "ork": 722,
      "ĠTh": 723,
      "æ¯": 724,
      "ä¼ļ": 725,
      "ence": 726,
      "ign": 727,
      "ome": 728,
      "Ã©": 729,
      "Ġ|Ċ": 730,
      "Ġdo": 731,
      "é¡": 732,
      "æ²": 733,
      "å®ļ": 734,
      "ç½": 735,
      "æ³ķ": 736,
      "æĿ¥": 737,
      "æį": 738,
      "Ñĩ": 739,
      "Ġap": 740,
      "Ġpl": 741,
      "),": 742,
      "åľ°": 743,
      "ft": 744,
      "^{": 745,
      "åŁ": 746,
      "ations": 747,
      "pe": 748,
      "ä¸ļ": 749,
      "çľ": 750,
      "Ġ{Ċ": 751,
      "æĥ": 752,
      "åĬ¨": 753,
      "ime": 754,
      "Ġpr": 755,
      "ĠV": 756,
      "12": 757,
      "æĸĩ": 758,
      "ach": 759,
      "ice": 760,
      "ÐµÐ½": 761,
      "Ġif": 762,
      "Ġme": 763,
      "æĦ": 764,
      "Ġall": 765,
      "```": 766,
      "to": 767,
      "å¹´": 768,
      "ĠÐ²": 769,
      "ĠĠĠĠĠĠĠĠĠĠĠ": 770,
      "Ġì": 771,
      "æı": 772,
      "form": 773,
      "ç«": 774,
      "Ġ[": 775,
      "è¿ĩ": 776,
      "ĠÑģ": 777,
      "ber": 778,
      "ance": 779,
      "ĉĉ": 780,
      "ast": 781,
      "æ±": 782,
      "æĢ§": 783,
      "}$": 784,
      "ĠK": 785,
      "ode": 786,
      "çĤ": 787,
      "ens": 788,
      "åī": 789,
      "ï¼ī": 790,
      "ep": 791,
      "æľ¬": 792,
      "éĺ": 793,
      "Ġdis": 794,
      "ï¼Ī": 795,
      "å¦Ĥ": 796,
      "ge": 797,
      "éģ": 798,
      "=\"": 799,
      "eth": 800,
      "èĩª": 801,
      "The": 802,
      "Ġ+": 803,
      "Ġ.": 804,
      "è¿Ľ": 805,
      ").": 806,
      "å®ŀ": 807,
      "Ġyour": 808,
      "Ġper": 809,
      "ther": 810,
      "ple": 811,
      "ress": 812,
      "åĢ": 813,
      "åĽ½": 814,
      "ction": 815,
      "ok": 816,
      "ace": 817,
      "å¤ļ": 818,
      "Ġwhich": 819,
      "ord": 820,
      "cr": 821,
      "11": 822,
      "ary": 823,
      "ous": 824,
      "ong": 825,
      "éĿ¢": 826,
      "ail": 827,
      "åĮĸ": 828,
      "åĲİ": 829,
      "ãĢĤĊ": 830,
      "ä»¬": 831,
      "é«": 832,
      "ition": 833,
      "ç¬": 834,
      "ents": 835,
      "åĲĪ": 836,
      "ÑĢÐ°": 837,
      "pro": 838,
      "Ġcont": 839,
      "con": 840,
      "Ø±": 841,
      "Ġwill": 842,
      "Ġ*": 843,
      "ä¸İ": 844,
      "str": 845,
      "ÙĨ": 846,
      "erv": 847,
      "Ð·": 848,
      "çİ°": 849,
      "uc": 850,
      "æīĢ": 851,
      "ĠâĢ": 852,
      "so": 853,
      "Ð¾Ð²": 854,
      "ä½ĵ": 855,
      "ĠÐ½": 856,
      "Ġbut": 857,
      "Ġ'": 858,
      "one": 859,
      "yst": 860,
      "com": 861,
      "ç¨ĭ": 862,
      "ual": 863,
      "é«ĺ": 864,
      "å°±": 865,
      ",Ċ": 866,
      "åĲĮ": 867,
      "de": 868,
      "ject": 869,
      "Ñħ": 870,
      "ĠØ§": 871,
      "æ¸": 872,
      "Ġro": 873,
      "Ġ,": 874,
      "éĢļ": 875,
      "ĠÐ¸": 876,
      "æĽ": 877,
      "urn": 878,
      "ite": 879,
      "200": 880,
      "ç¤": 881,
      "Ġstr": 882,
      "Ġar": 883,
      "Ġpre": 884,
      "åºĶ": 885,
      "ÙĬ": 886,
      "æ´": 887,
      "--------": 888,
      "æ¬": 889,
      "åº¦": 890,
      "==": 891,
      "ll": 892,
      "fr": 893,
      "è·": 894,
      "æľº": 895,
      "Ł¥": 896,
      "éĥ": 897,
      "çŃī": 898,
      "Ġso": 899,
      "Ġhas": 900,
      "åħ¶": 901,
      "åŃĲ": 902,
      "15": 903,
      "ç³": 904,
      "ä»¶": 905,
      "èĤ": 906,
      "ys": 907,
      "éĩı": 908,
      "åĬĽ": 909,
      "å°ı": 910,
      "åħ¬": 911,
      "è®¾": 912,
      "å»": 913,
      "Ġout": 914,
      "ĠÐ¾": 915,
      "Ġte": 916,
      "uch": 917,
      "Ġinter": 918,
      "å®¶": 919,
      "åħ³": 920,
      "ä¹ĭ": 921,
      "Ġdes": 922,
      "ph": 923,
      "ä½¿": 924,
      "åģ": 925,
      ":Ċ": 926,
      "ob": 927,
      "åı¯ä»¥": 928,
      "lect": 929,
      "ory": 930,
      "Ùħ": 931,
      "æ¡": 932,
      "ĠĠĠĠĠ": 933,
      "ä¹Ł": 934,
      "Ð¿": 935,
      "Ġone": 936,
      "ne": 937,
      "Ġ&": 938,
      "å¼Ģ": 939,
      "æıĲ": 940,
      "æį®": 941,
      "ä¸»": 942,
      "åĪ¶": 943,
      "çĤ¹": 944,
      "ond": 945,
      "è¡¨": 946,
      "è°": 947,
      "Ġz": 948,
      "enc": 949,
      "pr": 950,
      "gr": 951,
      "æĸ°": 952,
      "()": 953,
      "Ġup": 954,
      "ä»ĸ": 955,
      "In": 956,
      "éĽ": 957,
      "ely": 958,
      "æĻ": 959,
      "ve": 960,
      "Âł": 961,
      "éĹ´": 962,
      "und": 963,
      "çĶµ": 964,
      "åħ¨": 965,
      "ç»ı": 966,
      "åĿ": 967,
      "éĥ¨": 968,
      "é¢ĺ": 969,
      "ari": 970,
      "ake": 971,
      "ä¸Ģä¸ª": 972,
      "lic": 973,
      "åĨħ": 974,
      "åĬł": 975,
      "ystem": 976,
      "vel": 977,
      "Ġman": 978,
      "äº§": 979,
      "à¹": 980,
      "16": 981,
      "ose": 982,
      "202": 983,
      "Ġmore": 984,
      "éĶ": 985,
      "éľ": 986,
      "ors": 987,
      "low": 988,
      "erm": 989,
      "Ġgo": 990,
      "çł": 991,
      "ific": 992,
      "å¼ı": 993,
      "èĢĮ": 994,
      "Ġi": 995,
      "å¥½": 996,
      "ç³»": 997,
      "get": 998,
      "13": 999,
      "ied": 1000,
      "è§£": 1001,
      "ç±": 1002,
      ":ĊĊ": 1003,
      "18": 1004,
      "we": 1005,
      "åĬ¡": 1006,
      "Ġval": 1007,
      "å¾Ĺ": 1008,
      "Ġpart": 1009,
      "oth": 1010,
      "éķ": 1011,
      "Øª": 1012,
      "math": 1013,
      "ãĢĢ": 1014,
      "ç¡": 1015,
      "Ġ`": 1016,
      "èĢħ": 1017,
      "Ġtheir": 1018,
      "ç§į": 1019,
      "éĩį": 1020,
      "ype": 1021,
      "Ġob": 1022,
      "14": 1023,
      "Ġli": 1024,
      "ert": 1025,
      "ear": 1026,
      "ater": 1027,
      "éħ": 1028,
      ")ĊĊ": 1029,
      "ient": 1030,
      "ÙĪ": 1031,
      "ĠY": 1032,
      "ook": 1033,
      "own": 1034,
      "å»º": 1035,
      "åħ¥": 1036,
      "Ġ/": 1037,
      "Ġthey": 1038,
      "Ġla": 1039,
      "ra": 1040,
      "Ġev": 1041,
      "ç´": 1042,
      "Ġsc": 1043,
      "ÑĢÐµ": 1044,
      "åīį": 1045,
      "ont": 1046,
      "ĠØ§ÙĦ": 1047,
      "ound": 1048,
      "å¿ĥ": 1049,
      "Ġwork": 1050,
      "èĬ": 1051,
      "çĽ¸": 1052,
      "éļ": 1053,
      "ex": 1054,
      "Ġdif": 1055,
      "åĵģ": 1056,
      "Ð±": 1057,
      "çĽ®": 1058,
      "Ġnew": 1059,
      "Ġmod": 1060,
      "èģ": 1061,
      "Ð¹": 1062,
      "ç©": 1063,
      "io": 1064,
      "ĠÐº": 1065,
      "ock": 1066,
      "çĦ": 1067,
      "à¥": 1068,
      "25": 1069,
      "ree": 1070,
      "Ø¯": 1071,
      "æİ¥": 1072,
      "çī©": 1073,
      "èī": 1074,
      "è¶": 1075,
      "éĢī": 1076,
      "æĹ¥": 1077,
      "æŀľ": 1078,
      "éĥ½": 1079,
      "ç¼": 1080,
      "ä½ł": 1081,
      "ç®¡": 1082,
      "ates": 1083,
      "ä½į": 1084,
      "æľĢ": 1085,
      "åıĬ": 1086,
      "Ġuse": 1087,
      ".,": 1088,
      "iew": 1089,
      "Ġacc": 1090,
      "è®¡": 1091,
      "ä¿Ŀ": 1092,
      "ä¿¡": 1093,
      "åĻ": 1094,
      "ĠSt": 1095,
      "Ġfun": 1096,
      "30": 1097,
      "duct": 1098,
      "Ġë": 1099,
      "ix": 1100,
      "å¢": 1101,
      "aus": 1102,
      "ng": 1103,
      "}{": 1104,
      ";ĊĊ": 1105,
      "ener": 1106,
      "Ġfe": 1107,
      "Ġwere": 1108,
      "ize": 1109,
      "æĪĸ": 1110,
      "Ġcol": 1111,
      "clud": 1112,
      "turn": 1113,
      "ç¬¬": 1114,
      "åŀ": 1115,
      "____": 1116,
      "äºĭ": 1117,
      "Ġtime": 1118,
      "Ð³": 1119,
      "å¸Ĥ": 1120,
      "ink": 1121,
      "Ġem": 1122,
      "<tr": 1123,
      "ĠThis": 1124,
      "put": 1125,
      "Ġdata": 1126,
      "æ°´": 1127,
      "Ġcomm": 1128,
      "Ð½Ð¸": 1129,
      "Ġalso": 1130,
      "æ¶": 1131,
      "Ġthere": 1132,
      "æģ": 1133,
      "Ġam": 1134,
      "ìĿ": 1135,
      "ount": 1136,
      "Ã¡": 1137,
      "Ġform": 1138,
      "éľĢ": 1139,
      "ild": 1140,
      "çĿ": 1141,
      "Ġx": 1142,
      "Ġother": 1143,
      "Ġget": 1144,
      "é£": 1145,
      "....": 1146,
      "Ġadd": 1147,
      "row": 1148,
      "åĻ¨": 1149,
      "æĦı": 1150,
      "çķ": 1151,
      "ç»ĵ": 1152,
      "å°Ĩ": 1153,
      "igh": 1154,
      "Ġset": 1155,
      "åĽł": 1156,
      "ĠÐ´": 1157,
      "é¡¹": 1158,
      "anc": 1159,
      "ating": 1160,
      "ä»£": 1161,
      "17": 1162,
      "æĽ´": 1163,
      "Ġwhen": 1164,
      "ps": 1165,
      "ç¾": 1166,
      "ark": 1167,
      "å®ī": 1168,
      "sp": 1169,
      "Ġany": 1170,
      "Ġ$\\": 1171,
      "ï¼Ľ": 1172,
      "}\\": 1173,
      "text": 1174,
      "æĥħ": 1175,
      "elf": 1176,
      "ĠIt": 1177,
      "Ġbet": 1178,
      "ings": 1179,
      "Ġnum": 1180,
      "irst": 1181,
      "è£": 1182,
      "oint": 1183,
      "cess": 1184,
      "ry": 1185,
      "æĺİ": 1186,
      "Ġno": 1187,
      "wo": 1188,
      "Ġind": 1189,
      "Ġsome": 1190,
      "cre": 1191,
      "---": 1192,
      "âĢĶ": 1193,
      "Ġclass": 1194,
      "ĠĠĠĠĠĠĠĠĠĠĠĠĠĠĠ": 1195,
      "Ð¾Ð»": 1196,
      "Ġ:": 1197,
      "ax": 1198,
      "æ¨": 1199,
      "ss": 1200,
      "Ġabout": 1201,
      "è¯´": 1202,
      "å¹¶": 1203,
      "ĠCh": 1204,
      "ery": 1205,
      "ÑĨ": 1206,
      "eg": 1207,
      "åĮº": 1208,
      "ĠâĢľ": 1209,
      "å¸¸": 1210,
      "å¤©": 1211,
      "ick": 1212,
      "éĤ": 1213,
      "ç±»": 1214,
      "Ġmy": 1215,
      "æľŁ": 1216,
      "Th": 1217,
      "ility": 1218,
      "éĹ®": 1219,
      "å±ķ": 1220,
      "èµĦ": 1221,
      "ally": 1222,
      "olog": 1223,
      "Ġ\\,": 1224,
      "Ùĩ": 1225,
      "Ġits": 1226,
      "çĻ": 1227,
      "Ġinto": 1228,
      "plic": 1229,
      "lo": 1230,
      "Ñİ": 1231,
      "Ġ×": 1232,
      "ution": 1233,
      "ä¸ī": 1234,
      "å½ĵ": 1235,
      "åŁº": 1236,
      "Ð½Ð¾": 1237,
      "ÑĢÐ¸": 1238,
      "æŃ£": 1239,
      "}Ċ": 1240,
      "'t": 1241,
      "Ġag": 1242,
      "ÛĮ": 1243,
      "Ġact": 1244,
      "ement": 1245,
      "Ġint": 1246,
      "æķĻ": 1247,
      "Ġexp": 1248,
      "Ġet": 1249,
      "ays": 1250,
      "Ġrel": 1251,
      "åĲį": 1252,
      "ÃŃ": 1253,
      "ange": 1254,
      "Ġtrans": 1255,
      "åŀĭ": 1256,
      "Ġthan": 1257,
      "ons": 1258,
      "ipt": 1259,
      "Ġ}Ċ": 1260,
      "æłĩ": 1261,
      "frac": 1262,
      "ular": 1263,
      "Ġass": 1264,
      "Ġneed": 1265,
      "ä½¿çĶ¨": 1266,
      "ublic": 1267,
      "âĳ": 1268,
      "ÑĤÐµ": 1269,
      "çľĭ": 1270,
      "Ġsub": 1271,
      "right": 1272,
      "Ġsup": 1273,
      "Ġà¤": 1274,
      "###": 1275,
      "iel": 1276,
      "Ġpos": 1277,
      "Ġover": 1278,
      "Ġwould": 1279,
      "Ġ//": 1280,
      "ç»Ł": 1281,
      "ics": 1282,
      "çĦ¶": 1283,
      "éķ¿": 1284,
      "ç½®": 1285,
      "åįķ": 1286,
      "å¤ĸ": 1287,
      "éĴ": 1288,
      "æĪĳä»¬": 1289,
      "æ¯Ķ": 1290,
      "les": 1291,
      "æĬĢ": 1292,
      "Ġpar": 1293,
      "æº": 1294,
      "è¿ĺ": 1295,
      "Ġmay": 1296,
      "ative": 1297,
      "å¹³": 1298,
      "Ġdef": 1299,
      "Ġcons": 1300,
      "(\"": 1301,
      "çī¹": 1302,
      "Ġdiffer": 1303,
      "Ġsol": 1304,
      "æ·": 1305,
      "Ð½Ñĭ": 1306,
      "cript": 1307,
      "cept": 1308,
      "che": 1309,
      "50": 1310,
      "ble": 1311,
      "æ±Ĥ": 1312,
      "æ¡Ī": 1313,
      "100": 1314,
      "Ġreturn": 1315,
      "000": 1316,
      "ä»İ": 1317,
      "äºĽ": 1318,
      "å§": 1319,
      "Ġgr": 1320,
      "æľį": 1321,
      "Ġlike": 1322,
      "éģĵ": 1323,
      "Ġph": 1324,
      "rm": 1325,
      "Ġinv": 1326,
      "ym": 1327,
      "ä¹Ī": 1328,
      "Ġeff": 1329,
      "äºĮ": 1330,
      "ER": 1331,
      "ample": 1332,
      "ier": 1333,
      "Ġac": 1334,
      "br": 1335,
      "æĹł": 1336,
      "Ġsystem": 1337,
      "éª": 1338,
      "ÐµÑĤ": 1339,
      "ĊĊĊ": 1340,
      "åķ": 1341,
      "Ð¾Ð¼": 1342,
      "24": 1343,
      "ish": 1344,
      "Ð¾Ð´": 1345,
      "Ġel": 1346,
      "ian": 1347,
      "ç¤º": 1348,
      "Ġreg": 1349,
      "Ġkn": 1350,
      "èĪ": 1351,
      "æľ¯": 1352,
      "æ´»": 1353,
      "ef": 1354,
      "ÑĪ": 1355,
      "åıĺ": 1356,
      "ĠÃ": 1357,
      "Ġprov": 1358,
      "Ð¾Ð³": 1359,
      "ethod": 1360,
      "Ð»Ð¸": 1361,
      "æķ°æį®": 1362,
      "Ġthem": 1363,
      "Ġfol": 1364,
      "ĠÐ½Ð°": 1365,
      "æľĪ": 1366,
      "ç»Ħ": 1367,
      "Ġunder": 1368,
      "ĠPro": 1369,
      "ĠÐ¼": 1370,
      "Ã³": 1371,
      "iss": 1372,
      "rit": 1373,
      "åħ·": 1374,
      "Ġco": 1375,
      "ç²": 1376,
      "Ġcre": 1377,
      "åľº": 1378,
      "Ġspec": 1379,
      "çĿĢ": 1380,
      "tt": 1381,
      "Ġhow": 1382,
      "```ĊĊ": 1383,
      "æŃ¤": 1384,
      "roup": 1385,
      "Ġused": 1386,
      "Ġonly": 1387,
      "Ġusing": 1388,
      "tern": 1389,
      "yl": 1390,
      "è¿Ľè¡Į": 1391,
      "Ġdet": 1392,
      "æ¬¡": 1393,
      "è·¯": 1394,
      "ict": 1395,
      "ull": 1396,
      "Ġhis": 1397,
      "Ð½Ð°": 1398,
      "è´¨": 1399,
      "åĽ¾": 1400,
      "ugh": 1401,
      "çº¿": 1402,
      "Ġbeen": 1403,
      "Ġtwo": 1404,
      "ik": 1405,
      "Ġwhere": 1406,
      "ÑĤÐ¾": 1407,
      "çĥ": 1408,
      "éĩĮ": 1409,
      "çŁ¥": 1410,
      "22": 1411,
      "ove": 1412,
      "èĥ": 1413,
      "èĲ": 1414,
      "æĮĩ": 1415,
      "Ġ\\(": 1416,
      "åħĥ": 1417,
      "èĭ": 1418,
      "Ġfirst": 1419,
      "ç¡®": 1420,
      "åİŁ": 1421,
      "âĢ¦": 1422,
      "èµ·": 1423,
      "St": 1424,
      "eng": 1425,
      "åĪ©": 1426,
      "Ð¶": 1427,
      "Ġthen": 1428,
      "ise": 1429,
      "ç½ĳ": 1430,
      "->": 1431,
      "Ġthese": 1432,
      "ĠRe": 1433,
      "err": 1434,
      "åŃĹ": 1435,
      "oug": 1436,
      "ible": 1437,
      "åĲĳ": 1438,
      "Ġ#": 1439,
      "ning": 1440,
      "ause": 1441,
      "><": 1442,
      "ased": 1443,
      "ues": 1444,
      "ade": 1445,
      "Ġfr": 1446,
      "ÐµÐ½Ð¸": 1447,
      "è¢": 1448,
      "åĳĺ": 1449,
      "ung": 1450,
      "Ġsuch": 1451,
      "pos": 1452,
      "\",": 1453,
      "Ġwhat": 1454,
      "ures": 1455,
      "æµģ": 1456,
      "Ġpe": 1457,
      "å¤Ħ": 1458,
      "Ġsim": 1459,
      "æ¨¡": 1460,
      "åŃĺ": 1461,
      "ä½Ĩ": 1462,
      "å·¥ä½ľ": 1463,
      "ments": 1464,
      "å½¢": 1465,
      "Ġstud": 1466,
      "æł·": 1467,
      "çĶ±": 1468,
      "æīĭ": 1469,
      "çĪ": 1470,
      "ield": 1471,
      "ãģ®": 1472,
      "Ġhigh": 1473,
      ".s": 1474,
      "its": 1475,
      "çģ": 1476,
      "Ġfunction": 1477,
      "Ġsec": 1478,
      "Ñĸ": 1479,
      "Ġrec": 1480,
      "Ġrequ": 1481,
      "app": 1482,
      "ç¥": 1483,
      "èĢĥ": 1484,
      "åı¸": 1485,
      "è¿Ĳ": 1486,
      "åĽŀ": 1487,
      "fter": 1488,
      "Ġop": 1489,
      "Ø©": 1490,
      "Ġwho": 1491,
      "æĤ": 1492,
      "éĩĳ": 1493,
      "Ġvari": 1494,
      "Ġ>": 1495,
      "ection": 1496,
      "Ġresult": 1497,
      "23": 1498,
      "IN": 1499,
      "ON": 1500,
      "resent": 1501,
      "åĢ¼": 1502,
      "å¾Ī": 1503,
      "left": 1504,
      "Ġke": 1505,
      "ck": 1506,
      "ah": 1507,
      "ities": 1508,
      "íķ": 1509,
      "AT": 1510,
      "åĮħ": 1511,
      "éĵ": 1512,
      "ween": 1513,
      "val": 1514,
      "Ø§Ø": 1515,
      "å£": 1516,
      "æ»": 1517,
      "æķĪ": 1518,
      "Ã¤": 1519,
      "Ġinclud": 1520,
      "Ġcor": 1521,
      "://": 1522,
      "Ġbec": 1523,
      "ox": 1524,
      "Ġour": 1525,
      "Ġdi": 1526,
      "ma": 1527,
      "è°ĥ": 1528,
      "yn": 1529,
      "ï¼Ł": 1530,
      "å®¹": 1531,
      "ower": 1532,
      "æł¼": 1533,
      "Ġequ": 1534,
      "æŁ¥": 1535,
      "ĠAn": 1536,
      "æ²¡": 1537,
      "Ġsa": 1538,
      "åıĸ": 1539,
      "Ġsign": 1540,
      "Ġhad": 1541,
      "ten": 1542,
      "old": 1543,
      "è¨": 1544,
      "par": 1545,
      "æŁ": 1546,
      "40": 1547,
      "Ð»ÑĮ": 1548,
      "yp": 1549,
      "rough": 1550,
      "æŀĦ": 1551,
      "ta": 1552,
      "Ġinst": 1553,
      "è£ħ": 1554,
      "Ġprocess": 1555,
      "trib": 1556,
      "Ġjust": 1557,
      "ÑĤÐ°": 1558,
      "ator": 1559,
      "çŃĶ": 1560,
      "inal": 1561,
      "urre": 1562,
      "æ°ĳ": 1563,
      "è§Ħ": 1564,
      "äº¤": 1565,
      "oid": 1566,
      "ĠWe": 1567,
      "Ġresp": 1568,
      "></": 1569,
      "ern": 1570,
      "Ġbetween": 1571,
      "çŁ": 1572,
      "arch": 1573,
      "Ġ**": 1574,
      "Ġpol": 1575,
      "æĦŁ": 1576,
      "ci": 1577,
      "åı£": 1578,
      "ãĢĭ": 1579,
      "velop": 1580,
      "ãĢĬ": 1581,
      "oy": 1582,
      "-b": 1583,
      "hat": 1584,
      "Ġche": 1585,
      "èĦ": 1586,
      "Re": 1587,
      "-s": 1588,
      "èį": 1589,
      "ature": 1590,
      "ÑģÐº": 1591,
      "è±": 1592,
      "let": 1593,
      "ÂłÂł": 1594,
      "Ġshould": 1595,
      "Ġent": 1596,
      "éĢļè¿ĩ": 1597,
      "æĪ·": 1598,
      "æĥ³": 1599,
      "pert": 1600,
      "Ð¾Ð¹": 1601,
      "é¦": 1602,
      "ĠÂ": 1603,
      "Ġfollow": 1604,
      "...": 1605,
      "Ġsu": 1606,
      "round": 1607,
      "æ®": 1608,
      "ĠCom": 1609,
      "ä¸¤": 1610,
      "ç¦": 1611,
      "ĠâĢĵ": 1612,
      "æĮģ": 1613,
      "æģ¯": 1614,
      "====": 1615,
      "Ġ)": 1616,
      "éľĢè¦ģ": 1617,
      "Ġgener": 1618,
      ".com": 1619,
      "ä»»": 1620,
      "éĤ£": 1621,
      "?ĊĊ": 1622,
      "âĢĵ": 1623,
      "ä¾ĭ": 1624,
      "åħ¬åı¸": 1625,
      "ms": 1626,
      "åİ»": 1627,
      "è¢«": 1628,
      "read": 1629,
      "Ġeach": 1630,
      "ool": 1631,
      "æ³¨": 1632,
      "mathrm": 1633,
      "ä¾Ľ": 1634,
      "å¤ĩ": 1635,
      "å®ĥ": 1636,
      "Ġbl": 1637,
      "Ex": 1638,
      "å¯¼": 1639,
      "æºĲ": 1640,
      "work": 1641,
      "æľįåĬ¡": 1642,
      "åĲĦ": 1643,
      "Ġder": 1644,
      "åı·": 1645,
      "çĸ": 1646,
      "Ġrem": 1647,
      "ä¼ł": 1648,
      "Ġnumber": 1649,
      "Ġ@": 1650,
      "fig": 1651,
      "****": 1652,
      "Ġdifferent": 1653,
      "ks": 1654,
      "ç®Ĺ": 1655,
      "ute": 1656,
      "åıª": 1657,
[...]
