{
    "version": "1.0",
    "truncation": null,
    "padding": null,
    "added_tokens": [
        {
            "id": 0,
            "special": true,
            "content": "<unk>",
            "single_word": false,
            "lstrip": false,
            "rstrip": false,
            "normalized": false
        },
        {
            "id": 160132,
            "special": true,
            "content": "<_start>",
            "single_word": false,
            "lstrip": false,
            "rstrip": false,
            "normalized": false
        },
        {
            "id": 160133,
            "special": true,
            "content": "<_end>",
            "single_word": false,
            "lstrip": false,
            "rstrip": false,
            "normalized": false
        },
        {
            "id": 3,
            "special": true,
            "content": "<pad>",
            "single_word": false,
            "lstrip": false,
            "rstrip": false,
            "normalized": false
        },
        {
            "id": 160130,
            "special": true,
            "content": "<_user>",
            "single_word": false,
            "lstrip": false,
            "rstrip": false,
            "normalized": false
        },
        {
            "id": 160131,
            "special": true,
            "content": "<_bot>",
            "single_word": false,
            "lstrip": false,
            "rstrip": false,
            "normalized": false
        },
        {
            "id": 160134,
            "special": true,
            "content": "<_system>",
            "single_word": false,
            "lstrip": false,
            "rstrip": false,
            "normalized": false
        }
    ],
    "normalizer": null,
    "pre_tokenizer": {
        "type": "Sequence",
        "pretokenizers": [
            {
                "type": "Split",
                "pattern": {
                    "Regex": " ?[^(\\s|[.,!?…。，、।۔،])]+"
                },
                "behavior": "Isolated",
                "invert": false
            },
            {
                "type": "ByteLevel",
                "add_prefix_space": false,
                "trim_offsets": true,
                "use_regex": false
            }
        ]
    },
    "post_processor": {
        "type": "ByteLevel",
        "add_prefix_space": true,
        "trim_offsets": false,
        "use_regex": false
    },
    "decoder": {
        "type": "ByteLevel",
        "add_prefix_space": true,
        "trim_offsets": true,
        "use_regex": false
    },
    "model": {
        "type": "BPE",
        "dropout": null,
        "unk_token": null,
        "continuing_subword_prefix": null,
        "end_of_word_suffix": null,
        "fuse_unk": false,
        "vocab": {
            "<unk>": 0,
            "<s>": 1,
            "</s>": 2,
            "<pad>": 3,
            "!": 4,
            "\"": 5,
            "#": 6,
            "$": 7,
            "%": 8,
            "&": 9,
            "'": 10,
            "(": 11,
            ")": 12,
            "*": 13,
            "+": 14,
            ",": 15,
            "-": 16,
            ".": 17,
            "/": 18,
            "0": 19,
            "1": 20,
            "2": 21,
            "3": 22,
            "4": 23,
            "5": 24,
            "6": 25,
            "7": 26,
            "8": 27,
            "9": 28,
            ":": 29,
            ";": 30,
            "<": 31,
            "=": 32,
            ">": 33,
            "?": 34,
            "@": 35,
            "A": 36,
            "B": 37,
            "C": 38,
            "D": 39,
            "E": 40,
            "F": 41,
            "G": 42,
            "H": 43,
            "I": 44,
            "J": 45,
            "K": 46,
            "L": 47,
            "M": 48,
            "N": 49,
            "O": 50,
            "P": 51,
            "Q": 52,
            "R": 53,
            "S": 54,
            "T": 55,
            "U": 56,
            "V": 57,
            "W": 58,
            "X": 59,
            "Y": 60,
            "Z": 61,
            "[": 62,
            "\\": 63,
            "]": 64,
            "^": 65,
            "_": 66,
            "`": 67,
            "a": 68,
            "b": 69,
            "c": 70,
            "d": 71,
            "e": 72,
            "f": 73,
            "g": 74,
            "h": 75,
            "i": 76,
            "j": 77,
            "k": 78,
            "l": 79,
            "m": 80,
            "n": 81,
            "o": 82,
            "p": 83,
            "q": 84,
            "r": 85,
            "s": 86,
            "t": 87,
            "u": 88,
            "v": 89,
            "w": 90,
            "x": 91,
            "y": 92,
            "z": 93,
            "{": 94,
            "|": 95,
            "}": 96,
            "~": 97,
            "¡": 98,
            "¢": 99,
            "£": 100,
            "¤": 101,
            "¥": 102,
            "¦": 103,
            "§": 104,
            "¨": 105,
            "©": 106,
            "ª": 107,
            "«": 108,
            "¬": 109,
            "®": 110,
            "¯": 111,
            "°": 112,
            "±": 113,
            "²": 114,
            "³": 115,
            "´": 116,
            "µ": 117,
            "¶": 118,
            "·": 119,
            "¸": 120,
            "¹": 121,
            "º": 122,
            "»": 123,
            "¼": 124,
            "½": 125,
            "¾": 126,
            "¿": 127,
            "Â": 128,
            "Ã": 129,
            "Ä": 130,
            "Å": 131,
            "Æ": 132,
            "Ç": 133,
            "È": 134,
            "É": 135,
            "Ê": 136,
            "Ë": 137,
            "Ì": 138,
            "Í": 139,
            "Î": 140,
            "Ï": 141,
            "Ð": 142,
            "Ñ": 143,
            "Ò": 144,
            "Ó": 145,
            "Ô": 146,
            "Õ": 147,
            "Ö": 148,
            "×": 149,
            "Ø": 150,
            "Ù": 151,
            "Ú": 152,
            "Û": 153,
            "Ü": 154,
            "Ý": 155,
            "Þ": 156,
            "ß": 157,
            "à": 158,
            "á": 159,
            "â": 160,
            "ã": 161,
            "ä": 162,
            "å": 163,
            "æ": 164,
            "ç": 165,
            "è": 166,
            "é": 167,
            "ê": 168,
            "ë": 169,
            "ì": 170,
            "í": 171,
            "î": 172,
            "ï": 173,
            "ð": 174,
            "ñ": 175,
            "ò": 176,
            "ó": 177,
            "ô": 178,
            "Ā": 179,
            "ā": 180,
            "Ă": 181,
            "ă": 182,
            "Ą": 183,
            "ą": 184,
            "Ć": 185,
            "ć": 186,
            "Ĉ": 187,
            "ĉ": 188,
            "Ċ": 189,
            "Č": 190,
            "č": 191,
            "Ď": 192,
            "ď": 193,
            "Đ": 194,
            "đ": 195,
            "Ē": 196,
            "ē": 197,
            "Ĕ": 198,
            "ĕ": 199,
            "Ė": 200,
            "ė": 201,
            "Ę": 202,
            "ę": 203,
            "Ě": 204,
            "ě": 205,
            "Ĝ": 206,
            "ĝ": 207,
            "Ğ": 208,
            "ğ": 209,
            "Ġ": 210,
            "ġ": 211,
            "Ģ": 212,
            "ģ": 213,
            "Ĥ": 214,
            "ĥ": 215,
            "Ħ": 216,
            "ħ": 217,
            "Ĩ": 218,
            "ĩ": 219,
            "Ī": 220,
            "ī": 221,
            "Ĭ": 222,
            "ĭ": 223,
            "Į": 224,
            "į": 225,
            "İ": 226,
            "ı": 227,
            "Ĳ": 228,
            "ĳ": 229,
            "Ĵ": 230,
            "ĵ": 231,
            "Ķ": 232,
            "ķ": 233,
            "ĸ": 234,
            "Ĺ": 235,
            "ĺ": 236,
            "Ļ": 237,
            "ļ": 238,
            "Ľ": 239,
            "ľ": 240,
            "Ŀ": 241,
            "ŀ": 242,
            "Ł": 243,
            "ł": 244,
            "Ń": 245,
            "à¤": 246,
            "à¦": 247,
            "Ġà": 248,
            "à¥": 249,
            "ĠĠ": 250,
            "à®": 251,
            "Ġd": 252,
            "Ġà¤": 253,
            "à²": 254,
            "à°": 255,
            "an": 256,
            "en": 257,
            "à´": 258,
            "er": 259,
            "Ġt": 260,
            "es": 261,
            "àª": 262,
            "à¨": 263,
            "in": 264,
            "on": 265,
            "Ġa": 266,
            "Ġc": 267,
            "Ġp": 268,
            "à§": 269,
            "à¬": 270,
            "Ġs": 271,
            "ar": 272,
            "à¯": 273,
            "Ġl": 274,
            "at": 275,
            "Ġm": 276,
            "or": 277,
            "Ġà¦": 278,
            "ĠØ": 279,
            "Ġde": 280,
            "àµ": 281,
            "al": 282,
            "ĠĠĠĠ": 283,
            "ĠÙ": 284,
            "á»": 285,
            "re": 286,
            "is": 287,
            "it": 288,
            "à±": 289,
            "à³": 290,
            "Ġn": 291,
            "as": 292,
            "Ġe": 293,
            "Ġb": 294,
            "os": 295,
            "Ġth": 296,
            "Ġà¨": 297,
            "à«": 298,
            "qu": 299,
            "ent": 300,
            "un": 301,
            "à©": 302,
            "Ã©": 303,
            "ä¸": 304,
            "Ġh": 305,
            "Ġf": 306,
            "Ġàª": 307,
            "ï¼": 308,
            "ic": 309,
            "ur": 310,
            "ad": 311,
            "le": 312,
            "am": 313,
            "Ġo": 314,
            "áº": 315,
            "àŃ": 316,
            "om": 317,
            "ãĢ": 318,
            "Ġà®": 319,
            ".Ċ": 320,
            "Ġv": 321,
            "ion": 322,
            "Ġà°": 323,
            "el": 324,
            "Ġqu": 325,
            "em": 326,
            "Ġà²": 327,
            "ro": 328,
            "us": 329,
            "Ġk": 330,
            "il": 331,
            "ï¼Į": 332,
            "id": 333,
            "âĢ": 334,
            "Ġin": 335,
            "ut": 336,
            "et": 337,
            "Ġla": 338,
            "Ãł": 339,
            "Ġthe": 340,
            "çļ": 341,
            "Ġw": 342,
            "çļĦ": 343,
            "Ã³": 344,
            "Ġ(": 345,
            "ed": 346,
            "ac": 347,
            "Ġà¬": 348,
            "Ġg": 349,
            "im": 350,
            "äº": 351,
            "ng": 352,
            "Ġà´": 353,
            "ing": 354,
            "ia": 355,
            "est": 356,
            "Ã¡": 357,
            "ol": 358,
            "and": 359,
            "Ġy": 360,
            "ak": 361,
            "ir": 362,
            "ĠS": 363,
            "Ġ1": 364,
            "ĠC": 365,
            "ul": 366,
            "Ġque": 367,
            "Ġr": 368,
            "ec": 369,
            "Ġen": 370,
            "Ġ2": 371,
            "ĠĠĠ": 372,
            "ĠA": 373,
            "ãĢĤ": 374,
            "ang": 375,
            "æľ": 376,
            "ĠP": 377,
            "Ġto": 378,
            "Ġre": 379,
            "ĠĠĠĠĠĠĠĠ": 380,
            "Ġcon": 381,
            "ĠÄ": 382,
            "ĠM": 383,
            "åħ": 384,
            "um": 385,
            "ÃŃ": 386,
            "ä»": 387,
            "ĠT": 388,
            "ant": 389,
            "Ġun": 390,
            "åı": 391,
            "ĠÄĳ": 392,
            "tr": 393,
            "ta": 394,
            "iv": 395,
            "ig": 396,
            "Ġse": 397,
            "ik": 398,
            "Ġof": 399,
            "00": 400,
            "ab": 401,
            "Ġel": 402,
            "Ġtr": 403,
            "ĠI": 404,
            "ag": 405,
            "ot": 406,
            "åľ": 407,
            "ap": 408,
            "Ġch": 409,
            "å¤": 410,
            "ch": 411,
            "ĠB": 412,
            "ay": 413,
            "å®": 414,
            "Ġcom": 415,
            "ĠL": 416,
            "Ġpar": 417,
            "Ġ.": 418,
            "Ġj": 419,
            "ä½": 420,
            "åĪ": 421,
            "ah": 422,
            "if": 423,
            "ĠE": 424,
            "te": 425,
            "åĲ": 426,
            "Ġal": 427,
            "Æ°": 428,
            "ĠD": 429,
            "ers": 430,
            "æĸ": 431,
            "ation": 432,
            "Ġand": 433,
            "od": 434,
            "æĪ": 435,
            "ĉĉ": 436,
            "Ĥà°": 437,
            "Ã£": 438,
            "oc": 439,
            "æĺ": 440,
            "av": 441,
            "Ġà¥": 442,
            "Ġpro": 443,
            "iÃ³": 444,
            "ou": 445,
            "å¹": 446,
            "st": 447,
            "ĠN": 448,
            "ct": 449,
            "res": 450,
            "ter": 451,
            "end": 452,
            "Ġ=": 453,
            "..": 454,
            "Ġ\"": 455,
            "å°": 456,
            "ce": 457,
            "è¿": 458,
            "ib": 459,
            "ĠR": 460,
            "Ġle": 461,
            "åĽ": 462,
            "çĶ": 463,
            "ud": 464,
            "iz": 465,
            "Ġest": 466,
            "Ã´": 467,
            "Ãª": 468,
            "se": 469,
            "ä¹": 470,
            "Ã¨": 471,
            "ãĢģ": 472,
            "ĠâĢ": 473,
            "Ġdes": 474,
            "up": 475,
            "--": 476,
            "ai": 477,
            "ĠG": 478,
            "ĊĊ": 479,
            "Ġper": 480,
            "ip": 481,
            "åĬ": 482,
            "our": 483,
            "åį": 484,
            "Ġfor": 485,
            "ĠF": 486,
            "Ġes": 487,
            "ist": 488,
            "ä¸Ģ": 489,
            "ĠH": 490,
            "eng": 491,
            "ub": 492,
            "uk": 493,
            "Ġdel": 494,
            "io": 495,
            "ĠJ": 496,
            "Ġ,": 497,
            "Ã£o": 498,
            "Ġis": 499,
            "ĠK": 500,
            "op": 501,
            "¯à¦": 502,
            "ie": 503,
            "Ġpr": 504,
            "æĺ¯": 505,
            "æĹ": 506,
            "ĠĠĠĠĠĠĠ": 507,
            "Ġ-": 508,
            "åľ¨": 509,
            "Ã§": 510,
            "åŃ": 511,
            "iá»": 512,
            "01": 513,
            "Ġno": 514,
            "ate": 515,
            "ort": 516,
            "Ġan": 517,
            "Ġas": 518,
            "Ġon": 519,
            "Ãº": 520,
            "nh": 521,
            "Æ°á»": 522,
            "he": 523,
            "pl": 524,
            "å¾": 525,
            "ue": 526,
            "ä¼": 527,
            "Ġet": 528,
            "Ġl'": 529,
            "Ġdi": 530,
            "Ġles": 531,
            "è®": 532,
            "ect": 533,
            "ya": 534,
            "Ġex": 535,
            "ow": 536,
            "ç»": 537,
            "Ã©s": 538,
            "ĊĠĠĠĠĠĠĠĠ": 539,
            "æĿ": 540,
            "äºº": 541,
            "ĠÃł": 542,
            "áº¿": 543,
            "ada": 544,
            "ra": 545,
            "ans": 546,
            "Ġz": 547,
            "de": 548,
            "æľī": 549,
            "Ġi": 550,
            "ere": 551,
            "¯à¦¼": 552,
            "å¹´": 553,
            "ment": 554,
            "Ġit": 555,
            "Ġnh": 556,
            "Ġbe": 557,
            "åĴ": 558,
            "th": 559,
            "âĢĻ": 560,
            "Ġdo": 561,
            "è¡": 562,
            "Ġ{": 563,
            "ob": 564,
            "ug": 565,
            "éĢ": 566,
            "Ġ3": 567,
            "è¯": 568,
            "æī": 569,
            "ess": 570,
            "Ġd'": 571,
            "à°Ĥà°": 572,
            "Ġng": 573,
            "og": 574,
            "åĴĮ": 575,
            "ä¸į": 576,
            "ĊĠĠĠ": 577,
            "áº¡": 578,
            "ado": 579,
            "Ġ'": 580,
            "ari": 581,
            "iÃ³n": 582,
            "ĠW": 583,
            "ver": 584,
            "Ã¢": 585,
            "ĠU": 586,
            "Ġkh": 587,
            "Ġem": 588,
            "å·": 589,
            "ial": 590,
            "ĠO": 591,
            "ill": 592,
            "ä¸Ń": 593,
            "éĩ": 594,
            "Ã¬": 595,
            "äºĨ": 596,
            "æŃ": 597,
            "emb": 598,
            "ĠV": 599,
            "ĠÃ©": 600,
            "kan": 601,
            "ain": 602,
            "Ġor": 603,
            "å¸": 604,
            "Ġne": 605,
            "á»Ļ": 606,
            "åº": 607,
            "Ġdu": 608,
            "all": 609,
            "au": 610,
            "Ġsu": 611,
            "ãĢĤĊ": 612,
            "Ġpl": 613,
            "åĮ": 614,
            "era": 615,
            "Ġar": 616,
            "åĨ": 617,
            "èĢ": 618,
            "ass": 619,
            "Ġph": 620,
            "åĩ": 621,
            "ert": 622,
            "ong": 623,
            "áº£": 624,
            "ĊĠĠĠĠĠĠĠ": 625,
            "å¼": 626,
            "Ġpor": 627,
            "æĪĳ": 628,
            "åĽ½": 629,
            "ais": 630,
            "ith": 631,
            "ri": 632,
            "Ġpara": 633,
            "Ġmen": 634,
            "Ġad": 635,
            "ont": 636,
            "Ġthat": 637,
            "æķ": 638,
            "Ġyang": 639,
            "ĠÂ": 640,
            "Ã²": 641,
            "éģ": 642,
            "æĶ": 643,
            "Ġwh": 644,
            "Ġlos": 645,
            "å¥": 646,
            "que": 647,
            "ens": 648,
            "art": 649,
            "Ġap": 650,
            "å¤§": 651,
            "()": 652,
            "me": 653,
            "å¯": 654,
            "Ġda": 655,
            "imp": 656,
            "ok": 657,
            "çĽ": 658,
            "Ġter": 659,
            "Ġ/": 660,
            "á»ĳ": 661,
            "Ċĉĉ": 662,
            "á»į": 663,
            "ek": 664,
            "áº¥": 665,
            "æ³": 666,
            "ell": 667,
            "Ã´ng": 668,
            "ä»¥": 669,
            "Ãªn": 670,
            "å±": 671,
            "Ġam": 672,
            "19": 673,
            "Ġ:": 674,
            "for": 675,
            "Ġat": 676,
            "ult": 677,
            "und": 678,
            "éĻ": 679,
            "ung": 680,
            "åĳ": 681,
            "Ġ0": 682,
            "az": 683,
            "çī": 684,
            "Ġ4": 685,
            "enc": 686,
            "ente": 687,
            "Ġ*": 688,
            "ions": 689,
            "ata": 690,
            "wa": 691,
            "éĥ": 692,
            "cl": 693,
            "Ġdan": 694,
            "ne": 695,
            "ä¼ļ": 696,
            "è¦": 697,
            "ve": 698,
            "ara": 699,
            "Ġ19": 700,
            "Ġser": 701,
            "Ġst": 702,
            "Ġres": 703,
            "Ġ201": 704,
            "int": 705,
            "èĩ": 706,
            "eb": 707,
            "Ġx": 708,
            "Ġ$": 709,
            "Ġ5": 710,
            "ure": 711,
            "Ġus": 712,
            "tic": 713,
            "Ġum": 714,
            "âĢĿ": 715,
            "ht": 716,
            "ame": 717,
            "æł": 718,
            "Ġfr": 719,
            "ine": 720,
            "ind": 721,
            "ian": 722,
            "æĭ": 723,
            "æ°": 724,
            "Ġac": 725,
            "ly": 726,
            "Ġcomp": 727,
            "Ġwith": 728,
            "aj": 729,
            "ĠIn": 730,
            "Ġdis": 731,
            "Æ¡": 732,
            "age": 733,
            "),": 734,
            "ç§": 735,
            "**": 736,
            "?Ċ": 737,
            "ä¸º": 738,
            "lic": 739,
            "to": 740,
            "ep": 741,
            "emp": 742,
            "è§": 743,
            "uc": 744,
            "Ġuna": 745,
            "æĬ": 746,
            "Ġ.Ġ.": 747,
            "ord": 748,
            "æĢ": 749,
            "eg": 750,
            "ien": 751,
            "ient": 752,
            "ons": 753,
            "ĠÄĳá»": 754,
            "éĿ": 755,
            "ement": 756,
            "ier": 757,
            "Ġent": 758,
            "Ġlas": 759,
            "amb": 760,
            "ive": 761,
            "ä»ĸ": 762,
            "ies": 763,
            "ho": 764,
            "Ġme": 765,
            "iá»ĩ": 766,
            "idad": 767,
            "èµ": 768,
            "ä¾": 769,
            "Ġ}": 770,
            "02": 771,
            "ä¿": 772,
            "pe": 773,
            "æ²": 774,
            "á»§": 775,
            "éĹ": 776,
            "ix": 777,
            "Ġber": 778,
            "Ġab": 779,
            "å½": 780,
            "åİ": 781,
            "ard": 782,
            "Ġna": 783,
            "Ġ[": 784,
            "è¡Į": 785,
            "áºŃ": 786,
            "æĹ¥": 787,
            "ait": 788,
            "Ã©r": 789,
            "Ġthis": 790,
            "ĠlÃł": 791,
            "ĠvÃł": 792,
            "ä¸Ĭ": 793,
            "åĢ": 794,
            "ost": 795,
            "ile": 796,
            "èĥ": 797,
            "Ġnot": 798,
            "Ġvá»": 799,
            "çİ": 800,
            "ff": 801,
            "çĤ": 802,
            "Ġ200": 803,
            "ex": 804,
            "----": 805,
            "Ġcl": 806,
            "Ġ+": 807,
            "å¿": 808,
            "anc": 809,
            "Ã§Ã£o": 810,
            "Ġyou": 811,
            "unt": 812,
            "uy": 813,
            "gr": 814,
            "ha": 815,
            "ide": 816,
            "amp": 817,
            "Ġ)": 818,
            "Æ°á»Ŀ": 819,
            "Ġpre": 820,
            "çº": 821,
            "act": 822,
            "ç¬": 823,
            "è¦ģ": 824,
            "ana": 825,
            "nya": 826,
            "èģ": 827,
            "Ã±": 828,
            "200": 829,
            "//": 830,
            "aciÃ³n": 831,
            "ity": 832,
            "Ġgr": 833,
            "åĪ°": 834,
            "ous": 835,
            "ua": 836,
            "ä½ł": 837,
            "con": 838,
            "ave": 839,
            "è¿Ļ": 840,
            "iáº¿": 841,
            "æŀ": 842,
            "out": 843,
            "Ġ<": 844,
            "åĩº": 845,
            "è´": 846,
            "ction": 847,
            "Ġha": 848,
            "Ġlo": 849,
            "çĶ¨": 850,
            "Ġcons": 851,
            ").": 852,
            "arg": 853,
            "ç«": 854,
            "æĸ¹": 855,
            "ä½ľ": 856,
            "æİ": 857,
            "åŁ": 858,
            "ica": 859,
            "Ġco": 860,
            "Ġpas": 861,
            "Ġ6": 862,
            "æľĪ": 863,
            "åľ°": 864,
            "able": 865,
            "ÃŃa": 866,
            "ez": 867,
            "Ġav": 868,
            "áº§": 869,
            "ux": 870,
            "åī": 871,
            "form": 872,
            "ond": 873,
            ")Ċ": 874,
            "ĠTh": 875,
            "ĠCh": 876,
            "'s": 877,
            "arr": 878,
            "ĊĠĠĠĠĠĠĠĠĠĠĠ": 879,
            "ä¹ĭ": 880,
            "åı¯": 881,
            "éĽ": 882,
            "ih": 883,
            "ä¸ª": 884,
            "çĶŁ": 885,
            "__": 886,
            "çĲ": 887,
            "Ġimp": 888,
            "ire": 889,
            "Ġtá»": 890,
            "ov": 891,
            "Ġob": 892,
            "Ġeta": 893,
            "nd": 894,
            "æµ": 895,
            "æĪĲ": 896,
            "æ³ķ": 897,
            "Ì£": 898,
            "å®¶": 899,
            "æ¯": 900,
            "ĠdÃ©": 901,
            "pr": 902,
            "ight": 903,
            "Ġmeng": 904,
            "per": 905,
            "Ġcont": 906,
            "Ġare": 907,
            "urn": 908,
            "ama": 909,
            "pt": 910,
            "ase": 911,
            "ï¼ī": 912,
            "ï¼Ī": 913,
            "ore": 914,
            "ust": 915,
            "iss": 916,
            "æ´": 917,
            "Ġif": 918,
            "ç¬¬": 919,
            "ual": 920,
            "Ã¡c": 921,
            "åħ¶": 922,
            "çľ": 923,
            "ite": 924,
            "Ġby": 925,
            "æĻ": 926,
            "å¦": 927,
            "æĽ": 928,
            "les": 929,
            "}}": 930,
            "com": 931,
            "lo": 932,
            "é¢": 933,
            "Ġya": 934,
            "ados": 935,
            "ina": 936,
            "äºİ": 937,
            "ido": 938,
            "æĮ": 939,
            "->": 940,
            "ĠcÃ³": 941,
            "Ġpers": 942,
            "Ġthá»": 943,
            "ode": 944,
            "ich": 945,
            "ace": 946,
            "ament": 947,
            "Ġinter": 948,
            "åĵ": 949,
            "...": 950,
            "ign": 951,
            "Ġpres": 952,
            "Ġpour": 953,
            "cr": 954,
            "æ¬": 955,
            ",Ċ": 956,
            "Ã¢n": 957,
            "ma": 958,
            "ando": 959,
            "ĠThe": 960,
            "á»§a": 961,
            "èĪ": 962,
            "æĥ": 963,
            "Ġ7": 964,
            "ional": 965,
            "Ġsur": 966,
            "ui": 967,
            "Ġcan": 968,
            "ack": 969,
            "Ġcá»§a": 970,
            "å§": 971,
            "ç¾": 972,
            "èĥ½": 973,
            "çŃ": 974,
            "In": 975,
            "ä¸ĭ": 976,
            "Ġpos": 977,
            "åħ¬": 978,
            "áº¡i": 979,
            "10": 980,
            "=\"": 981,
            "éĥ¨": 982,
            "ast": 983,
            "par": 984,
            "æ±": 985,
            "pos": 986,
            "uz": 987,
            "Ġso": 988,
            "ance": 989,
            "éĺ": 990,
            "aren": 991,
            "ante": 992,
            "ins": 993,
            "ime": 994,
            "Ġag": 995,
            "è¾": 996,
            "çķ": 997,
            "Ġâ": 998,
            "Ġsa": 999,
            "Ġ8": 1000,
            "Ã¹": 1001,
            "ener": 1002,
            "æĦ": 1003,
            "ko": 1004,
            "å»": 1005,
            "port": 1006,
            "æ¸": 1007,
            "Æ°á»£": 1008,
            "é¡": 1009,
            "æı": 1010,
            "Ã¡n": 1011,
            "ĠY": 1012,
            "fer": 1013,
            "Ġqui": 1014,
            "ret": 1015,
            "la": 1016,
            "Ġfrom": 1017,
            "Ġdans": 1018,
            "Ľi": 1019,
            "Ã´i": 1020,
            "éĤ": 1021,
            "uld": 1022,
            "Ã¡s": 1023,
            "æĹ¶": 1024,
            "å®ļ": 1025,
            "åŃĲ": 1026,
            "Ġmu": 1027,
            "âĢľ": 1028,
            "ĠâĢľ": 1029,
            "åĪĨ": 1030,
            "ita": 1031,
            "âĢĮ": 1032,
            "ach": 1033,
            "ĠĠĠĠĠĠĠĠĠĠĠĠĠĠĠĠ": 1034,
            "è¨": 1035,
            "so": 1036,
            "æīĢ": 1037,
            "Ġman": 1038,
            "èĢĮ": 1039,
            "mo": 1040,
            "asi": 1041,
            "atu": 1042,
            "ä¸»": 1043,
            "Ġà§": 1044,
            "ats": 1045,
            "ï¼ļ": 1046,
            "201": 1047,
            "Äĥ": 1048,
            "du": 1049,
            "11": 1050,
            "ations": 1051,
            "Ġhave": 1052,
            "æĸ°": 1053,
            "Ã©e": 1054,
            "äºĭ": 1055,
            "pres": 1056,
            "Ġer": 1057,
            "ä¹Ł": 1058,
            "çĻ": 1059,
            "âĢį": 1060,
            "é«": 1061,
            "åıĳ": 1062,
            "åĲĪ": 1063,
            "ĠUn": 1064,
            "Ġcomo": 1065,
            "engan": 1066,
            "áº¯": 1067,
            "Ġpol": 1068,
            "aciÃ³": 1069,
            "å¤ļ": 1070,
            "Ġpart": 1071,
            "æĿ¥": 1072,
            "fr": 1073,
            "Ġ9": 1074,
            "á»ĭ": 1075,
            "ath": 1076,
            "é¦": 1077,
            "Ġ10": 1078,
            "Ċĉ": 1079,
            "ç½": 1080,
            "ject": 1081,
            "èĩª": 1082,
            "get": 1083,
            "á»Ļt": 1084,
            "ice": 1085,
            "ç´": 1086,
            "co": 1087,
            "ä»¬": 1088,
            "ura": 1089,
            "å°±": 1090,
            "éļ": 1091,
            "ç¨": 1092,
            "Ġamb": 1093,
            "ble": 1094,
            "Ġos": 1095,
            "ern": 1096,
            "Ġret": 1097,
            "å¯¹": 1098,
            "cia": 1099,
            "min": 1100,
            "ida": 1101,
            "Ġwas": 1102,
            "ors": 1103,
            "Ġune": 1104,
            "akan": 1105,
            "å¾Ĺ": 1106,
            "vel": 1107,
            "æĸĩ": 1108,
            "çĤº": 1109,
            "ĠQ": 1110,
            "12": 1111,
            "éķ": 1112,
            "ublic": 1113,
            "Ġ\\": 1114,
            "Ġke": 1115,
            "Ġro": 1116,
            "Ġseg": 1117,
            "ona": 1118,
            "ĠkhÃ´ng": 1119,
            "ific": 1120,
            "åĬł": 1121,
            "Ġpe": 1122,
            "ja": 1123,
            "Ġcr": 1124,
            "åĲİ": 1125,
            "ora": 1126,
            "Â·": 1127,
            "ores": 1128,
            "èª": 1129,
            "è½": 1130,
            "alam": 1131,
            "Ġmas": 1132,
            "ĠâĢĶ": 1133,
            "urs": 1134,
            "Ġil": 1135,
            "áº¥t": 1136,
            "ence": 1137,
            "El": 1138,
            "ç®": 1139,
            "Ġver": 1140,
            "ito": 1141,
            "Æ°á»Ŀi": 1142,
            "ĠÃ": 1143,
            "Ġrec": 1144,
            "Ġhe": 1145,
            "Ġdengan": 1146,
            "Ġunt": 1147,
            "lement": 1148,
            "Ãły": 1149,
            "Âł": 1150,
            "ĠTr": 1151,
            "éŁ": 1152,
            "iqu": 1153,
            "éģĵ": 1154,
            "uh": 1155,
            "ĊĠĠĠĠ": 1156,
            "ique": 1157,
            "Ġwe": 1158,
            "åıĬ": 1159,
            "åľĭ": 1160,
            "ome": 1161,
            "ular": 1162,
            "ge": 1163,
            "Ġini": 1164,
            "za": 1165,
            "ika": 1166,
            "ĠAl": 1167,
            "Ġ|": 1168,
            "itu": 1169,
            "Ġall": 1170,
            "ĠCom": 1171,
            "åĲĮ": 1172,
            "tre": 1173,
            "ãĢĭ": 1174,
            "çĲĨ": 1175,
            "one": 1176,
            "Ã©n": 1177,
            "ãĢĬ": 1178,
            "Ġau": 1179,
            "ero": 1180,
            "::": 1181,
            "Ġ202": 1182,
            "ork": 1183,
            "vent": 1184,
            "á»Ł": 1185,
            "çĪ": 1186,
            "çŁ": 1187,
            "tring": 1188,
            "ira": 1189,
            "Ã¬nh": 1190,
            "è·": 1191,
            "Ġcu": 1192,
            "Ġact": 1193,
            "Ġval": 1194,
            "quest": 1195,
            "å·¥": 1196,
            "ish": 1197,
            "éĿ¢": 1198,
            "åģ": 1199,
            "ias": 1200,
            "ĊĠ": 1201,
            "ako": 1202,
            "è®®": 1203,
            "åĳĺ": 1204,
            "á»¯": 1205,
            "ated": 1206,
            "è¥": 1207,
            "iá»ģ": 1208,
            "çĦ": 1209,
            "iones": 1210,
            "Ġout": 1211,
            "Ġind": 1212,
            "Ġfin": 1213,
            "á»©": 1214,
            "Ġsh": 1215,
            "Ġuntuk": 1216,
            "Ġcor": 1217,
            "Ġaut": 1218,
            "Ġhas": 1219,
            "ela": 1220,
            "ber": 1221,
            "ĠrÃ©": 1222,
            "Ġmá»Ļt": 1223,
            "Ġint": 1224,
            "á»ĵ": 1225,
            "Ġwa": 1226,
            "ç¤": 1227,
            "any": 1228,
            "der": 1229,
            "åŃĹ": 1230,
            "æĸ¯": 1231,
            "æ°ĳ": 1232,
            "Ġmar": 1233,
            "Ġsi": 1234,
            "ype": 1235,
            "æĶ¿": 1236,
            "ka": 1237,
            "go": 1238,
            "è¥¿": 1239,
            "åĿ": 1240,
            "æľ¬": 1241,
            "Ġcol": 1242,
            "adi": 1243,
            "è¡¨": 1244,
            "ĠÐ": 1245,
            "ones": 1246,
            "è¢": 1247,
            "Æ°á»£c": 1248,
            "ĠâĢ¢": 1249,
            "á»¥": 1250,
            ".Ġ": 1251,
            "ava": 1252,
            "Ġesp": 1253,
            "Ġreg": 1254,
            "ĠÂ«": 1255,
            "==": 1256,
            "Ġmod": 1257,
            "000": 1258,
            "Ġmemb": 1259,
            "Ġho": 1260,
            "Ġim": 1261,
            "ale": 1262,
            "Ġou": 1263,
            "Ġdos": 1264,
            "Ġmin": 1265,
            "åĭ": 1266,
            "Ãµ": 1267,
            "ident": 1268,
            "pro": 1269,
            "cess": 1270,
            "Ġcho": 1271,
            "ele": 1272,
            "tra": 1273,
            "si": 1274,
            "do": 1275,
            "Ġset": 1276,
            "ĠnÃ£o": 1277,
            "iel": 1278,
            "çī¹": 1279,
            "ary": 1280,
            "ĠLa": 1281,
            "Ġ18": 1282,
            "ala": 1283,
            "Ġuma": 1284,
            "Ġsup": 1285,
            "inc": 1286,
            "Ġ!": 1287,
            "è°": 1288,
            "Ġentre": 1289,
            "ios": 1290,
            "va": 1291,
            "æıĲ": 1292,
            "Æ°Æ¡": 1293,
            "are": 1294,
            "no": 1295,
            "å°ı": 1296,
            "á»±": 1297,
            "ph": 1298,
            "Ġels": 1299,
            "å¦Ĥ": 1300,
            "åĲį": 1301,
            "åħ¨": 1302,
            "åīį": 1303,
            "Ġgo": 1304,
            "Ġsub": 1305,
            "åł": 1306,
            "uer": 1307,
            "ä¸İ": 1308,
            "Ð°": 1309,
            "æĢ§": 1310,
            "Ġbut": 1311,
            "iÃ¨": 1312,
            "åĬ¨": 1313,
            "obre": 1314,
            "))": 1315,
            "ĠngÆ°á»Ŀi": 1316,
            "Ġmat": 1317,
            "éĸ": 1318,
            "Ġdon": 1319,
            "La": 1320,
            "Ãłn": 1321,
            "áº¹": 1322,
            "é«ĺ": 1323,
            "****": 1324,
            "ents": 1325,
            "unc": 1326,
            "åĽł": 1327,
            "Ġdif": 1328,
            "erc": 1329,
            "Ġdari": 1330,
            "åħ³": 1331,
            "åĪ©": 1332,
            "Ġsol": 1333,
            "Ġsp": 1334,
            "è¿Ľ": 1335,
            "ĠÄĳÆ°á»£c": 1336,
            "ku": 1337,
            "ute": 1338,
            "Ġ.Ġ.Ġ.Ġ.": 1339,
            "En": 1340,
            "Ġcas": 1341,
            "åŃ¦": 1342,
            "éĩĮ": 1343,
            "ras": 1344,
            "itÃ©": 1345,
            "ç©": 1346,
            "anya": 1347,
            "ĠAr": 1348,
            "sp": 1349,
            "æŃ¤": 1350,
            "Ġgi": 1351,
            "iÃªn": 1352,
            "aya": 1353,
            "Ġrel": 1354,
            "èĤ": 1355,
            "è©": 1356,
            "18": 1357,
            "ake": 1358,
            "è¿ĩ": 1359,
            "Ġ?": 1360,
            "èĢħ": 1361,
            "åĬĽ": 1362,
            "æľĢ": 1363,
            "Ġass": 1364,
            "ena": 1365,
            "à±Ĥà°": 1366,
            "ition": 1367,
            "vo": 1368,
            "xt": 1369,
            "èĭ": 1370,
            "15": 1371,
            "Ġ12": 1372,
            "ãĢĮ": 1373,
            "Ġmais": 1374,
            "Æ°á»Ľ": 1375,
            "è¢«": 1376,
            "omb": 1377,
            "ĠlâĢĻ": 1378,
            "Ġform": 1379,
            "Ġitu": 1380,
            "éĢļ": 1381,
            "ãĢį": 1382,
            "åĮĹ": 1383,
            "Ġtrans": 1384,
            "Ġmem": 1385,
            "Ġ.Ċ": 1386,
            "ativ": 1387,
            "éĥ½": 1388,
            "áº·": 1389,
            "ser": 1390,
            "æ¡": 1391,
            "Ġnew": 1392,
            "fin": 1393,
            "çŃī": 1394,
            "Ġva": 1395,
            "ico": 1396,
            "itz": 1397,
            "ali": 1398,
            "ä»»": 1399,
            "ft": 1400,
            "{{": 1401,
            "Ġta": 1402,
            "ĠEl": 1403,
            "ĠÄĳÃ£": 1404,
            "olog": 1405,
            "rol": 1406,
            "ä¸ī": 1407,
            "man": 1408,
            "Ġbat": 1409,
            "Ã¨s": 1410,
            "Ġ&": 1411,
            "--------": 1412,
            "Ġsel": 1413,
            "éĩį": 1414,
            "Ġreturn": 1415,
            "å¥½": 1416,
            "</": 1417,
            "å¤©": 1418,
            "Ġant": 1419,
            "Ġwhich": 1420,
            "Ġ15": 1421,
            "çĶ±": 1422,
            "isa": 1423,
            "we": 1424,
            "ĠFr": 1425,
            "eth": 1426,
            "æĪĸ": 1427,
            "ga": 1428,
            "ï¼Ľ": 1429,
            "aire": 1430,
            "á»ĩ": 1431,
            "Ġpo": 1432,
            "Ġ//": 1433,
            "Ġwill": 1434,
            "idak": 1435,
            "ĊĠĠĠĠĠĠĠĠĠĠĠĠĠĠĠ": 1436,
            "Ġce": 1437,
            "Ãºn": 1438,
            "å£": 1439,
            "Ġson": 1440,
            "Ġs'": 1441,
            "ade": 1442,
            "Ċĉĉĉĉ": 1443,
            "ER": 1444,
            "æŁ": 1445,
            "orm": 1446,
            "AR": 1447,
            "inh": 1448,
            "èī": 1449,
            "val": 1450,
            "æį": 1451,
            "Æ°Æ¡ng": 1452,
            "Ġfo": 1453,
            "The": 1454,
            "çµ": 1455,
            "aria": 1456,
            "put": 1457,
            "oy": 1458,
            "å»º": 1459,
            "16": 1460,
            "ukan": 1461,
            "...Ċ": 1462,
            "è£": 1463,
            "Th": 1464,
            "ally": 1465,
            "Ġresp": 1466,
            "Ġcomm": 1467,
            "aus": 1468,
            "å¤ĸ": 1469,
            "åħ¥": 1470,
            "err": 1471,
            "åĪ¶": 1472,
            "ĠLe": 1473,
            "ikan": 1474,
            "åĮĸ": 1475,
            "Ġseb": 1476,
            "Ġget": 1477,
            "Ġcre": 1478,
            "ural": 1479,
            "æ¨": 1480,
            "Ġdire": 1481,
            "ãģ": 1482,
            "'t": 1483,
            "ĠcÃ¡c": 1484,
            "ĠEn": 1485,
            "Ġcap": 1486,
            "Ã³n": 1487,
            "å¹³": 1488,
            "Ð¾": 1489,
            "è¶": 1490,
            "ĠX": 1491,
            "ts": 1492,
            "IN": 1493,
            "ĠnÃ³": 1494,
            "Ġtrong": 1495,
            "ven": 1496,
            "âĢĶ": 1497,
            "æľŁ": 1498,
            "Ðµ": 1499,
            "ĠAn": 1500,
            "Ġmes": 1501,
            "Ġplus": 1502,
            "äºĽ": 1503,
            "ĠÂ·": 1504,
            "æĦı": 1505,
            "Ġnos": 1506,
            "Ġup": 1507,
            "é»": 1508,
            "å¼Ģ": 1509,
            "ÉĻ": 1510,
            "Ġsec": 1511,
            "uan": 1512,
            "alah": 1513,
            "åįģ": 1514,
            "æŃ£": 1515,
            "gan": 1516,
            "æľº": 1517,
            "å®ī": 1518,
            "Ġpel": 1519,
            "æĸ¼": 1520,
            "iment": 1521,
            "Ġsobre": 1522,
            "ys": 1523,
            "iew": 1524,
            "æģ": 1525,
            "ise": 1526,
            "åķ": 1527,
            "ç»ı": 1528,
            "Ġpod": 1529,
            "ä½¿": 1530,
            "gun": 1531,
            "áº£i": 1532,
            "iá»ģu": 1533,
            "its": 1534,
            "ä½Ĩ": 1535,
            "unction": 1536,
            "!Ċ": 1537,
            "ç¥": 1538,
            "Ġperson": 1539,
            "ĊĠĠĠĠĠĠĠĠĠĠĠĠĠĠĠĠ": 1540,
            "cc": 1541,
            "éŁ³": 1542,
            "Ġcar": 1543,
            "Ãµes": 1544,
            "bo": 1545,
            "ory": 1546,
            "äºĮ": 1547,
            "ĠmÃ¡s": 1548,
            "Ġaf": 1549,
            "ä½į": 1550,
            "ä»£": 1551,
            "åº¦": 1552,
            "ËĪ": 1553,
            "Ã§a": 1554,
            "ista": 1555,
            "20": 1556,
            "30": 1557,
            "Ġarr": 1558,
            "amente": 1559,
            "''": 1560,
            "ew": 1561,
            "áº§n": 1562,
            "Ġtemp": 1563,
            "ude": 1564,
            "angan": 1565,
            "set": 1566,
            "åİ»": 1567,
            "Ch": 1568,
            "ç±": 1569,
            "å¹¶": 1570,
            "åįĹ": 1571,
            "Ġsem": 1572,
            "ull": 1573,
            "ros": 1574,
            "æĺİ": 1575,
            "ument": 1576,
            "na": 1577,
            "sa": 1578,
            "ç³": 1579,
            "áº¥y": 1580,
            "ç¾İ": 1581,
            "Ġni": 1582,
            "Ġele": 1583,
            "Â»": 1584,
            "Ċĉĉĉ": 1585,
            "ema": 1586,
            "itat": 1587,
            "Ġma": 1588,
            "ock": 1589,
            "Ã¢y": 1590,
            "Ãłnh": 1591,
            "ical": 1592,
            "çİ°": 1593,
            "plic": 1594,
            "éĤ£": 1595,
            "é©": 1596,
            "ä½ĵ": 1597,
            "urr": 1598,
            "ize": 1599,
            "aut": 1600,
            "amos": 1601,
            "ĊĊĠĠĠ": 1602,
            "Ġmed": 1603,
            "14": 1604,
            "ĠâĢĵ": 1605,
            "æĻĤ": 1606,
            "Ġpass": 1607,
            "Ġvo": 1608,
            "Ġmel": 1609,
            "fic": 1610,
            "Ġpu": 1611,
            "å¿ĥ": 1612,
            "çī©": 1613,
            "ille": 1614,
            "è»": 1615,
            "èĲ": 1616,
            "ÃŃs": 1617,
            "ĠCon": 1618,
            "ãĦ": 1619,
            "ĠÄĲ": 1620,
            "adas": 1621,
            "éł": 1622,
            "ten": 1623,
            "Ð¸": 1624,
            "ese": 1625,
            "æ¬¡": 1626,
            "ible": 1627,
            "Ġba": 1628,
            "iar": 1629,
            "iá»ĩn": 1630,
            "é£": 1631,
            "ĠcÃ¡": 1632,
            "Ġdem": 1633,
            "istr": 1634,
            "ima": 1635,
            "Ġngh": 1636,
            "å¢": 1637,
            "çĽ¸": 1638,
            "yst": 1639,
            "ç«ĭ": 1640,
            "ä¿Ŀ": 1641,
            "Ġra": 1642,
            "Ġpen": 1643,
            "elle": 1644,
            "ĠSt": 1645,
            "ivers": 1646,
            "Ã©d": 1647,
            "her": 1648,
            "Æ°á»Ŀng": 1649,
            "Ġtidak": 1650,
            "ays": 1651,
            "Ġku": 1652,
            "åĢĭ": 1653,
            "èĻ": 1654,
            "ini": 1655,
            "cul": 1656,
            "åŁº": 1657,
            "Ġsoc": 1658,
            "ino": 1659,
            "è³": 1660,
            "Ġpublic": 1661,
            "atan": 1662,
            "Ġdalam": 1663,
            "çĦ¶": 1664,
            "Ġvá»Ľi": 1665,
            "Ġ20": 1666,
            "Ġez": 1667,
            "ĠZ": 1668,
            "Ġtamb": 1669,
            "ose": 1670,
            "13": 1671,
            "ants": 1672,
            "urop": 1673,
            "Ŀi": 1674,
            "oa": 1675,
            "ales": 1676,
            "Æ°á»Ľc": 1677,
            "åĮº": 1678,
            "iá»ĥ": 1679,
            ".Ġ(": 1680,
            "Ġmon": 1681,
            "ink": 1682,
            "ï¼Ł": 1683,
            "str": 1684,
            "PL": 1685,
            "ĠPar": 1686,
            "ĠPr": 1687,
            "å¥³": 1688,
            "anh": 1689,
            "åĸ": 1690,
            "å±ķ": 1691,
            "encia": 1692,
            "une": 1693,
            "Ġdia": 1694,
            "cre": 1695,
            "Ġeg": 1696,
            "ict": 1697,
            "Ġsus": 1698,
            "17": 1699,
            "éķ¿": 1700,
            "èµ·": 1701,
            "Ġu": 1702,
            "eta": 1703,
            "ior": 1704,
            "çĽ®": 1705,
            "ĩà¬": 1706,
            "ç¦": 1707,
            "éĩĳ": 1708,
            "Ġhab": 1709,
            "å¸Ĥ": 1710,
            "gu": 1711,
            "Ġcent": 1712,
            "Ġje": 1713,
            "Ġprop": 1714,
            "Ġdit": 1715,
            "ike": 1716,
            "ĠAnd": 1717,
            "iro": 1718,
            "æķĻ": 1719,
            "èĩ³": 1720,
            "oll": 1721,
            "als": 1722,
            "Ġ#": 1723,
            "Ã©t": 1724,
            "Ġiz": 1725,
            "iu": 1726,
            "da": 1727,
            "50": 1728,
            "èģĶ": 1729,
            "ĠPro": 1730,
            "Ġ@": 1731,
            "ÑĤ": 1732,
            "ĠMar": 1733,
            "ĠÃ©s": 1734,
            "Ġpada": 1735,
            "Ġtu": 1736,
            "åħĭ": 1737,
            "ĠInd": 1738,
            "éĹ´": 1739,
            "Ġpartic": 1740,
            "èŃ": 1741,
            "Ġ;": 1742,
            "éľ": 1743,
            "ey": 1744,
            "iques": 1745,
            "zen": 1746,
            "Ġclass": 1747,
            "Ġone": 1748,
            "ç¶": 1749,
            "áº¿n": 1750,
            "åĨħ": 1751,
            "app": 1752,
            "éĢĻ": 1753,
            "Ġinv": 1754,
            "PC": 1755,
            "Ġresult": 1756,
            "cept": 1757,
            "Ġbo": 1758,
            "ĠdâĢĻ": 1759,
            "Ġ14": 1760,
            "play": 1761,
            "this": 1762,
            "æĥħ": 1763,
            "ĠtÃ´i": 1764,
            "sh": 1765,
            "čĊ": 1766,
            "æµ·": 1767,
            "Ġakan": 1768,
            "ext": 1769,
            "Ġmo": 1770,
            "Ã©m": 1771,
            "asa": 1772,
            "tern": 1773,
            "ator": 1774,
            "å§Ķ": 1775,
            "æ®": 1776,
            "ied": 1777,
            "isi": 1778,
            "è¯´": 1779,
            "yle": 1780,
            "Ġyour": 1781,
            "ther": 1782,
            "Ġfil": 1783,
            "AT": 1784,
            "Ġ16": 1785,
            "Ġte": 1786,
            "Ġconf": 1787,
            "row": 1788,
            "èĬ": 1789,
            "ĠnhÆ°": 1790,
            "jo": 1791,
            "ä¾Ĩ": 1792,
            "ĠâĢĺ": 1793,
            "å°Ĩ": 1794,
            "Ġstr": 1795,
            "Ġjug": 1796,
            "ton": 1797,
            "mes": 1798,
            "å¼ı": 1799,
            "Ġvol": 1800,
            "áº§u": 1801,
            "Ġinform": 1802,
            "Ġ199": 1803,
            "Ġbu": 1804,
            "duc": 1805,
            "Ġmil": 1806,
            "Ġ17": 1807,
            "Ġmy": 1808,
            "-2": 1809,
            "Ġ_": 1810,
            "å¾Į": 1811,
            "itar": 1812,
            "Ġprim": 1813,
            "trib": 1814,
            "Ġenc": 1815,
            "Ã¡t": 1816,
            "iáº¿t": 1817,
            "ĠAs": 1818,
            "æł¼": 1819,
            "çģ": 1820,
            "æľĥ": 1821,
            "ON": 1822,
            "Ã©c": 1823,
            "ĠDe": 1824,
            "Ġll": 1825,
            "emos": 1826,
            "ador": 1827,
            "ech": 1828,
            "Ġ--": 1829,
            "å®ŀ": 1830,
            "Ġtro": 1831,
            "Ã©es": 1832,
            "éħ": 1833,
            "á»ķ": 1834,
            "æĭī": 1835,
            "own": 1836,
            "ç»Ħ": 1837,
            "Ġten": 1838,
            "æ¯Ķ": 1839,
            "ÃŃn": 1840,
            "br": 1841,
            "æŀľ": 1842,
            "çľĭ": 1843,
            "Ġcal": 1844,
            "ress": 1845,
            "Å©": 1846,
            "Ġ13": 1847,
            "ä¸ļ": 1848,
            "Ġmay": 1849,
            "ç³»": 1850,
            "Ġeste": 1851,
            "tain": 1852,
            "ild": 1853,
            "idade": 1854,
            "á¹": 1855,
            "è·¯": 1856,
            "å½ĵ": 1857,
            "be": 1858,
            "Ìģ": 1859,
            "dis": 1860,
            "çŁ¥": 1861,
            "ä¸ĸ": 1862,
            "Ãłi": 1863,
            "Ġop": 1864,
            "Al": 1865,
            "á»¯ng": 1866,
            "Ġinst": 1867,
            "eko": 1868,
            "col": 1869,
            "Ġthere": 1870,
            "Ġqu'": 1871,
            "roup": 1872,
            "____": 1873,
            "199": 1874,
            "Ġpa": 1875,
            "çı": 1876,
            "gram": 1877,
            "á»ĳi": 1878,
            "åĲĦ": 1879,
            "ä¸Ģä¸ª": 1880,
            "çĿ": 1881,
            "æ°´": 1882,
            "çł": 1883,
            "endo": 1884,
            "Ġsal": 1885,
            "å¾·": 1886,
            "hi": 1887,
            "è¿ĺ": 1888,
            "rit": 1889,
            "tp": 1890,
            "Ġ...": 1891,
            "orn": 1892,
            "mente": 1893,
            "ç¨ĭ": 1894,
            "wo": 1895,
            "æĿĳ": 1896,
            "ba": 1897,
            "Ġ{\\": 1898,
            "ĠQu": 1899,
            "áº¿t": 1900,
            "AN": 1901,
            "Ġkm": 1902,
            "ures": 1903,
            "å¸¸": 1904,
            "åºĶ": 1905,
            "Ġgener": 1906,
            "æĪĳä»¬": 1907,
            "ick": 1908,
            "Ġdep": 1909,
            "äºļ": 1910,
            "iko": 1911,
            "ĠÄĳÃ³": 1912,
            "ria": 1913,
            "æ¼": 1914,
            "text": 1915,
            "Ãłng": 1916,
            "Ġgiá»": 1917,
            "Ġimport": 1918,
            "æ¶": 1919,
            "ĠnÃły": 1920,
            "ette": 1921,
            "åı¯ä»¥": 1922,
            "éĹ®": 1923,
            "Ġdur": 1924,
            "ues": 1925,
            "Ġdec": 1926,
            "ç¼": 1927,
            "æº": 1928,
            "ear": 1929,
            "Ġn'": 1930,
            "áºŃt": 1931,
            "ç®¡": 1932,
            "åı£": 1933,
            "Ð½": 1934,
            "Ġbar": 1935,
            "ean": 1936,
            "Ġir": 1937,
            "ĠAm": 1938,
            "å·²": 1939,
            "Ãºng": 1940,
            "ä¹Ī": 1941,
            "æ·": 1942,
            "æķ°": 1943,
            "ates": 1944,
            "ano": 1945,
            "aw": 1946,
            "åĬ©": 1947,
            "ĠÃ¡": 1948,
            "ID": 1949,
            "ution": 1950,
            "ç§į": 1951,
            "crip": 1952,
            "St": 1953,
            "ES": 1954,
            "fo": 1955,
            "Ġut": 1956,
            "Ġwork": 1957,
            "Ġreal": 1958,
            "atal": 1959,
            ").Ċ": 1960,
            "Ġany": 1961,
            "leg": 1962,
            "25": 1963,
            "åĬ¡": 1964,
            "Äĥm": 1965,
            "Ġhor": 1966,
            "dit": 1967,
            "ative": 1968,
            "æĵ": 1969,
            "tu": 1970,
            "Ġseu": 1971,
            "erv": 1972,
            "Con": 1973,
            "Ġá»Ł": 1974,
            "-se": 1975,
            "åħ±": 1976,
            "ield": 1977,
            "åİŁ": 1978,
            "uen": 1979,
            "Ġavec": 1980,
            "å±±": 1981,
            "å¾Ī": 1982,
            "har": 1983,
            "Ġwo": 1984,
            "Ġbl": 1985,
            "æ²¡": 1986,
            "§à§": 1987,
            "erg": 1988,
            "Ġdir": 1989,
            "é¢ĺ": 1990,
            "áºŃn": 1991,
            "ater": 1992,
            "á»Ń": 1993,
            "let": 1994,
            "ĠJPL": 1995,
            "ĠMPC": 1996,
            "ĠEst": 1997,
            "ree": 1998,
            "ä¿¡": 1999,
            "ato": 2000,
            "Ġuse": 2001,
            "Ġnum": 2002,
            "lect": 2003,
            "pa": 2004,
            "Ġnous": 2005,
            "Ġconc": 2006,
            "åı°": 2007,
            "ange": 2008,
            "á»įn": 2009,
            "çĹ": 2010,
            "ä»¶": 2011,
            "èĳ": 2012,
            "çº¦": 2013,
            "ĊĠĠĠĠĠ": 2014,
            "åŃ¸": 2015,
            "Ġdef": 2016,
            "åıĹ": 2017,
            "antes": 2018,
            "éĿŀ": 2019,
            "ÑĢ": 2020,
            "Ġacc": 2021,
            "Ġtá»«": 2022,
            "Ġvous": 2023,
            "Ġmenj": 2024,
            "ç¤¾": 2025,
            "A:": 2026,
            "Ġprov": 2027,
            "åĲĳ": 2028,
            "Ġloc": 2029,
            "ider": 2030,
            "áº½": 2031,
            "è²": 2032,
            "Ġserv": 2033,
            "uct": 2034,
            "che": 2035,
            "Ã§Ãµes": 2036,
            "Ġfal": 2037,
            "ank": 2038,
            "èİ": 2039,
            "å°Ķ": 2040,
            "Ñģ": 2041,
            "Ġvá»ģ": 2042,
            "apat": 2043,
            "Ġ11": 2044,
            "ustr": 2045,
            "åıª": 2046,
            "Ġdata": 2047,
            "æīĭ": 2048,
            "ades": 2049,
            "ĠÂ»": 2050,
            "ç§ĳ": 2051,
            "irst": 2052,
            "ĠÄĳá»ĥ": 2053,
            "ense": 2054,
            "Ġtot": 2055,
            "Ġbr": 2056,
            "á»Ļi": 2057,
            "/200": 2058,
            "li": 2059,
            "ĠÃ©t": 2060,
            "åĨ³": 2061,
            "èį": 2062,
            "è§£": 2063,
            "pert": 2064,
            "Ġfunction": 2065,
            "åºľ": 2066,
            "Ġdels": 2067,
            "Ġposs": 2068,
            "24": 2069,
            "Ġtod": 2070,
            "æ¡Ī": 2071,
            "Ġ=>": 2072,
            "Ġnhá»¯ng": 2073,
            "Ä©": 2074,
            "Ġchá»": 2075,
            "åĳĬ": 2076,
            "Ã¨n": 2077,
            "Un": 2078,
            "ĠaÃ±": 2079,
            "af": 2080,
            "æĬ¥": 2081,
            "ĠWik": 2082,
            "Ġconst": 2083,
            "æĮģ": 2084,
            "è¯¥": 2085,
            "ote": 2086,
            "Ġak": 2087,
            "Ġur": 2088,
            "ires": 2089,
            "áº£n": 2090,
            "ateg": 2091,
            "Ġrest": 2092,
            "ĠtÃŃ": 2093,
            "äº¤": 2094,
            "æĥ³": 2095,
            "ane": 2096,
            "Ġ2021": 2097,
            "ĠRe": 2098,
            "æĽ´": 2099,
            "æİ¥": 2100,
            "una": 2101,
            "Ġfam": 2102,
            "Ġtah": 2103,
            "uest": 2104,
            "Ġbel": 2105,
            "vol": 2106,
            "Ġwere": 2107,
            "ani": 2108,
            "aÃ§Ã£o": 2109,
            "{\\": 2110,
            "idos": 2111,
            "ils": 2112,
            "Ġins": 2113,
            "Ġrem": 2114,
            "ivo": 2115,
            "éĩı": 2116,
            "Ġao": 2117,
            "ource": 2118,
            "bl": 2119,
            "æĿĥ": 2120,
            "á»ĳng": 2121,
            "entes": 2122,
            "ebut": 2123,
            "Ġsont": 2124,
            "å·¥ä½ľ": 2125,
            "Ġmer": 2126,
            "ages": 2127,
            "áº±": 2128,
            "ĠestÃ¡": 2129,
            "ole": 2130,
            "ĠIt": 2131,
            "ç¡": 2132,
            "ings": 2133,
            "åĽŀ": 2134,
            "']": 2135,
            "áº¡n": 2136,
            "Ã³Ì£": 2137,
            "Ġ30": 2138,
            "Ġmore": 2139,
            "ĠlÃłm": 2140,
            "ystem": 2141,
            "Ġvi": 2142,
            "ati": 2143,
            "Ġincl": 2144,
            "Ġsin": 2145,
            "åħĥ": 2146,
            "çĸ": 2147,
            "anto": 2148,
            "Ġneg": 2149,
            "á»£": 2150,
            "ror": 2151,
            "Tr": 2152,
            "Ġaux": 2153,
            "EN": 2154,
            "èĪĩ": 2155,
            "åĪ«": 2156,
            "Ġdest": 2157,
            "iki": 2158,
            "Ġhá»į": 2159,
            "itt": 2160,
            "ces": 2161,
            "iento": 2162,
            "cript": 2163,
            "Ġsho": 2164,
            "acional": 2165,
            "æ´»": 2166,
            "pon": 2167,
            "Ġti": 2168,
            "Ġhi": 2169,
            "åĽ½å®¶": 2170,
            "§à¥": 2171,
            "åı¸": 2172,
            "ash": 2173,
            "ĠâĪ": 2174,
            "aka": 2175,
            "atch": 2176,
            "ĠmÃł": 2177,
            "led": 2178,
            "ĠÄĳáº¿n": 2179,
            "çĤ¹": 2180,
            "ely": 2181,
            "èº": 2182,
            "á»ı": 2183,
            "æĮĩ": 2184,
            "abil": 2185,
            "Ġfa": 2186,
            "èµĦ": 2187,
            "ours": 2188,
            "å®ĺ": 2189,
            "åħĪ": 2190,
            "Ã²n": 2191,
            "åĽĽ": 2192,
            "ĠPh": 2193,
            "Ġmeny": 2194,
            "....": 2195,
            "Ġve": 2196,
            "á¹£": 2197,
            "Ġfl": 2198,
            "vern": 2199,
            "åıĸ": 2200,
            "cho": 2201,
            "32": 2202,
            "å½¢": 2203,
            "Ex": 2204,
            "Ġwhen": 2205,
            "reg": 2206,
            "Ġdev": 2207,
            "Ã¹ng": 2208,
            "æ²»": 2209,
            "Ġlike": 2210,
            "aran": 2211,
            "åĤ": 2212,
            "ital": 2213,
            "unic": 2214,
            "Ġláº¡i": 2215,
            "Ġwould": 2216,
            "ren": 2217,
            "è®¾": 2218,
            "aciones": 2219,
            "æ¥": 2220,
            "anda": 2221,
            "á»Ļng": 2222,
            "\">": 2223,
            "Ġthey": 2224,
            "iri": 2225,
            "Ġvis": 2226,
            "ye": 2227,
            "ner": 2228,
            "Ġhan": 2229,
            "Ġmet": 2230,
            "arc": 2231,
            "Ġata": 2232,
            "##": 2233,
            "name": 2234,
            "Com": 2235,
            "è®¡": 2236,
            "style": 2237,
            "uel": 2238,
            "Ġ25": 2239,
            "old": 2240,
            "ĠEs": 2241,
            "gal": 2242,
            "Ġfe": 2243,
            "Ġtak": 2244,
            "fl": 2245,
            "Ġprodu": 2246,
            "Ġsome": 2247,
            "iÃ¨re": 2248,
            "éĻ¢": 2249,
            "ario": 2250,
            "Ġjuga": 2251,
            "âĢĵ": 2252,
            "tes": 2253,
            "Ġthá»ĥ": 2254,
            "Ġaquest": 2255,
            "å¡": 2256,
            "åĦ": 2257,
            "åĮħ": 2258,
            "Ġpresent": 2259,
            "ĠàŃ": 2260,
            "-l": 2261,
            "å·ŀ": 2262,
            "ĠÄĳá»ĭ": 2263,
            "á»©c": 2264,
            "Ã¡ng": 2265,
            "://": 2266,
            "á»ĳc": 2267,
            "æ¸¯": 2268,
            "ula": 2269,
            "çĶµ": 2270,
            "22": 2271,
            "Ġsc": 2272,
            "Pro": 2273,
            "gi": 2274,
            "Ġbet": 2275,
            "çİĭ": 2276,
            "var": 2277,
            "ld": 2278,
            "jet": 2279,
            "Ġjust": 2280,
            "aga": 2281,
            "æ¢": 2282,
            "Ar": 2283,
            "ĠvÃło": 2284,
            "tres": 2285,
            "å£«": 2286,
            "ĠIl": 2287,
            "/0": 2288,
            "elah": 2289,
            "ational": 2290,
            "å®ĥ": 2291,
            "po": 2292,
            "åĢĳ": 2293,
            "Ġsing": 2294,
            "Ġother": 2295,
            "ĠĠĠĠĠ": 2296,
            "hor": 2297,
            "Ġhar": 2298,
            "ler": 2299,
            "atic": 2300,
            "80": 2301,
            "é¡¹": 2302,
            "ea": 2303,
            "Ġintern": 2304,
            "åģļ": 2305,
            "Ġshould": 2306,
            "Ġlib": 2307,
            "ĠÎ": 2308,
            "sel": 2309,
            "Ã¼": 2310,
            "Ġ24": 2311,
            "ĠmÃ©s": 2312,
            "é©¬": 2313,
            "oment": 2314,
            "display": 2315,
            "Ġhav": 2316,
            "Ġneed": 2317,
            "ĠnÃ³i": 2318,
            "Æ¡n": 2319,
            "å¥¹": 2320,
            "Ġgrand": 2321,
            "Ġpeng": 2322,
            "á»ģ": 2323,
            "oh": 2324,
            "æłĩ": 2325,
            "å¸ĥ": 2326,
            "Ġperm": 2327,
            "empl": 2328,
            "eck": 2329,
            "á»ĵi": 2330,
            "Ã¢u": 2331,
            "Ġdas": 2332,
            "Ãło": 2333,
            "ç²": 2334,
            "Ġzen": 2335,
            "Ġsent": 2336,
            "ami": 2337,
            "Ġequ": 2338,
            "äº§": 2339,
            "Ġera": 2340,
            "Ġters": 2341,
            "ĠÄĳi": 2342,
            "incip": 2343,
            "uar": 2344,
            "éĻħ": 2345,
            "Ġprof": 2346,
            "åĨĽ": 2347,
            "Ġalso": 2348,
            "Ġ23": 2349,
            "Ġses": 2350,
            "by": 2351,
            "Æ°a": 2352,
            "Ġkn": 2353,
            "ĠPer": 2354,
            "èº«": 2355,
            "æĶ¹": 2356,
            "Ġover": 2357,
            "ene": 2358,
            "********": 2359,
            "æĿ¡": 2360,
            "Ġcáº£": 2361,
            "åł±": 2362,
            "Ġmill": 2363,
            "ender": 2364,
            "ww": 2365,
            "ä¹¦": 2366,
            "ection": 2367,
            "é¦Ļ": 2368,
            "Ġpháº£i": 2369,
            "Ġhum": 2370,
            "ti": 2371,
            "Ġsign": 2372,
            "Ġeff": 2373,
            "Ġbisa": 2374,
            "Ġ.Ġ.Ġ.Ġ.Ġ.Ġ.Ġ.Ġ.": 2375,
            "II": 2376,
            "ahan": 2377,
            "Ġtime": 2378,
            "æ»": 2379,
            "åĵģ": 2380,
            "ger": 2381,
            "ann": 2382,
            "Ġadd": 2383,
            "Ġend": 2384,
            "OR": 2385,
            "ismo": 2386,
            "uj": 2387,
            "60": 2388,
            "IB": 2389,
            "Ġqual": 2390,
            "tim": 2391,
            "èĦ": 2392,
            "ici": 2393,
            "èĭ±": 2394,
            "ao": 2395,
            "Ġ==": 2396,
            "ÉĶ": 2397,
            "Ġsim": 2398,
            "Ġorgan": 2399,
            "å²": 2400,
            "23": 2401,
            "Å©ng": 2402,
            "ÃŃtic": 2403,
            "It": 2404,
            "éĹ®é¢ĺ": 2405,
            "ç·": 2406,
            "æĶ¯": 2407,
            "yo": 2408,
            "Ġanh": 2409,
            "çĲĥ": 2410,
            "iáº¿n": 2411,
            "å¤Ħ": 2412,
            "undo": 2413,
            "IT": 2414,
            "Ġ2020": 2415,
            "Ġdoc": 2416,
            "å°ĳ": 2417,
            "ä¾Ľ": 2418,
            "Re": 2419,
            "ä»İ": 2420,
            "red": 2421,
            "apa": 2422,
            "è¨Ģ": 2423,
            "ĠSe": 2424,
            "ĠAd": 2425,
            "40": 2426,
            "Ġkhi": 2427,
            "aux": 2428,
            "çķĮ": 2429,
            "Ġaqu": 2430,
            "Ġid": 2431,
            "['": 2432,
            "Ġprot": 2433,
            "Ġada": 2434,
            "ron": 2435,
            "ibil": 2436,
            "å§Ķåĳĺ": 2437,
            "ÌĢ": 2438,
            "Ġwhat": 2439,
            "Ġproble": 2440,
            "oto": 2441,
            "å½±": 2442,
            "å¤ª": 2443,
            "aba": 2444,
            "orte": 2445,
            "è§Ħ": 2446,
            "ago": 2447,
            "leh": 2448,
            "çĽ´": 2449,
            "aron": 2450,
            "ms": 2451,
            "ä½ķ": 2452,
            "æ£": 2453,
            "Ã©l": 2454,
            "æĹł": 2455,
            "yn": 2456,
            "ule": 2457,
            "iren": 2458,
            "pect": 2459,
            "Ãºb": 2460,
            "åĥ": 2461,
            "ST": 2462,
            "èı": 2463,
            "æ³¨": 2464,
            "api": 2465,
            "å·´": 2466,
            "Ġfinal": 2467,
            "ereka": 2468,
            "Ġ%": 2469,
            "velop": 2470,
            "Ġabout": 2471,
            "ĠcÃ´ng": 2472,
            "Ġvers": 2473,
            "ember": 2474,
            "Ġquy": 2475,
            "idades": 2476,
            "ãĤ": 2477,
            "æį®": 2478,
            "åĩĨ": 2479,
            "çĻ¼": 2480,
            "ĠPl": 2481,
            "Ġsáº½": 2482,
            "çĥ": 2483,
            "====": 2484,
            "Ġcontr": 2485,
            "vers": 2486,
            "ca": 2487,
            "ĠGr": 2488,
            "Ãªu": 2489,
            "iter": 2490,
            "Le": 2491,
            "èī²": 2492,
            "els": 2493,
            "Ã²ng": 2494,
            "ci": 2495,
            "æ©": 2496,
            "Ad": 2497,
            "æīĵ": 2498,
            "Ġself": 2499,
            "umb": 2500,
            "aph": 2501,
            "iga": 2502,
            "ĠnÄĥm": 2503,
            "åŁİ": 2504,
            "éĶ": 2505,
            "displaystyle": 2506,
            "Ġtrab": 2507,
            "å¨": 2508,
            "Ġthu": 2509,
            "Ġprogram": 2510,
            "Name": 2511,
            "ola": 2512,
            "As": 2513,
            "oria": 2514,
            "Ġbas": 2515,
            "agai": 2516,
            "ili": 2517,
            "ml": 2518,
            "ĊĠĠĠĠĠĠĠĠĠĠĠĠĠĠĠĠĠĠĠ": 2519,
            "ä»Ģ": 2520,
            "-s": 2521,
            "dex": 2522,
            "ethod": 2523,
            "Ġcontin": 2524,
            "Ġquan": 2525,
            "ĠEurop": 2526,
            "Ġprincip": 2527,
            "çĩ": 2528,
            "åĪĹ": 2529,
            "Ãªtre": 2530,
            "ĠpaÃŃs": 2531,
            "éľĢ": 2532,
            "Ġinto": 2533,
            "este": 2534,
            "inta": 2535,
            "27": 2536,
            "åĻ": 2537,
            "ald": 2538,
            "add": 2539,
            "èĮ": 2540,
            "ause": 2541,
            "æĶ¿åºľ": 2542,
            "Ġ{\\displaystyle": 2543,
            "äºĶ": 2544,
            "Ġesc": 2545,
            "read": 2546,
            "áº±ng": 2547,
            "35": 2548,
            "Ġsom": 2549,
            "åı·": 2550,
            "Ġesta": 2551,
            "ÉĽ": 2552,
            "ä¸¤": 2553,
            "ĊĊĠĠĠĠĠĠĠ": 2554,
            "AL": 2555,
            "-m": 2556,
            "Ġsud": 2557,
            "åıĪ": 2558,
            "onesia": 2559,
            "ij": 2560,
            "Ġsocial": 2561,
            "ä¸ľ": 2562,
            "'est": 2563,
            "Ġadalah": 2564,
            "è«": 2565,
            "Ġits": 2566,
            "aja": 2567,
            "á»Ļc": 2568,
            "æĶ¾": 2569,
            "BB": 2570,
            "Äĥng": 2571,
            "Ġbeen": 2572,
            "Ġtáº¡i": 2573,
            "zi": 2574,
            "Es": 2575,
            "è¯Ń": 2576,
            "åŀ": 2577,
            "anj": 2578,
            "Ġdirect": 2579,
            "Ã¢m": 2580,
            "ç»Ł": 2581,
            "å§Ķåĳĺä¼ļ": 2582,
            "åįĢ": 2583,
            "Ġing": 2584,
            "Ġsek": 2585,
            "Ġonly": 2586,
            "pend": 2587,
            "æł·": 2588,
            "Ġtheir": 2589,
            "Ġher": 2590,
            "]]": 2591,
            "ç¸": 2592,
            "Ġkep": 2593,
            "Ãºblic": 2594,
            "Ġthen": 2595,
            "æĪĺ": 2596,
            "ission": 2597,
            "èªŀ": 2598,
            "éĺ¿": 2599,
            "Ġdip": 2600,
            "é¦ĸ": 2601,
            "Ġden": 2602,
            "of": 2603,
            "Ġlong": 2604,
            "Ġlá»": 2605,
            "æŁ¥": 2606,
            "Ġder": 2607,
            "æ±Ĥ": 2608,
            "Ġatau": 2609,
            "çĭ": 2610,
            "rem": 2611,
            "Ġpem": 2612,
            "oci": 2613,
            "ll": 2614,
            "uta": 2615,
            "De": 2616,
            "Ġpoint": 2617,
            "edia": 2618,
            "å°¼": 2619,
            "åĨį": 2620,
            "Ġnec": 2621,
            "ature": 2622,
            "Ġkwa": 2623,
            "Ġhad": 2624,
            "áºŃp": 2625,
            "Ġhis": 2626,
            "ines": 2627,
            "eter": 2628,
            "æĬĬ": 2629,
            "-19": 2630,
            "åĶ": 2631,
            "è±": 2632,
            "å§ĭ": 2633,
            "ç¤º": 2634,
            "Ã´n": 2635,
            "ĠmÃ¡": 2636,
            "iá»ĩc": 2637,
            "aÃ±": 2638,
            "Ġvalue": 2639,
            "fe": 2640,
            "kat": 2641,
            "26": 2642,
            "Ġpat": 2643,
            "Ãī": 2644,
            "Ġquest": 2645,
            "Ġhay": 2646,
            "oth": 2647,
            "Ġbien": 2648,
            "String": 2649,
            "åıį": 2650,
            "_t": 2651,
            "Ġtal": 2652,
            "ĠThis": 2653,
            "45": 2654,
            "iá»ĩt": 2655,
            "Ġfut": 2656,
            "Ð¾Ð": 2657,
            "Ġmend": 2658,
            "Ġtout": 2659,
            "vis": 2660,
            "Ġnom": 2661,
            "éĴ": 2662,
            "28": 2663,
            "ÃŃnh": 2664,
            "ä¸ŃåĽ½": 2665,
            "ecial": 2666,
            "Ġmal": 2667,
            "ĠNo": 2668,
            "itas": 2669,
            "áº©": 2670,
            "áº«": 2671,
            "Ġusing": 2672,
            "Ġ*/": 2673,
            "lex": 2674,
            "unya": 2675,
            "iva": 2676,
            "éº": 2677,
            "ĠNg": 2678,
            "import": 2679,
            "Ġhist": 2680,
            "Ã©g": 2681,
            "Ġci": 2682,
            "ubl": 2683,
            "æ¹": 2684,
            "ä¼ļè®®": 2685,
            "Ġbá»ĭ": 2686,
            "eri": 2687,
            "ics": 2688,
            "33": 2689,
            "gap": 2690,
            "Ãªm": 2691,
            "ĠcÅ©ng": 2692,
            "ĊĠĠĠĠĠĠĠĠĠĠĠĠĠĠĠĠĠĠĠĠĠĠĠĠ": 2693,
            "idas": 2694,
            "Ġfirst": 2695,
            "akar": 2696,
            "Ġziren": 2697,
            "Ġsitu": 2698,
            "use": 2699,
            "ĠComm": 2700,
            "Ġmot": 2701,
            "Ġbah": 2702,
            "ç¿": 2703,
            "ry": 2704,
            "Ġlog": 2705,
            "Ġart": 2706,
            "igh": 2707,
            "-b": 2708,
            "press": 2709,
            "29": 2710,
            "è®¤": 2711,
            "æĶ¶": 2712,
            "Ġd'un": 2713,
            "Ġont": 2714,
            "quer": 2715,
            "éĹ¨": 2716,
            "iste": 2717,
            "inal": 2718,
            "æµģ": 2719,
            "Id": 2720,
            "Ġfile": 2721,
            "Ġtest": 2722,
            "ç»ĵ": 2723,
            "åķĨ": 2724,
            "elles": 2725,
            "ĠÃ¬": 2726,
            "Ã¡i": 2727,
            "çĬ": 2728,
            "amento": 2729,
            "iak": 2730,
            "Ġbec": 2731,
            "incl": 2732,
            "ĠIs": 2733,
            "Ġfait": 2734,
            "æĴ": 2735,
            "Ġwant": 2736,
            "xim": 2737,
            "anÃ§": 2738,
            "åĽ½éĻħ": 2739,
            "Ġcette": 2740,
            "Ã½": 2741,
            "è½¦": 2742,
            "this->": 2743,
            "oss": 2744,
            "áº·c": 2745,
            "Ġname": 2746,
            "ke": 2747,
            "Ġinc": 2748,
            "SE": 2749,
            "Ġactiv": 2750,
            "å°į": 2751,
            "Ġcond": 2752,
            "aur": 2753,
            "je": 2754,
            "Ġobject": 2755,
            "ĠIndonesia": 2756,
            "Ġthem": 2757,
            "land": 2758,
            "Æ¡i": 2759,
            "Ã©Ì£": 2760,
            "è°ĥ": 2761,
            "èģ¯": 2762,
            "'m": 2763,
            "wan": 2764,
            "hat": 2765,
            "etan": 2766,
            "ets": 2767,
            "jar": 2768,
            "Ġfer": 2769,
            "çĿĢ": 2770,
            "----------------": 2771,
            "Ãºc": 2772,
            "yp": 2773,
            "ĠGo": 2774,
            "Ġnon": 2775,
            "ï¼ģ": 2776,
            "embre": 2777,
            "Ġdom": 2778,
            "ÄĲ": 2779,
            "Ġsab": 2780,
            "Ġtwo": 2781,
            "Ġchá»ī": 2782,
            "æ²¡æľī": 2783,
            "ç±³": 2784,
            "arena": 2785,
            "21": 2786,
            "æľį": 2787,
            "irm": 2788,
            "Ġorang": 2789,
            "ĠEx": 2790,
            "opt": 2791,
            "idente": 2792,
            "Ġcomme": 2793,
            "Ġtype": 2794,
            "æľª": 2795,
            "Ġsá»±": 2796,
            "Ġparticip": 2797,
            "åıĳå±ķ": 2798,
            "ç©º": 2799,
            "vi": 2800,
            "esar": 2801,
            "fa": 2802,
            "éģİ": 2803,
            "Ã¨Ì£": 2804,
            "åľº": 2805,
            "Ġtersebut": 2806,
            "ques": 2807,
            "Ã¨re": 2808,
            "ä»Ĭ": 2809,
            "Ġhom": 2810,
            "ating": 2811,
            "ĠngÃły": 2812,
            "ĠCar": 2813,
            ";;": 2814,
            "èģĶåĲĪ": 2815,
            "_s": 2816,
            "çľŁ": 2817,
            "-1": 2818,
            "ames": 2819,
            "Q:": 2820,
            "imes": 2821,
            "Ġhow": 2822,
            "RE": 2823,
            "mp": 2824,
            "ĠÃ©tÃ©": 2825,
            "èªª": 2826,
            "Ġhel": 2827,
            "oug": 2828,
            "Ġcer": 2829,
            "Ġay": 2830,
            "èĢģ": 2831,
            "çĻ½": 2832,
            "ä»¥åıĬ": 2833,
            "ĠSp": 2834,
            "uko": 2835,
            "Ġviá»ĩc": 2836,
            "Ġ26": 2837,
            "æ¯ı": 2838,
            "æħ": 2839,
            "åį³": 2840,
            "æĢ»": 2841,
            "çħ": 2842,
            "ĠdÃ©c": 2843,
            "self": 2844,
            "urrent": 2845,
            "Ġang": 2846,
            "ric": 2847,
            "return": 2848,
            "èĳĹ": 2849,
            "åĻ¨": 2850,
            "å·±": 2851,
            "ows": 2852,
            "70": 2853,
            "FF": 2854,
            "0000": 2855,
            "å¼º": 2856,
            "Ġtre": 2857,
            "ç¢": 2858,
            "Ġtiáº¿": 2859,
            "Ġforma": 2860,
            "Ġdeb": 2861,
            "æł¹": 2862,
            "è»į": 2863,
            "fore": 2864,
            "Ġ2019": 2865,
            "mas": 2866,
            "55": 2867,
            "éĢī": 2868,
            "ĠÄĳá»ĭnh": 2869,
            "An": 2870,
            "Ġtahun": 2871,
            "å¿ħ": 2872,
            "Ġcontra": 2873,
            "lar": 2874,
            "ume": 2875,
            "nes": 2876,
            "ciÃ³n": 2877,
            "ump": 2878,
            "ector": 2879,
            "ĠÃī": 2880,
            "Ġ21": 2881,
            "ugh": 2882,
            "ĠthÃ¬": 2883,
            "éĽĨ": 2884,
            "åĳ½": 2885,
            "Ġgu": 2886,
            "essage": 2887,
            "igo": 2888,
            "-d": 2889,
            "æĤ": 2890,
            "Ġkat": 2891,
            "æĸ½": 2892,
            "Ġpriv": 2893,
            "Ġpued": 2894,
            "LE": 2895,
            "son": 2896,
            "oir": 2897,
            "è¼": 2898,
            "éĸĭ": 2899,
            "Ãºl": 2900,
            "Ġatt": 2901,
            "ĠÃ´ng": 2902,
            "Ġ28": 2903,
            "æĦŁ": 2904,
            "IC": 2905,
            "Ġport": 2906,
            "por": 2907,
            "Ġgia": 2908,
            "Ġmain": 2909,
            "æ¸ħ": 2910,
            "Ġmenjadi": 2911,
            "adores": 2912,
            "64": 2913,
            "ĠOr": 2914,
            "Ġpot": 2915,
            "æŀĹ": 2916,
            "åĽ¢": 2917,
            "Ġnue": 2918,
            "è©±": 2919,
            "é¦Ļæ¸¯": 2920,
            "ĠnhÃł": 2921,
            "Ġgl": 2922,
            "Ã¡ch": 2923,
            ")Ġ(": 2924,
            "No": 2925,
            "Ġhand": 2926,
            "ĠtrÃªn": 2927,
            "ader": 2928,
            "())": 2929,
            "éĵ": 2930,
            "etik": 2931,
            "hen": 2932,
            "Ġmá»": 2933,
            "Ġ>": 2934,
            "39": 2935,
            "è¾¾": 2936,
            "Ġtem": 2937,
            "ount": 2938,
            "rom": 2939,
            "Ġ100": 2940,
            "Ġbiáº¿t": 2941,
            "Ã¡p": 2942,
            "æĿ±": 2943,
            "-0": 2944,
            "Ġthan": 2945,
            "áº¯t": 2946,
            "ral": 2947,
            "Ġprom": 2948,
            "Ġmoment": 2949,
            "âĢ¦": 2950,
            "ves": 2951,
            "ä¸Ķ": 2952,
            "Äģ": 2953,
            "Ġoleh": 2954,
            "AC": 2955,
            "ze": 2956,
            "osa": 2957,
            "éª": 2958,
            "iver": 2959,
            "Ġ50": 2960,
            "iÃ©n": 2961,
            "ĠthÃłnh": 2962,
            "ãĥ": 2963,
            "Ġdr": 2964,
            "æºĲ": 2965,
            "Ġdim": 2966,
            "ĠLes": 2967,
            "åħ¶ä»ĸ": 2968,
            "éĢł": 2969,
            "ï¼ļãĢĮ": 2970,
            "Ġmi": 2971,
            "lah": 2972,
            "List": 2973,
            "ĠÄĳáº§u": 2974,
            "cal": 2975,
            "eu": 2976,
            "ä¹ī": 2977,
            "ĠchÃºng": 2978,
            "Ġelse": 2979,
            "å®Į": 2980,
            "Ġutil": 2981,
            "OM": 2982,
            "ï»": 2983,
            "ki": 2984,
            "á»ĳn": 2985,
            "Ġdro": 2986,
            "Ġdist": 2987,
            "Ġmereka": 2988,
            "Ġcode": 2989,
            "-t": 2990,
            "akukan": 2991,
            "ail": 2992,
            "org": 2993,
            "round": 2994,
            "Ã¡r": 2995,
            "uss": 2996,
            "Ġgar": 2997,
            "åįı": 2998,
            "uro": 2999,
            "éķ·": 3000,
            "Ã²Ì£": 3001,
            "ample": 3002,
            "div": 3003,
            "ç»ĩ": 3004,
            "han": 3005,
            "mon": 3006,
            "78": 3007,
            "Ġdisc": 3008,
            "Ġparte": 3009,
            "åħ·": 3010,
            "Ġfamil": 3011,
            "include": 3012,
            "è®°": 3013,
            "bih": 3014,
            "çĹħ": 3015,
            "\":": 3016,
            "ks": 3017,
            "men": 3018,
            "uat": 3019,
            "Val": 3020,
            "arÃ¡": 3021,
            "Ġprocess": 3022,
            "Ã¯": 3023,
            "å±Ģ": 3024,
            "Ġfoi": 3025,
            "ĠPol": 3026,
            "Ġ2018": 3027,
            "Ã³r": 3028,
            "Ġref": 3029,
            "Ġcase": 3030,
            "Ġkata": 3031,
            "Ġeu": 3032,
            "ĠÄĳá»ĵ": 3033,
            "Ġknow": 3034,
            "right": 3035,
            "Ġpop": 3036,
            "kin": 3037,
            "åĭķ": 3038,
            "Ġpolit": 3039,
            "å°ĩ": 3040,
            "èħ": 3041,
            "éĻ¤": 3042,
            "Ð»": 3043,
            "ĠpolÃŃtic": 3044,
            "æĬĢ": 3045,
            "AM": 3046,
            "Ġconstr": 3047,
            "zo": 3048,
            "ĠÅ": 3049,
            "enta": 3050,
            "Ġed": 3051,
            "ä»ĸä»¬": 3052,
            "æĭ¬": 3053,
            "ĠnÃŃ": 3054,
            "aix": 3055,
            "inya": 3056,
            "ç»Ļ": 3057,
            "é«Ķ": 3058,
            "èĩªå·±": 3059,
            "Ġ22": 3060,
            "ices": 3061,
            "è»Ĭ": 3062,
            "Ġsen": 3063,
            "ĠnhÃ¢n": 3064,
            "Ġ||": 3065,
            "èĹ": 3066,
            "Ġjour": 3067,
            "ĠnÆ°á»Ľc": 3068,
            "å¤«": 3069,
            "////": 3070,
            "Ãªs": 3071,
            "åŀĭ": 3072,
            "Ġpero": 3073,
            "ush": 3074,
            "ception": 3075,
            "Ġoper": 3076,
            "ç¡®": 3077,
            "Ã¡o": 3078,
            "è¿Ĳ": 3079,
            "uda": 3080,
            "rec": 3081,
            "log": 3082,
            "mb": 3083,
            "data": 3084,
            "los": 3085,
            "Ġright": 3086,
            "æŃ»": 3087,
            "è§ģ": 3088,
            "enda": 3089,
            "Ġsang": 3090,
            "Ġpert": 3091,
            "vert": 3092,
            "çĪ¾": 3093,
            "Ġik": 3094,
            "Ġtheo": 3095,
            "Ġá»į": 3096,
            "æļ": 3097,
            "99": 3098,
            "æıĲä¾Ľ": 3099,
            "udi": 3100,
            "ç«Ļ": 3101,
            "ä¾¿": 3102,
            "æķ¸": 3103,
            "Ġ?Ċ": 3104,
            "ĠSo": 3105,
            "eneral": 3106,
            "uyá»ĩ": 3107,
            "Ġdiffer": 3108,
            "tait": 3109,
            "line": 3110,
            "Ãªme": 3111,
            "é¦¬": 3112,
            "Ã¤": 3113,
            "çķ¶": 3114,
            "Ġthá»©": 3115,
            "Ġprec": 3116,
            "ç¥ŀ": 3117,
            "åĦ¿": 3118,
            "Ġà¥§à¥": 3119,
            "Ġarg": 3120,
            "á»ģn": 3121,
            "ministr": 3122,
            "aram": 3123,
            "ç»Ħç»ĩ": 3124,
            "ars": 3125,
            "Ġkita": 3126,
            "Ġproc": 3127,
            "Ġvez": 3128,
            ".,": 3129,
            "ttp": 3130,
            "ä½¿çĶ¨": 3131,
            "Ġlu": 3132,
            "38": 3133,
            "Ġsudah": 3134,
            "Ãĥ": 3135,
            "ĠPres": 3136,
            "Ġwhere": 3137,
            "des": 3138,
            "Ġpet": 3139,
            "arn": 3140,
            "çľģ": 3141,
            "åŁŁ": 3142,
            "AS": 3143,
            "Ġtien": 3144,
            "Ġhac": 3145,
            "åįķ": 3146,
            "36": 3147,
            "æŀĦ": 3148,
            "Ġdoes": 3149,
            "ĠSh": 3150,
            "åĮħæĭ¬": 3151,
            "åĪĻ": 3152,
            "çłĶ": 3153,
            "Ġhere": 3154,
            "agi": 3155,
            "Ġkw": 3156,
            "Ġ..": 3157,
            "ĠÄĳá»Ļng": 3158,
            "æĺŁ": 3159,
            "Ġsebagai": 3160,
            "Ġthese": 3161,
            "åħī": 3162,
            "Ġmol": 3163,
            "Ġizan": 3164,
            "åıĤ": 3165,
            "_{": 3166,
            "áº¯c": 3167,
            "alu": 3168,
            "Ġ27": 3169,
            "To": 3170,
            "ister": 3171,
            "è¿Ľè¡Į": 3172,
            "æŃ¦": 3173,
            "æķĪ": 3174,
            "Ġfac": 3175,
            "Ġway": 3176,
            "ä¸ĵ": 3177,
            "±c": 3178,
            "Ġere": 3179,
            "Ġecon": 3180,
            "Ġdib": 3181,
            "Ë§": 3182,
            "Ġdiv": 3183,
            "ä¸¦": 3184,
            "Ġdid": 3185,
            "Ġà§§à§": 3186,
            "Ġtodos": 3187,
            "44": 3188,
            "Ġmus": 3189,
            "æ®µ": 3190,
            "Ġfoll": 3191,
            "é¢Ĩ": 3192,
            "Ġdat": 3193,
            "uma": 3194,
            "Ġgroup": 3195,
            "Ġvan": 3196,
            "Ġsua": 3197,
            "Äĥn": 3198,
            "Ġplural": 3199,
            "è®º": 3200,
            "ä»Ģä¹Ī": 3201,
            "ĨĴ": 3202,
            "ç®Ĺ": 3203,
            "ĠcÃ´": 3204,
            "å¢ŀ": 3205,
            "Ã¨ncia": 3206,
            "Ġinvest": 3207,
            "Ġza": 3208,
            "Ġcamp": 3209,
            "çį": 3210,
            "Ġafter": 3211,
            "Ġlocal": 3212,
            "è¿ĳ": 3213,
            "Se": 3214,
            "Ġlist": 3215,
            "ĠaÃ±os": 3216,
            "Ġzuen": 3217,
            "Ġlang": 3218,
            "arga": 3219,
            "wá»įn": 3220,
            "æ´²": 3221,
            "Ġfue": 3222,
            "{{gap": 3223,
            "Ã©sent": 3224,
            "uit": 3225,
            "Ġdesde": 3226,
            "Ġces": 3227,
            "lab": 3228,
            "ĠBr": 3229,
            "adr": 3230,
            "ĠEsp": 3231,
            "Cl": 3232,
            "ĠæĪĳ": 3233,
            "áº£o": 3234,
            "Ġpal": 3235,
            "Ġrepres": 3236,
            "çº§": 3237,
            "ĠSoc": 3238,
            "Type": 3239,
            "éĺŁ": 3240,
            "ĠTer": 3241,
            "ark": 3242,
            "åĨµ": 3243,
            "vir": 3244,
            "37": 3245,
            "date": 3246,
            "Ġpens": 3247,
            "ĠrÃ©s": 3248,
            "å®¹": 3249,
            "ength": 3250,
            "æ©Ł": 3251,
            "ements": 3252,
            "aient": 3253,
            "åį¡": 3254,
            "Ġsau": 3255,
            "Ġpou": 3256,
            "Ġpropos": 3257,
            "á»¥c": 3258,
            "åĬŀ": 3259,
            "éĽ»": 3260,
            "icos": 3261,
            "_c": 3262,
            "ĠAg": 3263,
            "Ġah": 3264,
            "Ġtháº¿": 3265,
            "Ġsá»ĳ": 3266,
            "éĢ²": 3267,
            "Ġexpl": 3268,
            "very": 3269,
            "ĠCl": 3270,
            "Ġapp": 3271,
            "æ±ī": 3272,
            "Ġconn": 3273,
            "Ġens": 3274,
            "æĸĻ": 3275,
            "Ġalgun": 3276,
            "Ġhiá»ĩn": 3277,
            "æĬ¥åĳĬ": 3278,
            "Ġnhiá»ģu": 3279,
            "çª": 3280,
            "ç±»": 3281,
            "åı¯èĥ½": 3282,
            "ities": 3283,
            "Ġprem": 3284,
            "ĠgÃ¬": 3285,
            "ower": 3286,
            "Ġused": 3287,
            "48": 3288,
            "Ġarray": 3289,
            "åıĺ": 3290,
            "ombre": 3291,
            "public": 3292,
            "ç¶ĵ": 3293,
            "Ġtrue": 3294,
            "View": 3295,
            "atif": 3296,
            "æľ¯": 3297,
            "ĠOn": 3298,
            "Ġrefer": 3299,
            "orr": 3300,
            "alan": 3301,
            "atz": 3302,
            "çı¾": 3303,
            "uka": 3304,
            "mos": 3305,
            "fect": 3306,
            "uis": 3307,
            "Ġcha": 3308,
            "Ġbus": 3309,
            "ĠcÃ²n": 3310,
            "çļĦäºº": 3311,
            "Ġrap": 3312,
            "Ġ29": 3313,
            "ĠDes": 3314,
            "acions": 3315,
            "action": 3316,
            "ĠNam": 3317,
            "ited": 3318,
            "arch": 3319,
            "atus": 3320,
            "eh": 3321,
            "Ġ]": 3322,
            "Ġdig": 3323,
            "Ġsee": 3324,
            "é¾": 3325,
            "aks": 3326,
            "2:": 3327,
            "ç¯": 3328,
            "ty": 3329,
            "æŃ¥": 3330,
            "ĠpÃºblic": 3331,
            "åħ¬åı¸": 3332,
            "çļĦä¸Ģ": 3333,
            "Ġlebih": 3334,
            "Ġconsider": 3335,
            "Ġsist": 3336,
            "atur": 3337,
            "Ġmuch": 3338,
            "asan": 3339,
            "Ġlle": 3340,
            "Ġoc": 3341,
            "ç»Ń": 3342,
            "Ġhal": 3343,
            "bar": 3344,
            "Ġpersona": 3345,
            "Ġfaz": 3346,
            "Ġdefin": 3347,
            "åħ§": 3348,
            "çº¿": 3349,
            "new": 3350,
            "Ġtin": 3351,
            "ngl": 3352,
            "itos": 3353,
            "75": 3354,
            "áº«n": 3355,
            "Ġemp": 3356,
            "66": 3357,
            "æĸ¹éĿ¢": 3358,
            "É¾": 3359,
            "ps": 3360,
            "Ġvir": 3361,
            "tag": 3362,
            "ting": 3363,
            "Ġplan": 3364,
            "æīį": 3365,
            "param": 3366,
            "çµ±": 3367,
            "Ġcould": 3368,
            "Ġjo": 3369,
            "ç»´": 3370,
            "Ġ</": 3371,
            "å°±æĺ¯": 3372,
            "è¯·": 3373,
            "work": 3374,
            "Ġdapat": 3375,
            "Ċ(": 3376,
            "Ġmis": 3377,
            "oi": 3378,
            "æĹı": 3379,
            "Ġdil": 3380,
            "umn": 3381,
            "n't": 3382,
            "Ġmult": 3383,
            "çĦ¡": 3384,
            "Ġmethod": 3385,
            "á»ĥ": 3386,
            "Ġsuper": 3387,
            "Ġline": 3388,
            "ÃŃas": 3389,
            "Ġback": 3390,
            "ç¬¬ä¸Ģ": 3391,
            "Ã®": 3392,
            "stit": 3393,
            "Ġaus": 3394,
            "ween": 3395,
            "34": 3396,
            "Ġkarena": 3397,
            "å¦Ĥæŀľ": 3398,
            "aman": 3399,
            "And": 3400,
            "Ġsame": 3401,
            "Ġxu": 3402,
            "á»±c": 3403,
            "æ¼Ķ": 3404,
            "Ġide": 3405,
            "åŃĺ": 3406,
            "Data": 3407,
            ")ĊĠĠĠ": 3408,
            "æĺĵ": 3409,
            "ĠCo": 3410,
            "ÃĥÂ": 3411,
            "å¤±": 3412,
            "Ġtotal": 3413,
            "[[": 3414,
            "ĠmÃ¬nh": 3415,
            "aku": 3416,
            "izar": 3417,
            "uru": 3418,
            "ĠMin": 3419,
            "Ġcontrol": 3420,
            "ä»£è¡¨": 3421,
            "ĠIm": 3422,
            "Ġtodo": 3423,
            "Êģ": 3424,
            "æĭ¼": 3425,
            "á»«": 3426,
            "Ġaur": 3427,
            "æł¡": 3428,
            "Ġopt": 3429,
            "ece": 3430,
            "Ġcall": 3431,
            "arios": 3432,
            "Ġsuch": 3433,
            "acc": 3434,
            "Ġexist": 3435,
            "ĠFor": 3436,
            "iet": 3437,
            "serv": 3438,
            "åľŁ": 3439,
            "ĠÃªtre": 3440,
            "Ġcam": 3441,
            "uten": 3442,
            "èģĶåĲĪåĽ½": 3443,
            "ful": 3444,
            "/201": 3445,
            "-p": 3446,
            "áº¥p": 3447,
            "rist": 3448,
            "å¯¼": 3449,
            "áº¡t": 3450,
            "mod": 3451,
            "view": 3452,
            "Ġsaat": 3453,
            "ois": 3454,
            "Ġfem": 3455,
            "éľĢè¦ģ": 3456,
            "Ġempres": 3457,
            "ila": 3458,
            "pp": 3459,
            "áº»": 3460,
            "Ġnull": 3461,
            "IP": 3462,
            "Ġporque": 3463,
            "Ã³s": 3464,
            "atik": 3465,
            "endre": 3466,
            "éĸĵ": 3467,
            "88": 3468,
            "uv": 3469,
            "å¾Ģ": 3470,
            "ances": 3471,
            "Ġ2017": 3472,
            "Ġrá»ĵi": 3473,
            "çĻ¾": 3474,
            "ives": 3475,
            "å¢ĥ": 3476,
            "Ġrequ": 3477,
            "ying": 3478,
            "php": 3479,
            "å®¢": 3480,
            "æīĢæľī": 3481,
            "ni": 3482,
            "table": 3483,
            "eria": 3484,
            "orld": 3485,
            "ody": 3486,
            "Ġwak": 3487,
            "anz": 3488,
            "Ġstring": 3489,
            "Ġnorm": 3490,
            "èĢĥ": 3491,
            "Ġdeux": 3492,
            "Ġaku": 3493,
            "ĠĠĠĠĠĠ": 3494,
            "æĩ": 3495,
            "áº¥n": 3496,
            "ç©¶": 3497,
            "ĠNew": 3498,
            "åı¤": 3499,
            "Ġlim": 3500,
            "ä¸ĸçķĮ": 3501,
            "roid": 3502,
            "_p": 3503,
            "ĠsÃ³": 3504,
            "åı²": 3505,
            "/2": 3506,
            "Ġlain": 3507,
            "inter": 3508,
            "Ġtent": 3509,
            "èĬ±": 3510,
            "Ġvida": 3511,
            "Ġze": 3512,
            "ç§°": 3513,
            "áº·t": 3514,
            "ĠâĪĴ": 3515,
            "\";": 3516,
            "icas": 3517,
            "æĽ¾": 3518,
            "Ġá¹£": 3519,
            "Ġtrav": 3520,
            "Ob": 3521,
            "éŃ": 3522,
            "ĠWIB": 3523,
            "è®©": 3524,
            "Ġsimp": 3525,
            "Ġord": 3526,
            "è¿ĻäºĽ": 3527,
            "Ġdar": 3528,
            "çĩŁ": 3529,
            "Ġgre": 3530,
            "Ġcada": 3531,
            "Est": 3532,
            "Ġhai": 3533,
            "Æ°á»£ng": 3534,
            "Ġmake": 3535,
            "èĺ": 3536,
            "Ġpes": 3537,
            "Äĳ": 3538,
            "iá»ĥm": 3539,
            "iá»ĩu": 3540,
            "mer": 3541,
            "IS": 3542,
            "_id": 3543,
            "car": 3544,
            "Qu": 3545,
            "erto": 3546,
            "Ġ2015": 3547,
            "Ġcour": 3548,
            "âĢĺ": 3549,
            "ĠBar": 3550,
            "Ġkem": 3551,
            "ĠGeneral": 3552,
            "Ñĥ": 3553,
            "Res": 3554,
            "istas": 3555,
            "Ġleur": 3556,
            "anyak": 3557,
            "y;": 3558,
            "Ġspec": 3559,
            "Ġtan": 3560,
            "ĠÄĳang": 3561,
            "ĠCol": 3562,
            "Ġwho": 3563,
            "http": 3564,
            "ä¾ĭ": 3565,
            "ete": 3566,
            "ites": 3567,
            "Ġoff": 3568,
            "isme": 3569,
            "èĤ²": 3570,
            "i-": 3571,
            "ĠÄĳÃ¢y": 3572,
            "Ġmaj": 3573,
            "å¤į": 3574,
            "ogr": 3575,
            "UR": 3576,
            "Ġext": 3577,
            "ingga": 3578,
            "file": 3579,
            "å¾ĭ": 3580,
            "ÃŃt": 3581,
            "Ġkatika": 3582,
            "ota": 3583,
            "ĠHe": 3584,
            "Ġbetween": 3585,
            "Ġvoid": 3586,
            "ĠÄĳiá»ģu": 3587,
            "ç½ĳ": 3588,
            "Ġ40": 3589,
            "ĠĊ": 3590,
            "49": 3591,
            "ious": 3592,
            "ĠÃºl": 3593,
            "anta": 3594,
            "Ġaz": 3595,
            "Ġhá»įc": 3596,
            "åħŃ": 3597,
            "uyá»ĩn": 3598,
            "ences": 3599,
            "Ġkel": 3600,
            "Ġsort": 3601,
            "AB": 3602,
            "Ġfollow": 3603,
            "Ġsatu": 3604,
            "çĵ": 3605,
            "Ġdifer": 3606,
            "ativa": 3607,
            "ĠtambiÃ©n": 3608,
            "åĬŁ": 3609,
            "class": 3610,
            "ÃŃl": 3611,
            "Ġnumber": 3612,
            "Ã¡nh": 3613,
            "Ġlet": 3614,
            "Ãªncia": 3615,
            "eda": 3616,
            "ran": 3617,
            "ä¸įæĺ¯": 3618,
            "Ġhttp": 3619,
            "Ġchar": 3620,
            "ä»¤": 3621,
            "ĠĠĠĠĠĠĠĠĠĠĠ": 3622,
            "31": 3623,
            "Ġlui": 3624,
            "65": 3625,
            "Ã§o": 3626,
            "éĥ¨åĪĨ": 3627,
            "Ġunder": 3628,
            "è¯Ŀ": 3629,
            "æģ¯": 3630,
            "ĠWe": 3631,
            "çŁ³": 3632,
            "Ġfalse": 3633,
            "Ġmai": 3634,
            "Ġcir": 3635,
            "è¯ģ": 3636,
            "Ã¡m": 3637,
            "ides": 3638,
            "ables": 3639,
            "Ġinte": 3640,
            "Ð²": 3641,
            "è§Ĩ": 3642,
            "æ²³": 3643,
            "Ġlook": 3644,
            "amu": 3645,
            "akarta": 3646,
            "fig": 3647,
            "áº¡o": 3648,
            "Ġdet": 3649,
            "ulo": 3650,
            "çīĩ": 3651,
            "Ġcult": 3652,
            "æĳ": 3653,
            "Ġvot": 3654,
            "ĠnâĢĻ": 3655,
            "ctr": 3656,
            "ĠMan": 3657,
            "ç¤¾ä¼ļ": 3658,
            "Ġnou": 3659,
            "idth": 3660,
            "ä½ı": 3661,
            "Ġmenc": 3662,
            "ĠMas": 3663,
            "Ġelement": 3664,
            "åĪĩ": 3665,
            "onn": 3666,
            "å¼ķ": 3667,
            "ĠgÃ©n": 3668,
            "icial": 3669,
            "Set": 3670,
            "ç½Ĺ": 3671,
            "Ġev": 3672,
            "ople": 3673,
            "Ġgen": 3674,
            "éĢļè¿ĩ": 3675,
            "Cont": 3676,
            "imento": 3677,
            "Ðº": 3678,
            "Ġsou": 3679,
            "Ġsystem": 3680,
            "ments": 3681,
            "ipo": 3682,
            "ä¿®": 3683,
            "iá»ģn": 3684,
            "CT": 3685,
            "åĳ¨": 3686,
            "';": 3687,
            "ĠAnda": 3688,
            "Ġaj": 3689,
            "Ġbi": 3690,
            "Ġrun": 3691,
            "You": 3692,
            "èĩ´": 3693,
            "Ġlab": 3694,
            "Ġbre": 3695,
            "cent": 3696,
            "seg": 3697,
            "ç½®": 3698,
            "Ã³m": 3699,
            "ĠPe": 3700,
            "æŃ¢": 3701,
            "udo": 3702,
            "Ġtháº¥y": 3703,
            "illa": 3704,
            "åĲĹ": 3705,
            "å¿«": 3706,
            "æ´¾": 3707,
            "åĪĴ": 3708,
            "Ġalg": 3709,
            "Ġquer": 3710,
            "isation": 3711,
            "Ġkal": 3712,
            "æľĿ": 3713,
            "åĢĻ": 3714,
            "Ġtext": 3715,
            "Ġol": 3716,
            "à¸": 3717,
            "æ¶Ī": 3718,
            "DE": 3719,
            "clar": 3720,
            "'re": 3721,
            "èµ°": 3722,
            "åħ©": 3723,
            "à§§à§": 3724,
            "æĬ¤": 3725,
            "ãĢĳ": 3726,
            "Ġfunc": 3727,
            "ãĢĲ": 3728,
            "Ã¬n": 3729,
            "obier": 3730,
            "éĩĩ": 3731,
            "oko": 3732,
            "ĠÄĳá»ĵng": 3733,
            "uir": 3734,
            "uch": 3735,
            "åĥı": 3736,
            "Ġred": 3737,
            "tros": 3738,
            "Ġsaya": 3739,
            "Ġdesp": 3740,
            "Col": 3741,
            "Ġgrup": 3742,
            "Ġlarg": 3743,
            "å©": 3744,
            "éĺ²": 3745,
            "Ġvar": 3746,
            "77": 3747,
            "Ġbers": 3748,
            "On": 3749,
            "Ġcaus": 3750,
            "Ġcop": 3751,
            "ward": 3752,
            "has": 3753,
            "ĠnÃło": 3754,
            "orro": 3755,
            "Ġsig": 3756,
            "Ġeach": 3757,
            "á»ĩnh": 3758,
            "Ġmodel": 3759,
            "æĥħåĨµ": 3760,
            "Ġthro": 3761,
            "Ġour": 3762,
            "ĠchÃŃnh": 3763,
            "ells": 3764,
            "ihat": 3765,
            "Ġyear": 3766,
            "æĻ®": 3767,
            "He": 3768,
            "hir": 3769,
            "é¤": 3770,
            "ä¼ł": 3771,
            "ĠYou": 3772,
            "ĠhÃłnh": 3773,
            "att": 3774,
            "Ġindic": 3775,
            "æ¾": 3776,
            "æ±Ł": 3777,
            "æ¿": 3778,
            "Ġuser": 3779,
            "count": 3780,
            "æ°Ķ": 3781,
            "èĴ": 3782,
            "plication": 3783,
            "ĠPa": 3784,
            "ever": 3785,
            "åĵ¡": 3786,
            "âĪ": 3787,
            "85": 3788,
            "Ġpend": 3789,
            "iles": 3790,
            "éĹľ": 3791,
            "çłĶç©¶": 3792,
            "gb": 3793,
            "Ġfaire": 3794,
            "Ġmant": 3795,
            "Ġdocument": 3796,
            "åħ°": 3797,
            "Ġstart": 3798,
            "åħ³äºİ": 3799,
            "ç¹": 3800,
            "90": 3801,
            "Ġbal": 3802,
            "Ġju": 3803,
            "Ġsepert": 3804,
            "Ġdesc": 3805,
            "uper": 3806,
            "Ġrespons": 3807,
            "Ġmag": 3808,
            "æķ´": 3809,
            "å®¡": 3810,
            "Ġvery": 3811,
            "ban": 3812,
            "ĠpÃ©": 3813,
            "aan": 3814,
            "my": 3815,
            "æĭ¼éŁ³": 3816,
            "Ġpess": 3817,
            "æĬķ": 3818,
            "ÃŃc": 3819,
            "Ã¡tic": 3820,
            "Ġnov": 3821,
            "ref": 3822,
            "çİĩ": 3823,
            "è¦ĭ": 3824,
            "æ¬¾": 3825,
            "ĠCatal": 3826,
            "Ġsed": 3827,
            "9å¹´": 3828,
            "Ġelle": 3829,
            "ĠSer": 3830,
            "Ġ2014": 3831,
            "iza": 3832,
            "Ã»": 3833,
            "key": 3834,
            "Ġtelah": 3835,
            "Ġsecond": 3836,
            "ĠIf": 3837,
            "1å¹´": 3838,
            "ĠNh": 3839,
            "ĠAt": 3840,
            "OS": 3841,
            "ungan": 3842,
            "çħ§": 3843,
            "UL": 3844,
            "Ġkut": 3845,
            "áºŃy": 3846,
            "value": 3847,
            "ĠtÃ³": 3848,
            "echn": 3849,
            "Ġident": 3850,
            "ET": 3851,
            "Ġsingular": 3852,
            ":00": 3853,
            "ĠsÃŃ": 3854,
            "ä¸¾": 3855,
            "100": 3856,
            "ç®¡çĲĨ": 3857,
            "ook": 3858,
            "inda": 3859,
            "Ġstud": 3860,
            "á»ĭch": 3861,
            "Æ°á»Ł": 3862,
            "ĠÄĳá»ģ": 3863,
            "At": 3864,
            "Ġput": 3865,
            "ĠCor": 3866,
            "è´¨": 3867,
            "bu": 3868,
            "Ġcomb": 3869,
            "86": 3870,
            "ĠcÆ¡": 3871,
            "Ġbere": 3872,
            "äº¬": 3873,
            "uyÃªn": 3874,
            "Ġappro": 3875,
            "é£Ł": 3876,
            "æİ¨": 3877,
            "Ġagain": 3878,
            "Ġig": 3879,
            "uri": 3880,
            "á»£p": 3881,
            "Ġnecess": 3882,
            "itle": 3883,
            "Ġjus": 3884,
            "ugu": 3885,
            "è´¹": 3886,
            "Ġpage": 3887,
            "iti": 3888,
            "ĠEm": 3889,
            "Ìĥ": 3890,
            "ande": 3891,
            "Ġartic": 3892,
            "ĊĊĉĉ": 3893,
            "Ġpun": 3894,
            "æī§": 3895,
            "æĸ°åĮĹ": 3896,
            "å¤´": 3897,
            "Ġtrabaj": 3898,
            "47": 3899,
            "çĳ": 3900,
            "Ġconv": 3901,
            "di": 3902,
            "-c": 3903,
            "ĠlÃªn": 3904,
            "çŁ¥éģĵ": 3905,
            "Ġtres": 3906,
            "ango": 3907,
            "UN": 3908,
            "omp": 3909,
            "Ġket": 3910,
            "ä¼Ĭ": 3911,
            "imo": 3912,
            "Ġrepresent": 3913,
            "Ċĉĉĉĉĉĉ": 3914,
            "ĠquâĢĻ": 3915,
            "Ġautor": 3916,
            "mu": 3917,
            "éħį": 3918,
            "Ġpoder": 3919,
            "éłŃ": 3920,
            "Ġdik": 3921,
            "æµİ": 3922,
            "Ġorig": 3923,
            "Ġca": 3924,
            "Ġmov": 3925,
            "Ġfind": 3926,
            "æĲ": 3927,
            "ĠprÃ©": 3928,
            "other": 3929,
            "Ġbiz": 3930,
            ")ĊĠĠĠĠĠĠĠ": 3931,
            "osp": 3932,
            "è¶Ĭ": 3933,
            "but": 3934,
            "ugar": 3935,
            "ä¸»è¦ģ": 3936,
            "INE": 3937,
            "cer": 3938,
            "æľĽ": 3939,
            "itÃ©s": 3940,
            "ÑĮ": 3941,
            "åĺ": 3942,
            "Ġgeneral": 3943,
            "è¿Ļä¸ª": 3944,
            "Ġseperti": 3945,
            "Je": 3946,
            "ĠÏ": 3947,
            "Ġans": 3948,
            "alt": 3949,
            "rite": 3950,
            "ç¾ħ": 3951,
            "atzen": 3952,
            "Ġnow": 3953,
            "Ġkau": 3954,
            "itor": 3955,
            "ĠRep": 3956,
            "med": 3957,
            "ls": 3958,
            "Des": 3959,
            "Ġinf": 3960,
            "Ġexp": 3961,
            "Ġ2016": 3962,
            "ession": 3963,
            "Ġmak": 3964,
            "uran": 3965,
            "Text": 3966,
            "Ġharus": 3967,
            "ĠL'": 3968,
            "Æ°á»Łng": 3969,
            "Ġund": 3970,
            "Ġpemb": 3971,
            "Ġpost": 3972,
            "ED": 3973,
            "way": 3974,
            "Ġprimer": 3975,
            "Ġcorre": 3976,
            "iá»ĥu": 3977,
            "å¸Į": 3978,
            "ĠsÃ£o": 3979,
            "Ġsm": 3980,
            "Ġpeut": 3981,
            "Ãºt": 3982,
            "Ġtim": 3983,
            "Ġviol": 3984,
            "ÃĢ": 3985,
            "orang": 3986,
            "ask": 3987,
            "user": 3988,
            "Ġquestion": 3989,
            "Ġsay": 3990,
            "è®¸": 3991,
            "obierno": 3992,
            "onom": 3993,
            "Ñı": 3994,
            "AD": 3995,
            "ella": 3996,
            "ĠmÃªme": 3997,
            "Ġbecause": 3998,
            "áº¿u": 3999,
            "Ġrece": 4000,
            "ager": 4001,
            "Ġanal": 4002,
            "ĠprÃ³": 4003,
            "acter": 4004,
            "{{gap}}": 4005,
            "><": 4006,
            "Ġbase": 4007,
            "Ġfact": 4008,
            "Ð¼": 4009,
            "Ġ2008": 4010,
            "ä¸ĩ": 4011,
            "Ġd'a": 4012,
            "Ġdon't": 4013,
            "anos": 4014,
            "Ġprimera": 4015,
            "Ġocc": 4016,
            "Ġnháº¥t": 4017,
            "Ġegin": 4018,
            "Ġespecial": 4019,
            "ĠcÃ¡ch": 4020,
            "ĠGu": 4021,
            "ope": 4022,
            "wn": 4023,
            "tor": 4024,
            "Or": 4025,
            "ĊĠĠ": 4026,
            "part": 4027,
            "aint": 4028,
            "ems": 4029,
            "Ġdifferent": 4030,
            "äººæ°ĳ": 4031,
            "Ġli": 4032,
            "ç¬¬äºĮ": 4033,
            "Ġtra": 4034,
            "Ġevent": 4035,
            "è£ħ": 4036,
            "ĊĊĉ": 4037,
            "empre": 4038,
            "Ġbur": 4039,
            "Ãºs": 4040,
            "46": 4041,
            "è¶³": 4042,
            "á»Ľ": 4043,
            "uli": 4044,
            "åħµ": 4045,
            "aten": 4046,
            "enas": 4047,
            "çĶ·": 4048,
            "not": 4049,
            "å¸¦": 4050,
            "á»ĵng": 4051,
            "the": 4052,
            "å¤ĩ": 4053,
            "Per": 4054,
            "ough": 4055,
            "Ġvoc": 4056,
            "iÃ¨me": 4057,
            "ËĲ": 4058,
            "áº¡nh": 4059,
            "çģ«": 4060,
            "åĽ¾": 4061,
            "Ġsens": 4062,
            "Ġhá»£p": 4063,
            "Ġals": 4064,
            "Ġseus": 4065,
            "________": 4066,
            "enar": 4067,
            "čĊĠĠĠ": 4068,
            "Ġaussi": 4069,
            "iente": 4070,
            "eder": 4071,
            "imiento": 4072,
            "Ġexper": 4073,
            "load": 4074,
            "Ġ$this->": 4075,
            "amiento": 4076,
            "áº£ng": 4077,
            "ĠVal": 4078,
            "UT": 4079,
            "Ġleg": 4080,
            "####": 4081,
            "\"\"": 4082,
            "Ġ''": 4083,
            "Ġtras": 4084,
            "alia": 4085,
            "å±ħ": 4086,
            "äºŀ": 4087,
            "ĠtÃ¬nh": 4088,
            "ĠCent": 4089,
            "Ġeurop": 4090,
            "Ġproduct": 4091,
            "á»ķi": 4092,
            "é¢Ħ": 4093,
            "rop": 4094,
            "á»įi": 4095,
            "Ġbahwa": 4096,
            "tab": 4097,
            "è½¬": 4098,
            "esa": 4099,
            "å®īåħ¨": 4100,
            "ĠUnivers": 4101,
            "eny": 4102,
            "atakan": 4103,
            "åĲ§": 4104,
            "åĩ»": 4105,
            "Ġseva": 4106,
            "ĠIntern": 4107,
            ".)": 4108,
            "rat": 4109,
            "L'": 4110,
            "Ġemb": 4111,
            "iciÃ³n": 4112,
            "ache": 4113,
            "Ġrespect": 4114,
            "ĠnghÄ©": 4115,
            "3å¹´": 4116,
            "ç§ĺ": 4117,
            "Ġ2010": 4118,
            "Ġtrad": 4119,
            "åĪĿ": 4120,
            "lear": 4121,
            "æĪ°": 4122,
            "ordin": 4123,
            "avor": 4124,
            "Ġgran": 4125,
            "Ġcos": 4126,
            "ĠhÆ¡n": 4127,
            "isto": 4128,
            "apan": 4129,
            "Ġnas": 4130,
            "Ġcab": 4131,
            "detik": 4132,
            "éĸĢ": 4133,
            "è§Ĵ": 4134,
            "Ġmost": 4135,
            "comp": 4136,
            "Ġhoáº·c": 4137,
            "eric": 4138,
            "Ġcou": 4139,
            "çĮ": 4140,
            "ove": 4141,
            "Ġcin": 4142,
            "Aku": 4143,
            "arm": 4144,
            "Ġthá»Ŀi": 4145,
            "ball": 4146,
            "Is": 4147,
            "Ġbain": 4148,
            "Ġban": 4149,
            "];": 4150,
            "Ġbon": 4151,
            "æĿİ": 4152,
            "Ġren": 4153,
            "Ġclass=\"": 4154,
            "æķħ": 4155,
            "ĠAb": 4156,
            "ĠcÃ¡i": 4157,
            "Er": 4158,
            "ä¸ĢåĢĭ": 4159,
            "Ġanim": 4160,
            "Ġ0;": 4161,
            "Ġsum": 4162,
            "æĪ¿": 4163,
            "Ġqua": 4164,
            "ĠSal": 4165,
            "Ġ2013": 4166,
            "Ġdiz": 4167,
            "ols": 4168,
            "ker": 4169,
            "Ġment": 4170,
            "éĻĲ": 4171,
            "æĹ©": 4172,
            "Ġthrough": 4173,
            "Ċ|": 4174,
            ".ĊĊ": 4175,
            "ĠdÃ¢n": 4176,
            "éĻĨ": 4177,
            "Ġja": 4178,
            "frac": 4179,
            "ware": 4180,
            "åĽłä¸º": 4181,
            "Ġà«": 4182,
            "arget": 4183,
            "Ð´": 4184,
            "sc": 4185,
            "Im": 4186,
            "å¹²": 4187,
            "This": 4188,
            "ç«ł": 4189,
            "Â«": 4190,
            "nos": 4191,
            "ĠNov": 4192,
            "ativo": 4193,
            "ision": 4194,
            "Ġthá»±c": 4195,
            "lu": 4196,
            "ĠCons": 4197,
            "Get": 4198,
            "ĠString": 4199,
            "89": 4200,
            "Ġdin": 4201,
            "å¨ģ": 4202,
            "iá»ĥn": 4203,
            "oma": 4204,
            "åħ«": 4205,
            "čĊĉ": 4206,
            "Ġib": 4207,
            "Ġpeople": 4208,
            "ç¦ı": 4209,
            "ots": 4210,
            "Ġdispos": 4211,
            "Ã©rie": 4212,
            "Ġbáº¡n": 4213,
            "cher": 4214,
            "ĠEr": 4215,
            "mi": 4216,
            "Ġreport": 4217,
            "++": 4218,
            "loc": 4219,
            "Value": 4220,
            "ogle": 4221,
            "Ġevery": 4222,
            "amin": 4223,
            "idi": 4224,
            "ĠPal": 4225,
            "Ġfound": 4226,
            "Ġread": 4227,
            "obal": 4228,
            "å¯Ĩ": 4229,
            "Ġaff": 4230,
            "duct": 4231,
            "ĠcÃ¹ng": 4232,
            "back": 4233,
            "raf": 4234,
            "Ġincre": 4235,
            "å®£": 4236,
            "Ġhon": 4237,
            "Ġmuito": 4238,
            "wh": 4239,
            "éĢŁ": 4240,
            "ĠSi": 4241,
            "las": 4242,
            "ized": 4243,
            "ugby": 4244,
            "çķĻ": 4245,
            "æ³¢": 4246,
            "Les": 4247,
            "face": 4248,
            "wit": 4249,
            "çīĪ": 4250,
            "å³": 4251,
            "().": 4252,
            "æİĴ": 4253,
            "7å¹´": 4254,
            "Ġvari": 4255,
            "Ġvá»¥": 4256,
            "æ¯į": 4257,
            "Ġeng": 4258,
            "Ġquel": 4259,
            "ife": 4260,
            "Ġker": 4261,
            "èİ·": 4262,
            "ency": 4263,
            "å¹¿": 4264,
            "å®³": 4265,
            "Ġkon": 4266,
            "Ċĉĉĉĉĉ": 4267,
            "Ġberb": 4268,
            "ĠOb": 4269,
            "AP": 4270,
            "2å¹´": 4271,
            "untr": 4272,
            "Ġerror": 4273,
            "yar": 4274,
            "Ġpays": 4275,
            "Ġmort": 4276,
            "ules": 4277,
            "Ġmor": 4278,
            "unicip": 4279,
            "Ġvia": 4280,
            "Ġcur": 4281,
            "imin": 4282,
            "Ġdira": 4283,
            "é£İ": 4284,
            "ideo": 4285,
            "ĠhÃłng": 4286,
            "iap": 4287,
            "pond": 4288,
            "áº¯n": 4289,
            "Ġtur": 4290,
            "^{": 4291,
            "ĊĊĠ": 4292,
            "56": 4293,
            "com/": 4294,
            "æī¿": 4295,
            "cha": 4296,
            "åı¦": 4297,
            "èĮĥ": 4298,
            "å¸Ń": 4299,
            "Ġrecon": 4300,
            "_m": 4301,
            "Ġek": 4302,
            "Ġd'une": 4303,
            "å¸Ī": 4304,
            "ħn": 4305,
            "ism": 4306,
            "erson": 4307,
            "aca": 4308,
            "OT": 4309,
            "áĥ": 4310,
            "ä»½": 4311,
            "ox": 4312,
            "áº³": 4313,
            "Ġhasta": 4314,
            "å¾ŀ": 4315,
            "Ġdeter": 4316,
            "esta": 4317,
            "aji": 4318,
            "Ã¡rio": 4319,
            "76": 4320,
            "aki": 4321,
            "agu": 4322,
            "Ġsimple": 4323,
            "Ġven": 4324,
            "Ġwell": 4325,
            "á»Ńa": 4326,
            "Ġ2012": 4327,
            "ray": 4328,
            "Ġpap": 4329,
            "è¬": 4330,
            "angk": 4331,
            "iam": 4332,
            "Ġdevelop": 4333,
            "á»¥ng": 4334,
            "Ġconse": 4335,
            "Ġ.Ġ.Ġ.Ġ.Ġ.Ġ.Ġ.Ġ.Ġ.Ġ.Ġ.Ġ.Ġ.Ġ.Ġ.Ġ.": 4336,
            "lem": 4337,
            "Ġhim": 4338,
            "ru": 4339,
            "eza": 4340,
            "Ã¶": 4341,
            "Ġ31": 4342,
            "Ġchang": 4343,
            "Ġmemil": 4344,
            "èĬĤ": 4345,
            "Ã©p": 4346,
            "æłĩåĩĨ": 4347,
            "å¯Ł": 4348,
            "Ġger": 4349,
            "Ġped": 4350,
            "ĠSa": 4351,
            "ivos": 4352,
            "ĠJe": 4353,
            "ĠrÃ©g": 4354,
            "ilar": 4355,
            "depend": 4356,
            "Ġpossible": 4357,
            "æ¥Ń": 4358,
            "iven": 4359,
            "Ġtemps": 4360,
            "Ġmemp": 4361,
            "ĠSel": 4362,
            "ciÃ³": 4363,
            "></": 4364,
            "Ġdou": 4365,
            "Ġdurante": 4366,
            "ĠkhÃ¡c": 4367,
            "ved": 4368,
            "Ġmundo": 4369,
            "å±ŀ": 4370,
            "çī¹åĪ«": 4371,
            "Ġeffect": 4372,
            "Ġ&&": 4373,
            "Ġmw": 4374,
            "uden": 4375,
            "ĊĠĠĠĠĠĠĠĠĠĠĠĠĠĠĠĠĠĠĠĠĠĠĠ": 4376,
            "Ġ2000": 4377,
            "Ġnombre": 4378,
            "ĠâĨĴ": 4379,
            "åħ¶ä¸Ń": 4380,
            "Ġhigh": 4381,
            "ĠSur": 4382,
            "Ġ2011": 4383,
            "arcel": 4384,
            "PR": 4385,
            "ĠthÃ¡ng": 4386,
            "yl": 4387,
            "junt": 4388,
            "ĠnhÆ°ng": 4389,
            "Ġ<<": 4390,
            "çĪ±": 4391,
            "insi": 4392,
            "Ġsend": 4393,
            "_d": 4394,
            "èģĮ": 4395,
            "ĠÃłwá»įn": 4396,
            "Ġqu'il": 4397,
            "ÃŃch": 4398,
            "çĪ¶": 4399,
            "Ġia": 4400,
            "||": 4401,
            "File": 4402,
            "echo": 4403,
            "atis": 4404,
            "Ġshow": 4405,
            "Ġ2009": 4406,
            "ĠBras": 4407,
            "á»Ŀi": 4408,
            "Em": 4409,
            "éĮ": 4410,
            "ĠBer": 4411,
            "Ġná»¯": 4412,
            "æł¸": 4413,
            "But": 4414,
            "áº¯ng": 4415,
            "Ġbert": 4416,
            "åĽłæŃ¤": 4417,
            "çĨ": 4418,
            "Ġthink": 4419,
            "ç¨±": 4420,
            "ekin": 4421,
            "Ġdown": 4422,
            "Ġterj": 4423,
            "Ġgovern": 4424,
            "59": 4425,
            "Â°": 4426,
            "79": 4427,
            "Ġtiene": 4428,
            "Ġsl": 4429,
            "ĠKh": 4430,
            "èĲ½": 4431,
            "ç®Ģ": 4432,
            "Ġdivers": 4433,
            "s/": 4434,
            "Ġkan": 4435,
            "Ġtant": 4436,
            "Ġplace": 4437,
            "rc": 4438,
            "ji": 4439,
            "ĠtrÆ°á»Ŀng": 4440,
            "agr": 4441,
            "fÃ©r": 4442,
            "aine": 4443,
            "åĤ³": 4444,
            "ĠUS": 4445,
            "Ġdago": 4446,
            "unda": 4447,
            "****************": 4448,
            "ĠÅĦ": 4449,
            "ÃŃst": 4450,
            "ecut": 4451,
            "ç·ļ": 4452,
            "Ġprime": 4453,
            "ĠtambÃ©": 4454,
            "Ġapro": 4455,
            "ĠWikip": 4456,
            "8å¹´": 4457,
            "Ġkepada": 4458,
            "ç»ıæµİ": 4459,
            "Ġcompr": 4460,
            "uto": 4461,
            "Ġmul": 4462,
            "áºŃu": 4463,
            "ieron": 4464,
            "Mod": 4465,
            "Ġsao": 4466,
            "ç²¾": 4467,
            "ĠnÃº": 4468,
            ",Ġ": 4469,
            "ify": 4470,
            "å¸Ŀ": 4471,
            "string": 4472,
            "è¨Ī": 4473,
            "æĢĿ": 4474,
            "vez": 4475,
            "ç¦»": 4476,
            "Ġarte": 4477,
            "lig": 4478,
            "è´£": 4479,
            "å®¤": 4480,
            "Ġ2007": 4481,
            "ç´ł": 4482,
            "erial": 4483,
            "iden": 4484,
            "px": 4485,
            "Ã±o": 4486,
            "éĿĴ": 4487,
            "ĠPor": 4488,
            "enn": 4489,
            "Ġetx": 4490,
            "Ġeven": 4491,
            "æ´»åĬ¨": 4492,
            "åł´": 4493,
            "Ġ2006": 4494,
            "uros": 4495,
            "Ġrep": 4496,
            "Ġagr": 4497,
            "Ġmust": 4498,
            "':": 4499,
            "artic": 4500,
            "çŃĸ": 4501,
            "èŃ¦": 4502,
            "åıĭ": 4503,
            "ori": 4504,
            "lection": 4505,
            "æ¸¸": 4506,
            "Ġisso": 4507,
            "Ġtable": 4508,
            "Ġfield": 4509,
            "Ġbeing": 4510,
            "Ġinvestig": 4511,
            "ç³»ç»Ł": 4512,
            "had": 4513,
            "ä½Ĩæĺ¯": 4514,
            "Æ°ng": 4515,
            "Ġess": 4516,
            "ually": 4517,
            "æľīåħ³": 4518,
            "å®Ĺ": 4519,
            "Ġapr": 4520,
            "ION": 4521,
            "ival": 4522,
            "Ġlevel": 4523,
            "čĊĉĉ": 4524,
            "é¥": 4525,
            "Ġprev": 4526,
            "è³ĩ": 4527,
            "æľºæŀĦ": 4528,
            "åįĥ": 4529,
            "s:": 4530,
            "ĠÃºltim": 4531,
            "Ġexample": 4532,
            "'''": 4533,
            "-202": 4534,
            "Ġmuy": 4535,
            "_C": 4536,
            "ÃŃan": 4537,
            "arse": 4538,
            "Ġcurrent": 4539,
            "Ġentr": 4540,
            "ĠlÃŃ": 4541,
            "Ġit's": 4542,
            "-æĸ°åĮĹ": 4543,
            "èģ¯çĩŁ": 4544,
            "æ¦": 4545,
            "Ġhanya": 4546,
            "çİ¯": 4547,
            "ĠtrÆ°á»Ľc": 4548,
            "odo": 4549,
            "Ġpelo": 4550,
            "ĠSan": 4551,
            "www": 4552,
            "ä¸ŃçļĦ": 4553,
            "Ġfinanc": 4554,
            "æī§è¡Į": 4555,
            "éģĭ": 4556,
            "Ġadministr": 4557,
            "Ġproject": 4558,
            "å¦ĩ": 4559,
            "èµĽ": 4560,
            "éĩįè¦ģ": 4561,
            "lay": 4562,
            "pen": 4563,
            "ĠSen": 4564,
            "æ¨¡": 4565,
            "ĠaÃ±o": 4566,
            "Ġkho": 4567,
            "ĠMon": 4568,
            "Ġmit": 4569,
            "ply": 4570,
            "åįİ": 4571,
            "Ġinstit": 4572,
            "Ġbeg": 4573,
            "erinta": 4574,
            "function": 4575,
            "\\n": 4576,
            "met": 4577,
            "ĠãĦ": 4578,
            "čĊĠĠĠĠĠĠĠ": 4579,
            "Ġ2005": 4580,
            "Ġaix": 4581,
            "æĸ¹æ¡Ī": 4582,
            "raw": 4583,
            "Ġgrande": 4584,
            "orth": 4585,
            "è¡ĮåĬ¨": 4586,
            "========": 4587,
            "-M": 4588,
            "iana": 4589,
            "ãĢĢ": 4590,
            "4å¹´": 4591,
            "Ġjun": 4592,
            "ahkan": 4593,
            "è±¡": 4594,
            "á»Ĺ": 4595,
            "aro": 4596,
            "ĠCan": 4597,
            "æ·±": 4598,
            "Ġfund": 4599,
            "Ġposit": 4600,
            "æīĢä»¥": 4601,
            "Object": 4602,
            "utes": 4603,
            "kt": 4604,
            "Ġair": 4605,
            "aris": 4606,
            "æĽ¸": 4607,
            "ĠmÃ©d": 4608,
            "comm": 4609,
            "Ġrecord": 4610,
            "è©²": 4611,
            "SS": 4612,
            "ä»·": 4613,
            "Ġfollowing": 4614,
            "Ġmillones": 4615,
            "Ġai": 4616,
            "51": 4617,
            "Ġð": 4618,
            "ĠAp": 4619,
            "Ġráº±ng": 4620,
            ",ĊĠĠĠ": 4621,
            "Il": 4622,
            "Ġprob": 4623,
            "azi": 4624,
            ".ĠĠ": 4625,
            "imb": 4626,
            "Ġdie": 4627,
            "uf": 4628,
            "ym": 4629,
            "ä½İ": 4630,
            "Ġting": 4631,
            "Ġngo": 4632,
            "uts": 4633,
            "ĠSec": 4634,
            "ĠBl": 4635,
            "ä¹Ĳ": 4636,
            "ĠAss": 4637,
            "ĠnÃªn": 4638,
            "è¶ħ": 4639,
            "ä¸ĢäºĽ": 4640,
            "ĠI'm": 4641,
            "Ġcá»©": 4642,
            "IL": 4643,
            "Ġcost": 4644,
            "ĠÃ³": 4645,
            "Ġpubl": 4646,
            "ĊĠĠĠĠĠĠĠĠĠ": 4647,
            "Ġc'est": 4648,
            "53": 4649,
            "á»ıi": 4650,
            "èįī": 4651,
            "Ġbanyak": 4652,
            "Add": 4653,
            "éĤĦ": 4654,
            "ected": 4655,
            "ends": 4656,
            "áº¥u": 4657,
            "Ġcome": 4658,
            "ç«¥": 4659,
            "ĠJakarta": 4660,
            "Ġmá»Ľi": 4661,
            "åĲĪä½ľ": 4662,
            "ĠtambÃ©m": 4663,
            "á»ĵn": 4664,
            "trans": 4665,
            "Ġpersonas": 4666,
            "Ġmerc": 4667,
            "ken": 4668,
            "Ġresol": 4669,
            "ax": 4670,
            "iat": 4671,
            "ĠnháºŃn": 4672,
            "Ġpeu": 4673,
            "Ġáº¥y": 4674,
            "nglish": 4675,
            "ä¸ĥ": 4676,
            "Ġ60": 4677,
            "Ġstatic": 4678,
            "Ġche": 4679,
            "æĢİ": 4680,
            "æ½": 4681,
            "åĩł": 4682,
            "Ġcasa": 4683,
            "Ġpela": 4684,
            "Ġweb": 4685,
            "áº¡m": 4686,
            "ĠvÃ¬": 4687,
            "ç¨®": 4688,
            "gen": 4689,
            "_S": 4690,
            "Ap": 4691,
            "ç´¢": 4692,
            "Ġviv": 4693,
            "Ġtous": 4694,
            "iá»ĩm": 4695,
            "ĠPas": 4696,
            "net": 4697,
            "Ġactual": 4698,
            "ä¹Ŀ": 4699,
            "äººçļĦ": 4700,
            "Ġhari": 4701,
            "Ġproblem": 4702,
            "air": 4703,
            "ĠLINE": 4704,
            "Ġbefore": 4705,
            "Ġprod": 4706,
            "iser": 4707,
            "ania": 4708,
            "Ġl'ex": 4709,
            "elas": 4710,
            "Ġtom": 4711,
            "altres": 4712,
            "áº³ng": 4713,
            "ulation": 4714,
            "Ġnam": 4715,
            "So": 4716,
            "iano": 4717,
            "ĠSocorro": 4718,
            "éļ¾": 4719,
            "Exception": 4720,
            "43": 4721,
            "ĠDep": 4722,
            "oper": 4723,
            "å¯¦": 4724,
            "Ġann": 4725,
            "ething": 4726,
            "ĠTo": 4727,
            "æİ§": 4728,
            "Ġparticular": 4729,
            "ĠlÃ½": 4730,
            "ĠÄĳá»ĳi": 4731,
            "fil": 4732,
            "á»ĳt": 4733,
            "åį°": 4734,
            "ization": 4735,
            "ĠlÃ¡": 4736,
            "Ġris": 4737,
            "Ġabs": 4738,
            "ĠthÃ´ng": 4739,
            "Â§": 4740,
            "TÃ´i": 4741,
            "Ġmenos": 4742,
            "Por": 4743,
            "fet": 4744,
            "è§Ĥ": 4745,
            "ĠLINEAR": 4746,
            "Ã¨me": 4747,
            "[0": 4748,
            "ouse": 4749,
            "ification": 4750,
            "Ġgest": 4751,
            "ipe": 4752,
            "ĠFranc": 4753,
            "åĮ»": 4754,
            "ÃŃcul": 4755,
            "Ġverb": 4756,
            "Ġcorres": 4757,
            "istes": 4758,
            "Ġfavor": 4759,
            "çº³": 4760,
            "Ġcuando": 4761,
            "è¾¹": 4762,
            "Ġchá»©c": 4763,
            "Ġpeny": 4764,
            "æĮī": 4765,
            "åĵ¥": 4766,
            "Ġmej": 4767,
            "iku": 4768,
            "outh": 4769,
            "Ġfig": 4770,
            "58": 4771,
            "Ġráº¥t": 4772,
            "Ġsans": 4773,
            "1]": 4774,
            "Ġdistrib": 4775,
            "äººåı£": 4776,
            "ott": 4777,
            "ĠâĢĿ": 4778,
            "Ġversion": 4779,
            "arang": 4780,
            "æ¨Ļ": 4781,
            "arcelona": 4782,
            "çıŃ": 4783,
            "irect": 4784,
            "èı¯": 4785,
            "udad": 4786,
            "ç½ª": 4787,
            "Ġcheck": 4788,
            "ĠCO": 4789,
            "Ġq": 4790,
            "ĠoÃ¹": 4791,
            "ilan": 4792,
            "ĠÃ©tait": 4793,
            "57": 4794,
            "azio": 4795,
            "ĠĠĠĠĠĠĠĠĠĠĠĠĠĠĠĠĠĠĠĠĠĠĠĠĠĠĠĠĠĠĠĠ": 4796,
            "bi": 4797,
            "Ġsex": 4798,
            "Ġtechn": 4799,
            "èĪ¬": 4800,
            "è¨Ń": 4801,
            "order": 4802,
            "ä¸įèĥ½": 4803,
            "Ġthose": 4804,
            "æī¾": 4805,
            "list": 4806,
            "atural": 4807,
            "Ġ01": 4808,
            "äº¦": 4809,
            "Ġliv": 4810,
            "entr": 4811,
            "é»ĳ": 4812,
            "embro": 4813,
            "ĠViá»ĩt": 4814,
            "ohn": 4815,
            "ired": 4816,
            "Ñĭ": 4817,
            "69": 4818,
            "áº¡ng": 4819,
            "ilo": 4820,
            "IM": 4821,
            "word": 4822,
            "Ġhelp": 4823,
            "Ġtele": 4824,
            "Ġcomun": 4825,
            "é¡¹çĽ®": 4826,
            "Ġà¦¯à¦": 4827,
            "Pron": 4828,
            "vention": 4829,
            "Ġcommun": 4830,
            "éĢĤ": 4831,
            "?ĊĊ": 4832,
            "ket": 4833,
            "iers": 4834,
            "igr": 4835,
            "Ġtake": 4836,
            "uhan": 4837,
            "æĹ¶éĹ´": 4838,
            "Ġmade": 4839,
            "Ġimplement": 4840,
            "0å¹´": 4841,
            "åįĬ": 4842,
            "Ġorder": 4843,
            "den": 4844,
            "Ġcaso": 4845,
            "Ph": 4846,
            "eros": 4847,
            "usi": 4848,
            "æĶ¯æĮģ": 4849,
            "çİ°åľ¨": 4850,
            "Ġkami": 4851,
            "antz": 4852,
            "Ġmany": 4853,
            "å¼Ģå§ĭ": 4854,
            "apt": 4855,
            "aces": 4856,
            "-S": 4857,
            "Ġlugar": 4858,
            "ĠTrans": 4859,
            "Ġinstr": 4860,
            "Ġl'h": 4861,
            "ĠÄĳÆ°á»Ŀng": 4862,
            "aza": 4863,
            "cep": 4864,
            "Ġmelakukan": 4865,
            "ather": 4866,
            "ä¿Ħ": 4867,
            "æł¹æį®": 4868,
            "ĠFrance": 4869,
            "ĠEt": 4870,
            "åĿ¡": 4871,
            "cont": 4872,
            "-h": 4873,
            "uff": 4874,
            "Ġpresidente": 4875,
            "field": 4876,
            "Ġwhile": 4877,
            "Ġshe": 4878,
            "NU": 4879,
            "Ġpartir": 4880,
            "Ġmasih": 4881,
            "Ġwithout": 4882,
            "crib": 4883,
            "Ã©ri": 4884,
            "ĠEnglish": 4885,
            "Ġåľ¨": 4886,
            "ä»ĸçļĦ": 4887,
            "/09": 4888,
            "Ġsupport": 4889,
            "For": 4890,
            "Ġview": 4891,
            "ĠBrasil": 4892,
            "ç¾¤": 4893,
            "gl": 4894,
            "åĵį": 4895,
            "Fr": 4896,
            "ç¸½": 4897,
            "Ġsuc": 4898,
            "lete": 4899,
            "Ġtay": 4900,
            "type": 4901,
            ")ĊĊ": 4902,
            "itza": 4903,
            "Ġsistema": 4904,
            "omen": 4905,
            "åīĩ": 4906,
            "}\\": 4907,
            "cs": 4908,
            "åĢ¼": 4909,
            "oca": 4910,
            "è¾ĥ": 4911,
            "ĠgÃ©nÃ©r": 4912,
            "ä¼¯": 4913,
            "Ġtá»ķ": 4914,
            "ape": 4915,
            "Ġestar": 4916,
            "æĬĢæľ¯": 4917,
            "angg": 4918,
            "é²": 4919,
            "Ġgood": 4920,
            "itats": 4921,
            "Ġgiá»Ŀ": 4922,
            "Ġestr": 4923,
            "ihan": 4924,
            "Ġprivate": 4925,
            "ges": 4926,
            "ç¾©": 4927,
            "Ġplay": 4928,
            "ĠphÃ¡t": 4929,
            "ches": 4930,
            "ĠJos": 4931,
            "åİ¿": 4932,
            "oso": 4933,
            "Ġbehar": 4934,
            "Ġsido": 4935,
            "left": 4936,
            "ecte": 4937,
            "unj": 4938,
            "cH": 4939,
            "abe": 4940,
            "è¯Ħ": 4941,
            "lin": 4942,
            "Ġindustr": 4943,
            "Ġtá»±": 4944,
            "Ġtáº¿": 4945,
            "Ġtet": 4946,
            "éļĽ": 4947,
            "Ġzeuden": 4948,
            "ĠsâĢĻ": 4949,
            "Ġdá»±": 4950,
            "-3": 4951,
            "[i": 4952,
            "usk": 4953,
            "Ġdá»¥ng": 4954,
            "EL": 4955,
            "erta": 4956,
            "Ġsej": 4957,
            "Los": 4958,
            "Ġchild": 4959,
            "cle": 4960,
            "Ġparam": 4961,
            "æĽ²": 4962,
            "Ġtá»Ľi": 4963,
            "ä¸įåĲĮ": 4964,
            "ecer": 4965,
            "usia": 4966,
            "ĠperÃ²": 4967,
            "é¡»": 4968,
            "ieu": 4969,
            "è®¤ä¸º": 4970,
            "Ġorg": 4971,
            "Ġenerg": 4972,
            "/s": 4973,
            "esp": 4974,
            "'ve": 4975,
            "Ġesper": 4976,
            "Ġlleg": 4977,
            "æĪĳçļĦ": 4978,
            "ĠMe": 4979,
            "æķĻèĤ²": 4980,
            "87": 4981,
            "è¦ģæ±Ĥ": 4982,
            "isiÃ³n": 4983,
            "ä¸Ńå¿ĥ": 4984,
            "á»©ng": 4985,
            "æ²Ĵ": 4986,
            "Åĭ": 4987,
            "rim": 4988,
            "lib": 4989,
            "å¡ŀ": 4990,
            "éģĵï¼ļãĢĮ": 4991,
            "iá»ĩp": 4992,
            "ĠSant": 4993,
            "isl": 4994,
            "ources": 4995,
            "ç§»": 4996,
            "ä½łçļĦ": 4997,
            "contr": 4998,
            "æ¾³": 4999,
            "çĻ»": 5000,
            "Ġsinh": 5001,
            "Ġ2021-202": 5002,
            "[]": 5003,
            "mit": 5004,
            "ĠviÃªn": 5005,
            "å¼ł": 5006,
            "ientes": 5007,
            "Nh": 5008,
            "Ġmuá»ĳn": 5009,
            "Ġexpress": 5010,
            "ified": 5011,
            "è¯Ĩ": 5012,
            "Item": 5013,
            "Ġgiá»¯": 5014,
            "........": 5015,
            "Ġesk": 5016,
            "y;&": 5017,
            "ç»§": 5018,
            "èĸ": 5019,
            "ound": 5020,
            "awa": 5021,
            "Man": 5022,
            "CC": 5023,
            "Ġperi": 5024,
            "ĠCam": 5025,
            "Ġtiáº¿ng": 5026,
            "hip": 5027,
            "Ġboth": 5028,
            "67": 5029,
            "Ġprint": 5030,
            "Ġtermin": 5031,
            "icio": 5032,
            "Ġrum": 5033,
            "Ġhuman": 5034,
            "è¿°": 5035,
            "elum": 5036,
            "ĠPort": 5037,
            "¯à§": 5038,
            "Ġbag": 5039,
            "Ġinclud": 5040,
            "à¥§à¥": 5041,
            "onstr": 5042,
            "42": 5043,
            "Ġmemiliki": 5044,
            "Ġud": 5045,
            "çļĦæĺ¯": 5046,
            "ä¾Ŀ": 5047,
            "Ġegit": 5048,
            "uras": 5049,
            "ä»į": 5050,
            "åŃ©": 5051,
            "åºŃ": 5052,
            "Ġcontrib": 5053,
            "åĸľ": 5054,
            "DS": 5055,
            "clus": 5056,
            "abor": 5057,
            "Ġdont": 5058,
            "ĠBarcelona": 5059,
            "ished": 5060,
            "èĻķ": 5061,
            "ustom": 5062,
            "çªģ": 5063,
            "ĠjÃ¡": 5064,
            "Ġmolt": 5065,
            "å»ºè®®": 5066,
            "ĠÃ©l": 5067,
            "Ġcatal": 5068,
            "mar": 5069,
            "ĠAng": 5070,
            "ĠReg": 5071,
            "Ġhu": 5072,
            "Ġbro": 5073,
            "ĠJo": 5074,
            "ende": 5075,
            "Ġbay": 5076,
            "ĠII": 5077,
            "ĠCommission": 5078,
            "math": 5079,
            "Ġchange": 5080,
            "å·²ç»ı": 5081,
            "çĬ¯": 5082,
            "Ġiss": 5083,
            "áº¡c": 5084,
            "ĠSep": 5085,
            "Ġapa": 5086,
            "EM": 5087,
            "print": 5088,
            "elo": 5089,
            ":[[": 5090,
            "ivid": 5091,
            "aÃ±a": 5092,
            "Ġpob": 5093,
            "Ġvaria": 5094,
            "Ġkey": 5095,
            "ĠPeng": 5096,
            "Ã¡ri": 5097,
            "§àŃ": 5098,
            "ĠhÃ¬nh": 5099,
            "åī¯": 5100,
            "Ġtar": 5101,
            "æĹ¥æľ¬": 5102,
            "icense": 5103,
            "åĿĩ": 5104,
            "ĠsÃ©": 5105,
            "Ġeduc": 5106,
            "éĦ": 5107,
            "Ġproduc": 5108,
            "Ġcountr": 5109,
            "Ġimportant": 5110,
            ":[[]]": 5111,
            "èĭ¥": 5112,
            "åįĩ": 5113,
            "ologia": 5114,
            "vant": 5115,
            "Ġintegr": 5116,
            "veis": 5117,
            "ctions": 5118,
            "è·Ł": 5119,
            "utan": 5120,
            "rain": 5121,
            "Ġuk": 5122,
            "äººåĳĺ": 5123,
            "Ġbeh": 5124,
            "ocr": 5125,
            "Ġmember": 5126,
            "éĽ·": 5127,
            "CO": 5128,
            "éļĬ": 5129,
            "s://": 5130,
            "Ġdonde": 5131,
            "Ġcompet": 5132,
            "åº·": 5133,
            "Ġsaja": 5134,
            "-me": 5135,
            "erb": 5136,
            "util": 5137,
            "rea": 5138,
            "idental": 5139,
            "æ¢Ŀ": 5140,
            "Ġfi": 5141,
            "ĠHow": 5142,
            "}{": 5143,
            "Ġmayor": 5144,
            "Ġbate": 5145,
            "uÃ©s": 5146,
            "5å¹´": 5147,
            "ws": 5148,
            "è¯ķ": 5149,
            "ç¼ĸ": 5150,
            "Éĳ": 5151,
            "ç¾İåĽ½": 5152,
            "Ġberk": 5153,
            "ily": 5154,
            "Ġsaid": 5155,
            "ĠSeg": 5156,
            "tro": 5157,
            "Ġgb": 5158,
            "Ġtiáº¿p": 5159,
            "åĵĪ": 5160,
            "æľįåĬ¡": 5161,
            "tat": 5162,
            "def": 5163,
            "Ġtit": 5164,
            "(),": 5165,
            "é¼": 5166,
            "E_": 5167,
            "How": 5168,
            "noinclude": 5169,
            "áº§m": 5170,
            "udio": 5171,
            "ulan": 5172,
            "Ġmunicip": 5173,
            "ience": 5174,
            "ium": 5175,
            "jer": 5176,
            "ĠMal": 5177,
            "Ġtrabal": 5178,
            "ird": 5179,
            "æĶ¿æ²»": 5180,
            "Ġkes": 5181,
            "ĠÂ¿": 5182,
            "By": 5183,
            "Ġavait": 5184,
            "0;": 5185,
            "ĠEstados": 5186,
            "åĨ³è®®": 5187,
            "angkan": 5188,
            "Ġmos": 5189,
            "æĭ¿": 5190,
            "bre": 5191,
            "izaciÃ³n": 5192,
            "tras": 5193,
            "Ġquando": 5194,
            "á»¹": 5195,
            "html": 5196,
            "tz": 5197,
            "eno": 5198,
            "Ġinformation": 5199,
            "bat": 5200,
            "Ġfuer": 5201,
            "item": 5202,
            "åĲī": 5203,
            "obil": 5204,
            "åĲĥ": 5205,
            "New": 5206,
            "Ġtrava": 5207,
            "Ġá¹£e": 5208,
            "iciÃ³": 5209,
            "á»įng": 5210,
            "åĭĴ": 5211,
            "Ġul": 5212,
            "arkan": 5213,
            "Ġbem": 5214,
            "ises": 5215,
            "èĲ¥": 5216,
            "ĠSet": 5217,
            "CH": 5218,
            "Ġfon": 5219,
            "Ġbá»Ļ": 5220,
            "Ġzuten": 5221,
            "erintah": 5222,
            "Ġkas": 5223,
            "-B": 5224,
            "Ġ2001": 5225,
            "Ã³g": 5226,
            "æĭ¼éŁ³:": 5227,
            "âĪĴ": 5228,
            "ä¸Ńåľĭ": 5229,
            "alth": 5230,
            "åºı": 5231,
            "urg": 5232,
            "aison": 5233,
            "ensa": 5234,
            "Ġperd": 5235,
            "If": 5236,
            "emplate": 5237,
            "41": 5238,
            "68": 5239,
            "çķ¥": 5240,
            "ĠyÃªu": 5241,
            "ĠBut": 5242,
            "6å¹´": 5243,
            "Ġlá»Ľ": 5244,
            "Ġdeix": 5245,
            "æıĲåĩº": 5246,
            "ares": 5247,
            "Ġkeb": 5248,
            "è¡¨ç¤º": 5249,
            "Ġjourn": 5250,
            "Ġfre": 5251,
            "id-19": 5252,
            "Ġváº«n": 5253,
            "è¿Ļä¸Ģ": 5254,
            "Ġpress": 5255,
            "æ¹¾": 5256,
            "Ġcamb": 5257,
            "Ġantes": 5258,
            "Ġexplic": 5259,
            "Ġbest": 5260,
            "æ²Ļ": 5261,
            "Ġfond": 5262,
            "voir": 5263,
            "çĽĳ": 5264,
            "è®¡åĪĴ": 5265,
            "ç¸£": 5266,
            "Ġsomething": 5267,
            "umber": 5268,
            "Ġtend": 5269,
            "çĽŁ": 5270,
            "amo": 5271,
            "æŃĮ": 5272,
            "sub": 5273,
            "td": 5274,
            "Ġåľĭ": 5275,
            "lang": 5276,
            "Ġple": 5277,
            "éħĴ": 5278,
            "å¦ĩå¥³": 5279,
            "Ġestab": 5280,
            "Ġ0x": 5281,
            "oles": 5282,
            "ĠsÃ³n": 5283,
            "AG": 5284,
            "ĠAc": 5285,
            "unia": 5286,
            "Ġlat": 5287,
            "ension": 5288,
            "ny": 5289,
            "isha": 5290,
            "Ġjud": 5291,
            "è¡Ģ": 5292,
            "Ġru": 5293,
            "oni": 5294,
            "è¯ī": 5295,
            "Ġopen": 5296,
            "Ġfun": 5297,
            "Ġstruct": 5298,
            "Ġnuest": 5299,
            "-èģ¯çĩŁ": 5300,
            "ulu": 5301,
            "è¥¿äºļ": 5302,
            "watch": 5303,
            "Ġproy": 5304,
            "Ġ!Ċ": 5305,
            "entro": 5306,
            "åħį": 5307,
            "Ġpuede": 5308,
            "esse": 5309,
            "Ġmesmo": 5310,
            "hy": 5311,
            "ç½²": 5312,
            "ning": 5313,
            "å®Ī": 5314,
            "NÃ£o": 5315,
            "åº§": 5316,
            "åĪ°äºĨ": 5317,
            "éĻĦ": 5318,
            "Ġmanera": 5319,
            "Ġaos": 5320,
            "rez": 5321,
            "ĠprÃ©s": 5322,
            "atiu": 5323,
            "BBI": 5324,
            "ĠSpace": 5325,
            "-C": 5326,
            "åºķ": 5327,
            "Ġbad": 5328,
            "å¿µ": 5329,
            "á»Ŀ": 5330,
            "ĠBe": 5331,
            "Ġlan": 5332,
            "Ġcapac": 5333,
            "ql": 5334,
            "æĶ»": 5335,
            "ains": 5336,
            "Ġbaru": 5337,
            "Ġä½ł": 5338,
            "Ġvie": 5339,
            "Ġprincipal": 5340,
            "åħħ": 5341,
            "éģĶ": 5342,
            "èĻŁ": 5343,
            "ä»»ä½ķ": 5344,
            "Ġmanif": 5345,
            "Ġmembuat": 5346,
            "Ġbáº£o": 5347,
            "Ġsamp": 5348,
            "Ġsize": 5349,
            "è®Ĭ": 5350,
            "åĪĽ": 5351,
            "utions": 5352,
            "åħļ": 5353,
            "index": 5354,
            "åħ¬éĩĮ": 5355,
            "ĠtrÃ¨s": 5356,
            "æĻ¯": 5357,
            "eles": 5358,
            "æŀģ": 5359,
            "uzten": 5360,
            "Ġcontinu": 5361,
            "ĠOs": 5362,
            "abu": 5363,
            "ä¿ĥ": 5364,
            "åĪ¤": 5365,
            "grama": 5366,
            "Ã¬m": 5367,
            "ç§¯": 5368,
            "Ã³ng": 5369,
            "ENT": 5370,
            "å¡Ķ": 5371,
            "iso": 5372,
            "åįļ": 5373,
            "acion": 5374,
            "ĠváºŃy": 5375,
            "åħ¸": 5376,
            "anding": 5377,
            "Ġbaik": 5378,
            "Ġanak": 5379,
            "Ġsous": 5380,
            "Ë¨": 5381,
            "Ġtop": 5382,
            "Ġ00": 5383,
            "Ġhacer": 5384,
            "ĠÃģ": 5385,
            "andid": 5386,
            "oro": 5387,
            "Ġpunt": 5388,
            "æĩī": 5389,
            "Ġcreate": 5390,
            "Ġaquesta": 5391,
            "Ġfazer": 5392,
            "Ġpode": 5393,
            "åľ°åĮº": 5394,
            "æĪĳåĢĳ": 5395,
            "urut": 5396,
            "http://": 5397,
            "54": 5398,
            "akat": 5399,
            "å¤§éĻĨ": 5400,
            "Ġdute": 5401,
            "ĠRes": 5402,
            "Ġcours": 5403,
            "inas": 5404,
            "Ġhingga": 5405,
            "ĠCal": 5406,
            "Ġestado": 5407,
            "Ġcuá»Ļc": 5408,
            "åĨ³å®ļ": 5409,
            "ç§ĺä¹¦": 5410,
            "å½±åĵį": 5411,
            "Ġgoing": 5412,
            "Form": 5413,
            "Ġwal": 5414,
            "ML": 5415,
            "/10": 5416,
            "Ġnay": 5417,
            "Ġste": 5418,
            "åķı": 5419,
            "è³½": 5420,
            "ituen": 5421,
            "Ġinfl": 5422,
            "ĠMed": 5423,
            "ograph": 5424,
            "ason": 5425,
            "ĠGe": 5426,
            "èĲ¬": 5427,
            "çĵ¦": 5428,
            "PO": 5429,
            "adre": 5430,
            "We": 5431,
            "conom": 5432,
            "asse": 5433,
            "åı«": 5434,
            "Ġ2004": 5435,
            "ince": 5436,
            "Ġalt": 5437,
            "ibles": 5438,
            ",Ġ(": 5439,
            "ology": 5440,
            "Ġbeber": 5441,
            "å¹«": 5442,
            "Ġlast": 5443,
            "äºī": 5444,
            "Ã¡l": 5445,
            "/C": 5446,
            "Ġvac": 5447,
            "Ġhá»Ļi": 5448,
            "Ä±": 5449,
            "áº¯m": 5450,
            "Sh": 5451,
            "Ġunivers": 5452,
            "'ai": 5453,
            "aneiro": 5454,
            "indow": 5455,
            "æ··": 5456,
            "viron": 5457,
            "Ã©ta": 5458,
            "ĠRugby": 5459,
            "fault": 5460,
            "Ng": 5461,
            "æĭħ": 5462,
            "Ġestat": 5463,
            "ased": 5464,
            "Ġeconom": 5465,
            "é½": 5466,
            "å»£": 5467,
            "é»ŀ": 5468,
            "Ġpermet": 5469,
            "á»ī": 5470,
            "æĪ·": 5471,
            "olo": 5472,
            "IR": 5473,
            "enye": 5474,
            "ÂŃ": 5475,
            "////////": 5476,
            "éģ¸": 5477,
            "Ġmeu": 5478,
            "ĠÃ¨": 5479,
            "ley": 5480,
            "ness": 5481,
            "Ġaccess": 5482,
            "oses": 5483,
            "Ġpodr": 5484,
            "Ġcontre": 5485,
            "Ġdeclar": 5486,
            "ases": 5487,
            "Æ°á»Ľng": 5488,
            "Ġconj": 5489,
            "-8": 5490,
            "Ġcual": 5491,
            "Ġneces": 5492,
            "å¯Į": 5493,
            "Ġobjet": 5494,
            "Ġkuwa": 5495,
            "äº²": 5496,
            "éĢģ": 5497,
            "Ġkom": 5498,
            "ĠUnited": 5499,
            "ĠÄĳo": 5500,
            "ĠpolÃŃtica": 5501,
            "è¿ŀ": 5502,
            "tains": 5503,
            "cos": 5504,
            "çĽĬ": 5505,
            "æĽ°": 5506,
            "ĠbÃł": 5507,
            "itial": 5508,
            "Ġej": 5509,
            "è§Ħå®ļ": 5510,
            "áº¡ch": 5511,
            "ç´Ħ": 5512,
            "uciÃ³n": 5513,
            "æ³ķå¾ĭ": 5514,
            "Ġsera": 5515,
            "Ġ2002": 5516,
            "Ġbao": 5517,
            "æĸ°åĬł": 5518,
            "æ²¹": 5519,
            "oral": 5520,
            "Ġnet": 5521,
            "uments": 5522,
            "Ġprojet": 5523,
            "éĻį": 5524,
            "Ġfis": 5525,
            "æĴŃ": 5526,
            "Ġtor": 5527,
            "imana": 5528,
            "_T": 5529,
            "Ġobserv": 5530,
            "Ġbá»ĩnh": 5531,
            "åĸ®": 5532,
            "åĲ¦": 5533,
            "iction": 5534,
            "ĠLos": 5535,
            "upakan": 5536,
            "Ġmaterial": 5537,
            "aha": 5538,
            "å¾ħ": 5539,
            "vos": 5540,
            "è¿Ļæł·": 5541,
            "Gr": 5542,
            "d::": 5543,
            "Ġresultados": 5544,
            "æĺ¾": 5545,
            "iy": 5546,
            "Ġverd": 5547,
            "æĸ°åĬłåĿ¡": 5548,
            "fs": 5549,
            "Ġpesso": 5550,
            "Ġcro": 5551,
            "Ġciv": 5552,
            "IV": 5553,
            "prÃ©s": 5554,
            "Ã´m": 5555,
            "Ġtanto": 5556,
            "æĸĩåĮĸ": 5557,
            "ients": 5558,
            "ä¸ĢèĪ¬": 5559,
            "uni": 5560,
            "èĽ": 5561,
            "Ġfet": 5562,
            "anÃ§a": 5563,
            "uls": 5564,
            "ĠFl": 5565,
            "unan": 5566,
            "bol": 5567,
            "ream": 5568,
            "Ġhaver": 5569,
            "irus": 5570,
            "ç¶²": 5571,
            "è´Ł": 5572,
            "Ġ35": 5573,
            "Ġdetermin": 5574,
            "Ġfour": 5575,
            "Ġpan": 5576,
            "iÃ§Ã£o": 5577,
            "ĠÃ²": 5578,
            "ono": 5579,
            "Ġkhu": 5580,
            "Ġatr": 5581,
            "Ġáº¹": 5582,
            "cription": 5583,
            "Ġm'": 5584,
            "Ġchá»§": 5585,
            "æī¹": 5586,
            "Ġencontr": 5587,
            "aires": 5588,
            "çł´": 5589,
            "='": 5590,
            "over": 5591,
            "Ġsangat": 5592,
            "ĠSystem": 5593,
            "á»Łi": 5594,
            "ĠquÃ¢n": 5595,
            "ril": 5596,
            "æīĺ": 5597,
            "ftware": 5598,
            "Ġge": 5599,
            "ĠCatalunya": 5600,
            "Ġfix": 5601,
            "Ġexc": 5602,
            "è£¡": 5603,
            "Ġko": 5604,
            "æİª": 5605,
            "Ġtry": 5606,
            "Ġmomento": 5607,
            "Ġguer": 5608,
            "Ġbil": 5609,
            "èŀ": 5610,
            "emÃ¡s": 5611,
            "Ġpolic": 5612,
            "åİĨ": 5613,
            "çĶŁæ´»": 5614,
            "äºĨä¸Ģ": 5615,
            "alaman": 5616,
            "æ´Ľ": 5617,
            "èŃ°": 5618,
            "ĠKitt": 5619,
            "Ġnhau": 5620,
            "Ġstat": 5621,
            "Ġcant": 5622,
            "63": 5623,
            "ä¸ĬçļĦ": 5624,
            "Ġselect": 5625,
            "å¿ħé¡»": 5626,
            "Ġlagi": 5627,
            "ĠConse": 5628,
            "ampion": 5629,
            "æĺ¯ä¸Ģ": 5630,
            "è¡Ĺ": 5631,
            "å¥ĩ": 5632,
            "Ġmáº·t": 5633,
            "Ġsecara": 5634,
            "Ġsav": 5635,
            "wal": 5636,
            "ĠJul": 5637,
            "US": 5638,
            "Ġindivid": 5639,
            "omet": 5640,
            "ĠPeak": 5641,
            "ĠphÃ¡p": 5642,
            "occ": 5643,
            "æĪĲä¸º": 5644,
            "ĠLem": 5645,
            "Ġedo": 5646,
            "ĠchÆ°a": 5647,
            "ĠCop": 5648,
            "Ġnah": 5649,
            "Ġbelum": 5650,
            "tica": 5651,
            "Ġcri": 5652,
            "Ġdesen": 5653,
            "Ġgan": 5654,
            "Ġjava": 5655,
            "åĸĦ": 5656,
            "Ġbreak": 5657,
            "ÑģÑĤ": 5658,
            "_n": 5659,
            "ingo": 5660,
            "ç¿»": 5661,
            "Ġnormal": 5662,
            "84": 5663,
            "encias": 5664,
            "Ġstill": 5665,
            "Si": 5666,
            "Ġetc": 5667,
            "quÃ¨": 5668,
            "çĬ¶": 5669,
            "emple": 5670,
            "åŃ£": 5671,
            "azo": 5672,
            "Ġquien": 5673,
            "Ġvalues": 5674,
            "Ġatas": 5675,
            "ç¬¬ä¸ī": 5676,
            "åħĪçĶŁ": 5677,
            "LO": 5678,
            "ĠphÃ²ng": 5679,
            "çļ®": 5680,
            "ĠprÃ©sent": 5681,
            "éĨ": 5682,
            "Ġcáº¥p": 5683,
            "Ġfar": 5684,
            "es:": 5685,
            "uah": 5686,
            "Ġcáº§n": 5687,
            "ugg": 5688,
            "Event": 5689,
            "IG": 5690,
            "erd": 5691,
            "ĠIN": 5692,
            "å±Ĭ": 5693,
            "Ġnatural": 5694,
            "tan": 5695,
            "Ġenf": 5696,
            "ĠDr": 5697,
            "Ġjur": 5698,
            "Ġleurs": 5699,
            "ived": 5700,
            "Ġrele": 5701,
            "ä¿¡æģ¯": 5702,
            "Ġ80": 5703,
            "Ġcao": 5704,
            "enci": 5705,
            "æı´": 5706,
            "73": 5707,
            "Ġjorn": 5708,
            "adrid": 5709,
            "Ġtyp": 5710,
            "Ġwan": 5711,
            "èĺŃ": 5712,
            "ĠUN": 5713,
            "Ġpag": 5714,
            "arri": 5715,
            "æŀ¶": 5716,
            "chi": 5717,
            "èĪª": 5718,
            "å¿Ĺ": 5719,
            "const": 5720,
            "erah": 5721,
            "ateix": 5722,
            "Ġcel": 5723,
            "atro": 5724,
            "ä¸»ä¹ī": 5725,
            "Ġstate": 5726,
            "ä½ľä¸º": 5727,
            "åķĬ": 5728,
            "ä¹ħ": 5729,
            "åħ¬çº¦": 5730,
            "Ġbáº±ng": 5731,
            "Ġkil": 5732,
            "Ġmengh": 5733,
            "PA": 5734,
            "Ġbeberapa": 5735,
            "atives": 5736,
            "62": 5737,
            "Ġsector": 5738,
            "Ġhttp://": 5739,
            "ĠthÆ°á»Ŀng": 5740,
            "æľ¨": 5741,
            "oud": 5742,
            "Ġfuncion": 5743,
            "åĮºåŁŁ": 5744,
            "Class": 5745,
            "Ġcarr": 5746,
            "omin": 5747,
            "Ġuno": 5748,
            "Ġsmall": 5749,
            "aps": 5750,
            "ĠQuá»ĳc": 5751,
            "Ġhid": 5752,
            "éļı": 5753,
            "Ġmand": 5754,
            "ĠãĢĲ": 5755,
            "aven": 5756,
            "ĠÃ¡n": 5757,
            "wer": 5758,
            "Ġcy": 5759,
            "æĻļ": 5760,
            "Ġ---": 5761,
            "Ġbes": 5762,
            "Ġdá»ĭch": 5763,
            "Ġen:": 5764,
            "Ġbáº£n": 5765,
            "åħĴ": 5766,
            "Ã±a": 5767,
            "rait": 5768,
            "Â¿": 5769,
            "empo": 5770,
            "ĠSpacewatch": 5771,
            "çĶ¢": 5772,
            "Ġjam": 5773,
            "å°Ħ": 5774,
            "cu": 5775,
            "á»įc": 5776,
            "52": 5777,
            "ç¥¨": 5778,
            "box": 5779,
            "Ġanother": 5780,
            "åģľ": 5781,
            "ĠthÆ°Æ¡ng": 5782,
            "ĠserÃ¡": 5783,
            "ĠDec": 5784,
            "æĸ¹æ³ķ": 5785,
            "Ġrev": 5786,
            "á»³": 5787,
            "éĿ©": 5788,
            "ĠCov": 5789,
            "Ġfins": 5790,
            "Error": 5791,
            "å¹´ï¼Ī": 5792,
            "æ¯Ĵ": 5793,
            "EC": 5794,
            "åħ±åĴĮ": 5795,
            "Ġimage": 5796,
            "ius": 5797,
            "Dis": 5798,
            "å¤§çļĦ": 5799,
            "object": 5800,
            "ĠLicense": 5801,
            "Ġconsid": 5802,
            "åĩı": 5803,
            "Ġhart": 5804,
            "izaÃ§Ã£o": 5805,
            "åĿ¦": 5806,
            "void": 5807,
            "uman": 5808,
            "ĠRo": 5809,
            "atar": 5810,
            "loat": 5811,
            "áº©m": 5812,
            "ples": 5813,
            "ĠtrÃ¬nh": 5814,
            "Ġ@param": 5815,
            "argo": 5816,
            "Ġconcern": 5817,
            "è§ī": 5818,
            "Ġsob": 5819,
            "ĠSc": 5820,
            "Ġquant": 5821,
            "ĠSem": 5822,
            "å£°": 5823,
            "onse": 5824,
            "âĢ²": 5825,
            "æ¨Ĥ": 5826,
            "Ġmengatakan": 5827,
            "Ġxe": 5828,
            "å¤§åŃ¦": 5829,
            "å·¦": 5830,
            "çľ¼": 5831,
            "ĠÄĳÃ¢u": 5832,
            "yd": 5833,
            "ĠJan": 5834,
            "ĠNacional": 5835,
            "ouvern": 5836,
            "Ä«": 5837,
            "ĠbÃªn": 5838,
            "pre": 5839,
            "Ġthree": 5840,
            "å·®": 5841,
            "èĥ½åĬĽ": 5842,
            "Ġ2021:": 5843,
            "«a": 5844,
            "Ġandroid": 5845,
            "Ġtreball": 5846,
            "Ġgot": 5847,
            "url": 5848,
            "Î±": 5849,
            "æľīä¸Ģ": 5850,
            "å¼µ": 5851,
            "imos": 5852,
            "cies": 5853,
            "Ġyears": 5854,
            "çµĦ": 5855,
            "inte": 5856,
            "ential": 5857,
            "æµĭ": 5858,
            "Ġimag": 5859,
            "Ġtodas": 5860,
            "æ¬§": 5861,
            "é¢Ŀ": 5862,
            "ĠBel": 5863,
            "Ġmerupakan": 5864,
            "ĠtÃ©": 5865,
            "Ġextr": 5866,
            "ĠestÃ¡n": 5867,
            "ĠquÃ¡": 5868,
            "Par": 5869,
            "Ġquyá»ģn": 5870,
            ".Ċ(": 5871,
            "izo": 5872,
            "aje": 5873,
            "ault": 5874,
            "Ġperform": 5875,
            "å½ķ": 5876,
            "Ġcompar": 5877,
            "Ġl'Ã©": 5878,
            "Ġlay": 5879,
            "ony": 5880,
            "ĠPublic": 5881,
            "ĠMart": 5882,
            "atre": 5883,
            "Ġrad": 5884,
            "Ġcharg": 5885,
            "umlah": 5886,
            "Ġcompl": 5887,
            "æ§": 5888,
            "çĶ³": 5889,
            "æ´ĭ": 5890,
            "Ġked": 5891,
            "Ġkor": 5892,
            "Ġsemb": 5893,
            "ä»ĸåĢĳ": 5894,
            "ĠMr": 5895,
            "input": 5896,
            "uyá»ģn": 5897,
            "ĠbÃ¡o": 5898,
            "çµĲ": 5899,
            "isis": 5900,
            "$this->": 5901,
            "Ġanos": 5902,
            "odes": 5903,
            "Pr": 5904,
            "Ġtahu": 5905,
            "Ġsignific": 5906,
            "Ġvos": 5907,
            "ulier": 5908,
            "ĠmÃ£": 5909,
            "Ġcasos": 5910,
            "uck": 5911,
            "Ġciudad": 5912,
            "Ġbene": 5913,
            "åįł": 5914,
            "Ġlalu": 5915,
            "encial": 5916,
            "Ġuns": 5917,
            "Ġsegu": 5918,
            "ä¿ĿæĬ¤": 5919,
            "åľ°æĸ¹": 5920,
            "kar": 5921,
            "Ġbarr": 5922,
            "alse": 5923,
            "åĳ¢": 5924,
            "'ll": 5925,
            "Ġarticle": 5926,
            "Ġerr": 5927,
            "ĠÃ½": 5928,
            "Ġcertain": 5929,
            "Éª": 5930,
            "Ġindepend": 5931,
            "12æľĪ": 5932,
            "Ãºncia": 5933,
            "Ġencore": 5934,
            "Ġd'aquest": 5935,
            "Sp": 5936,
            "Ġrapport": 5937,
            "indo": 5938,
            "æ¬¢": 5939,
            "-f": 5940,
            "æ³¨æĦı": 5941,
            "VID": 5942,
            "ĠÐ¿": 5943,
            "Ġposition": 5944,
            "ĠJohn": 5945,
            "Ġminist": 5946,
            "æĹ¥åł±": 5947,
            "div>": 5948,
            "Ë©": 5949,
            "é©¬æĿ¥": 5950,
            "ĠbÃ©": 5951,
            "emahan": 5952,
            "ĠAN": 5953,
            "Ġ70": 5954,
            "Ġterc": 5955,
            "Ġnacional": 5956,
            "Ġpand": 5957,
            "Ġurte": 5958,
            "Ġmejor": 5959,
            "Ġpersonne": 5960,
            "74": 5961,
            "ĠLib": 5962,
            "Ġmass": 5963,
            "å¤§ä¼ļ": 5964,
            "ç¶Ń": 5965,
            "abar": 5966,
            "ĠâĢĻ": 5967,
            "Ã¨r": 5968,
            "[0]": 5969,
            "erri": 5970,
            "ĠhÃ¡": 5971,
            "Ġdirig": 5972,
            "Ġmultip": 5973,
            "âĢİ": 5974,
            "oco": 5975,
            "Ġdua": 5976,
            "Time": 5977,
            "Ġelectr": 5978,
            "å¾®": 5979,
            "áº©n": 5980,
            "ĠdÃ©s": 5981,
            "rel": 5982,
            "Ġsan": 5983,
            "Ġsáº£n": 5984,
            "Lo": 5985,
            "èĵ": 5986,
            "å¤Ł": 5987,
            "åºĹ": 5988,
            "ifica": 5989,
            "Ġub": 5990,
            "Ġsept": 5991,
            "ĠatÃ©": 5992,
            "ĠSu": 5993,
            "Ġvá»ĭ": 5994,
            "Ġrequest": 5995,
            "vas": 5996,
            "ĠGobierno": 5997,
            "Ġara": 5998,
            "Ġ(!": 5999,
            "ling": 6000,
            "ĠÃ§a": 6001,
            "ither": 6002,
            "ä»ĭ": 6003,
            "éķĩ": 6004,
            "uku": 6005,
            "ĊĊĠĠĠĠĠĠĠĠĠĠĠ": 6006,
            "ĠDan": 6007,
            "å¸«": 6008,
            "éº¼": 6009,
            "izado": 6010,
            "run": 6011,
            "Ġtrá»Ł": 6012,
            "åłĤ": 6013,
            "ists": 6014,
            "DA": 6015,
            "åı³": 6016,
            "ĠUr": 6017,
            "kh": 6018,
            "çĶļ": 6019,
            "Ġcele": 6020,
            "pi": 6021,
            "ibu": 6022,
            "Ã³Ì£n": 6023,
            "á»«ng": 6024,
            "Ġbesar": 6025,
            "Ġpath": 6026,
            "Ġingin": 6027,
            "ä¼ģ": 6028,
            "ĠÄĳá»ķ": 6029,
            "Ġcandid": 6030,
            "Ġbáº¯t": 6031,
            "Ġfilm": 6032,
            "ways": 6033,
            "Ġworld": 6034,
            "çģ£": 6035,
            "Ġbak": 6036,
            "ĠPat": 6037,
            "å¹«åĬ©": 6038,
            "Ġgiven": 6039,
            "erm": 6040,
            "çĶ°": 6041,
            "Ġassoci": 6042,
            "çļĩ": 6043,
            "è¿Ļç§į": 6044,
            "ĠMount": 6045,
            "iá»ħn": 6046,
            "Ġcáº§u": 6047,
            "eni": 6048,
            "db": 6049,
            "onav": 6050,
            "ĠCr": 6051,
            "xe": 6052,
            "Ġkemb": 6053,
            "Ġagainst": 6054,
            "å»ºç«ĭ": 6055,
            "ention": 6056,
            "Ġprepar": 6057,
            "Ġkar": 6058,
            "ĠAll": 6059,
            "iago": 6060,
            "Ġconsum": 6061,
            "Ġquá»ĳc": 6062,
            "ĠThere": 6063,
            "valu": 6064,
            "ically": 6065,
            "Ġsemua": 6066,
            "áº§y": 6067,
            "çĲĨäºĭ": 6068,
            "Ġ2003": 6069,
            "é©¬æĿ¥è¥¿äºļ": 6070,
            "ä¹ł": 6071,
            "array": 6072,
            "ÃŃd": 6073,
            "Ġoffic": 6074,
            "Ġhabit": 6075,
            "åĪ¥": 6076,
            "61": 6077,
            "Ġsil": 6078,
            "ĠAS": 6079,
            "ĠGoogle": 6080,
            "->get": 6081,
            "ackage": 6082,
            "Ġstand": 6083,
            "72": 6084,
            "ç»Ĩ": 6085,
            "Ġvalor": 6086,
            "èģŀ": 6087,
            "--------------------------------": 6088,
            "åį«": 6089,
            "Men": 6090,
            "/202": 6091,
            "è¯į": 6092,
            "ĠpaÃŃses": 6093,
            "RO": 6094,
            "çĥŃ": 6095,
            "ĠPart": 6096,
            "Ġlá»Ľn": 6097,
            "Act": 6098,
            "ĠMen": 6099,
            "äººæĿĥ": 6100,
            "ä¸ŃåĽ½å¤§éĻĨ": 6101,
            "move": 6102,
            "Ġkáº¿t": 6103,
            "èªį": 6104,
            "iwa": 6105,
            "Ġexpect": 6106,
            "rix": 6107,
            "ĠKam": 6108,
            "æ¹ĸ": 6109,
            "Ġlink": 6110,
            "Ġqued": 6111,
            "ospital": 6112,
            "Ġdonc": 6113,
            "lick": 6114,
            "Ġpern": 6115,
            "Ġpropert": 6116,
            "Ġcentral": 6117,
            "Ġsit": 6118,
            "ä¹Łæĺ¯": 6119,
            "81": 6120,
            "æĿĢ": 6121,
            "iako": 6122,
            "Ġpac": 6123,
            "Ġxuáº¥t": 6124,
            "Ġprote": 6125,
            "Ġmonde": 6126,
            "å´": 6127,
            "Ġown": 6128,
            "rir": 6129,
            "Ġimportante": 6130,
            "çīĻ": 6131,
            "Ġmanifest": 6132,
            "Ġpersonal": 6133,
            "83": 6134,
            "qu'": 6135,
            "ĠrÃ©sult": 6136,
            "ĠWikipedia": 6137,
            "/**": 6138,
            "Ġ32": 6139,
            "ĠDis": 6140,
            "gent": 6141,
            "ĠApr": 6142,
            "_name": 6143,
            "Ġyo": 6144,
            "Ġdemand": 6145,
            "Ġhace": 6146,
            "æĸ¹å¼ı": 6147,
            "ĠAfr": 6148,
            "PS": 6149,
            "from": 6150,
            "mero": 6151,
            "oman": 6152,
            "#include": 6153,
            "ĠIr": 6154,
            "Ġconfig": 6155,
            "ploy": 6156,
            "æ¨£": 6157,
            "åĬª": 6158,
            ",ĊĠĠĠĠĠĠĠ": 6159,
            "ĠdÃ©velop": 6160,
            "ĠtÃ¢m": 6161,
            "ĠDon": 6162,
            "åĲ¬": 6163,
            "ĠÃºn": 6164,
            "Ġaction": 6165,
            "ĠWh": 6166,
            "uga": 6167,
            "Ġ/**": 6168,
            "-201": 6169,
            "Ġlitt": 6170,
            "ponse": 6171,
            "áº£nh": 6172,
            "tera": 6173,
            "abase": 6174,
            "ĠRp": 6175,
            "īnh": 6176,
            "Ġday": 6177,
            "åĨĻ": 6178,
            "ĠlÃ²ng": 6179,
            "java": 6180,
            "éĬ": 6181,
            "Ġrepr": 6182,
            "ä¼¼": 6183,
            "web": 6184,
            "itud": 6185,
            "Ġdez": 6186,
            "Ass": 6187,
            "Ġanys": 6188,
            "thing": 6189,
            "Ġtorn": 6190,
            "aise": 6191,
            "Êĥ": 6192,
            "Ġotros": 6193,
            "Ġná»¯a": 6194,
            "å±¬": 6195,
            "bit": 6196,
            "Ġdonn": 6197,
            "ĠDE": 6198,
            "åģ¥": 6199,
            ".Ġ.": 6200,
            "Ġproced": 6201,
            "001": 6202,
            "Ġsk": 6203,
            "agaimana": 6204,
            "åĪĳ": 6205,
            "hib": 6206,
            "Ġgas": 6207,
            "ries": 6208,
            "Ġach": 6209,
            "Ġmau": 6210,
            "Ġdijo": 6211,
            "åĨľ": 6212,
            "čĊĉĉĉ": 6213,
            "Ġlig": 6214,
            "ä¼Ĺ": 6215,
            "éĢĢ": 6216,
            "čĊĠ": 6217,
            "Ġcomplet": 6218,
            "71": 6219,
            "çºª": 6220,
            "ervice": 6221,
            "æŁĲ": 6222,
            "Ġsá»Ń": 6223,
            "iller": 6224,
            "enz": 6225,
            "Ġdilakukan": 6226,
            "oka": 6227,
            "æĶ¿çŃĸ": 6228,
            "82": 6229,
            "uba": 6230,
            "raz": 6231,
            "ayo": 6232,
            "Ġgian": 6233,
            "Ġbig": 6234,
            "è´¢": 6235,
            "éªĮ": 6236,
            "ËĮ": 6237,
            "çĶ±äºİ": 6238,
            "entz": 6239,
            "Ġlá»±c": 6240,
            "Bl": 6241,
            "åĭĻ": 6242,
            "Ġchuyá»ĩn": 6243,
            "ords": 6244,
            "Ġmateix": 6245,
            "ĠvÃŃ": 6246,
            "å¸®": 6247,
            "Ġainsi": 6248,
            "Ġbeste": 6249,
            "Ġpret": 6250,
            "ĠnÃ©": 6251,
            "Ġconoc": 6252,
            "Ġapar": 6253,
            "æĹ¶åĢĻ": 6254,
            "Ġä¸Ń": 6255,
            "Key": 6256,
            "ï¼ĮĊ": 6257,
            "alo": 6258,
            "Ġsta": 6259,
            "itions": 6260,
            "ĠtoÃłn": 6261,
            "Ġbaina": 6262,
            "Ġtentang": 6263,
            "éĥ½æĺ¯": 6264,
            "inos": 6265,
            "Control": 6266,
            "Ġchuy": 6267,
            "Ġcapital": 6268,
            "qual": 6269,
            "æĸĩä»¶": 6270,
            "iendo": 6271,
            "Ġ\\;": 6272,
            "ĠtÃŃnh": 6273,
            "åı°æ¹¾": 6274,
            "ĠDo": 6275,
            "usan": 6276,
            "ocument": 6277,
            "Ð·": 6278,
            "è©ŀ": 6279,
            "test": 6280,
            "ĠUT": 6281,
            "hos": 6282,
            "ĠTur": 6283,
            "ego": 6284,
            "èĩªçĶ±": 6285,
            "imu": 6286,
            "å¹³æĸ¹": 6287,
            "ĠÄĳáº¡i": 6288,
            "æģ©": 6289,
            "ç»§ç»Ń": 6290,
            "uela": 6291,
            "500": 6292,
            "Ġdois": 6293,
            "ided": 6294,
            "uso": 6295,
            "ĠHÃł": 6296,
            "ungkin": 6297,
            "iros": 6298,
            "Ġainda": 6299,
            "Ġfu": 6300,
            "off": 6301,
            "Ġbuild": 6302,
            "unes": 6303,
            "atura": 6304,
            "emia": 6305,
            "ĠasÃŃ": 6306,
            "arren": 6307,
            "åĽ´": 6308,
            "ĠÃ©gal": 6309,
            "åıĥ": 6310,
            "Ġask": 6311,
            "ĀĀ": 6312,
            "ĠvocÃª": 6313,
            "Ġimpl": 6314,
            "inst": 6315,
            "ĠdÃŃa": 6316,
            "Ġsepar": 6317,
            "Ġsempre": 6318,
            "çº¢": 6319,
            "erst": 6320,
            "ĠMy": 6321,
            "é¬": 6322,
            "Ġcontain": 6323,
            "ĠMadrid": 6324,
            "æ¤": 6325,
            "Ġdic": 6326,
            "åª": 6327,
            "īà¬": 6328,
            "çĿ£": 6329,
            "éĺ³": 6330,
            "ĠLemmon": 6331,
            "âĢĻs": 6332,
            "ĠSch": 6333,
            "éİ": 6334,
            "ĠParis": 6335,
            "-n": 6336,
            "Ġmiss": 6337,
            "ĠNations": 6338,
            "Ġcorrespond": 6339,
            "Ġwater": 6340,
            "Ġnd": 6341,
            "Ġglobal": 6342,
            "Â·l": 6343,
            "æķ°æį®": 6344,
            "Ġny": 6345,
            "æ°ı": 6346,
            "Ġoblig": 6347,
            "éĿŀå¸¸": 6348,
            "Ġperiod": 6349,
            "Ġfur": 6350,
            "forme": 6351,
            "Ġante": 6352,
            "Ġl'A": 6353,
            "erca": 6354,
            "èį¯": 6355,
            "Ġtiá»ģn": 6356,
            "Ã¨g": 6357,
            "Ġcompos": 6358,
            "-v": 6359,
            "ĠseÃ±": 6360,
            "Ġsolo": 6361,
            "Ãºp": 6362,
            "å®ĺè©±": 6363,
            "Field": 6364,
            "tings": 6365,
            "Åį": 6366,
            "Ġcommand": 6367,
            "Ġgarant": 6368,
            "ĠMa": 6369,
            "amar": 6370,
            "aile": 6371,
            "æ³¨éŁ³": 6372,
            "Ã³a": 6373,
            "Ġmap": 6374,
            "ç»Ī": 6375,
            "ĠMo": 6376,
            "Ġcirc": 6377,
            "Ã©en": 6378,
            "yarakat": 6379,
            "æķĳ": 6380,
            "illes": 6381,
            "query": 6382,
            "7æľĪ": 6383,
            "akin": 6384,
            "åĲ«": 6385,
            "ongo": 6386,
            "Ġmeas": 6387,
            "ä¸»å¸Ń": 6388,
            "æ»¡": 6389,
            "Ñĩ": 6390,
            "ĠlÆ°á»£ng": 6391,
            "åĴĮå¹³": 6392,
            "Sel": 6393,
            "Ġprograma": 6394,
            "è¤": 6395,
            "åĲĮæĹ¶": 6396,
            "åĦ¿ç«¥": 6397,
            "Ġ90": 6398,
            "ĠÄĳá»Ŀi": 6399,
            "ART": 6400,
            "ĠPem": 6401,
            "oba": 6402,
            "Ġsuiv": 6403,
            "s\"": 6404,
            "ĠperquÃ¨": 6405,
            "Ġduring": 6406,
            "Ġbagi": 6407,
            "oint": 6408,
            "Ġtx": 6409,
            "æĬĹ": 6410,
            "Ġcara": 6411,
            "gress": 6412,
            "ecn": 6413,
            "Ġils": 6414,
            "indows": 6415,
            "éĲ": 6416,
            "s'": 6417,
            "Ġcorrect": 6418,
            "Ġkec": 6419,
            "ĠOl": 6420,
            "á»ĥn": 6421,
            "Ġdesign": 6422,
            "çĶ²": 6423,
            "áº£m": 6424,
            "Ġcell": 6425,
            "Ġinput": 6426,
            "ä»ĺ": 6427,
            "Ġservice": 6428,
            "ham": 6429,
            "ĠTrung": 6430,
            "áº£y": 6431,
            "åıĮ": 6432,
            "Ġfort": 6433,
            "éļĨ": 6434,
            "itude": 6435,
            "Ġlá»Ŀi": 6436,
            "æ°¸": 6437,
            "æļ´": 6438,
            "Ġrumah": 6439,
            "size": 6440,
            "Ġvai": 6441,
            "Ġkembali": 6442,
            "ar-": 6443,
            "aves": 6444,
            "Ġsama": 6445,
            "å°½": 6446,
            "engo": 6447,
            "çĭ¬": 6448,
            "onavirus": 6449,
            "Ġabove": 6450,
            "aban": 6451,
            "æĹħ": 6452,
            "è½½": 6453,
            "DB": 6454,
            "Info": 6455,
            "Ġláº§n": 6456,
            "ĠÄĳÆ°a": 6457,
            "Ġsense": 6458,
            "Ġn'est": 6459,
            "Ã©ment": 6460,
            "Ġcalled": 6461,
            "Ġautres": 6462,
            "Ġhapp": 6463,
            "uego": 6464,
            "6æľĪ": 6465,
            "ING": 6466,
            "Ġspe": 6467,
            "anga": 6468,
            "Ġaplic": 6469,
            "ä¼ĺ": 6470,
            "ĠUnidos": 6471,
            "page": 6472,
            "Ġsá»ĳng": 6473,
            "urity": 6474,
            "iran": 6475,
            "anger": 6476,
            "Ġleft": 6477,
            "å®Ŀ": 6478,
            "ç¼Ķ": 6479,
            "æ£®": 6480,
            "ç£": 6481,
            "ards": 6482,
            "-k": 6483,
            "ĠtÃ¡c": 6484,
            "čĊĠĠĠĠĠĠĠĠĠĠĠ": 6485,
            "Ġthá»§": 6486,
            "Ġdut": 6487,
            "èĭı": 6488,
            "ç°": 6489,
            "æ°£": 6490,
            "Ġtransform": 6491,
            "ĠEnglish:": 6492,
            "Ġcorr": 6493,
            "Ġgol": 6494,
            "ube": 6495,
            "ĠEstado": 6496,
            "èĪ¹": 6497,
            "95": 6498,
            ":ãĦ": 6499,
            "é¢¨": 6500,
            "orre": 6501,
            "ĠtÃ¬m": 6502,
            "itive": 6503,
            "ĠÉ": 6504,
            "æİĪ": 6505,
            "Ġzit": 6506,
            "ercial": 6507,
            "Pl": 6508,
            "ÑĢÐ°": 6509,
            "iba": 6510,
            "ä½ľçĶ¨": 6511,
            "ategory": 6512,
            "Ġpil": 6513,
            "å¾ĹåĪ°": 6514,
            "Ġnuevo": 6515,
            "gar": 6516,
            "bles": 6517,
            "ĠCont": 6518,
            "crit": 6519,
            "Ġquyáº¿t": 6520,
            "lation": 6521,
            "èĨ": 6522,
            "emen": 6523,
            "\"]": 6524,
            "Ġditu": 6525,
            "-4": 6526,
            "Ġmur": 6527,
            "asun": 6528,
            "Ġtempo": 6529,
            "å¤®": 6530,
            "Ġcontent": 6531,
            "ifier": 6532,
            "ĠnÆ¡i": 6533,
            "udian": 6534,
            "Ġsalah": 6535,
            "Ġese": 6536,
            "Ġnext": 6537,
            "Ġ45": 6538,
            "/199": 6539,
            "uses": 6540,
            "ĠĠĠĠĠĠĠĠĠĠĠĠĠĠĠ": 6541,
            "Ġeuros": 6542,
            "_M": 6543,
            "9æľĪ": 6544,
            "Ġdern": 6545,
            "Ġtrois": 6546,
            "ee": 6547,
            "åħ»": 6548,
            "Ġhavia": 6549,
            "ground": 6550,
            "ç¾İåħĥ": 6551,
            "Ġarm": 6552,
            "Ġhoras": 6553,
            "èĢĮä¸Ķ": 6554,
            "Ġescol": 6555,
            "è¿Ļæĺ¯": 6556,
            "èĤ¡": 6557,
            "Ġtoda": 6558,
            "Ġsuis": 6559,
            "ison": 6560,
            "çĳŀ": 6561,
            "indic": 6562,
            "eo": 6563,
            "æłĩåĩĨåŃĹ": 6564,
            "eli": 6565,
            "202": 6566,
            "Ġnegara": 6567,
            "Ġtiempo": 6568,
            "adora": 6569,
            "ieux": 6570,
            "iáº¿u": 6571,
            "older": 6572,
            "ĠAf": 6573,
            "Ġturn": 6574,
            "Ġbukan": 6575,
            "Ġproyect": 6576,
            "Ġoh": 6577,
            "Ġresults": 6578,
            "ieve": 6579,
            "æģĲ": 6580,
            "èİ·å¾Ĺ": 6581,
            "group": 6582,
            "dic": 6583,
            "ĠÄĳá»©": 6584,
            "Ġkont": 6585,
            "ĠPen": 6586,
            "gn": 6587,
            "å¼Ł": 6588,
            "iera": 6589,
            "ursos": 6590,
            "result": 6591,
            "Ġ2021-2022:": 6592,
            "Ġnature": 6593,
            "Ġcolor": 6594,
            "Ġnav": 6595,
            "ibo": 6596,
            "Ġsac": 6597,
            "Ġcrit": 6598,
            "Ġalgo": 6599,
            "ibun": 6600,
            "Ġkinh": 6601,
            "ĠÄĳáº¥t": 6602,
            "æĢģ": 6603,
            "å¢ŀåĬł": 6604,
            "ride": 6605,
            "lim": 6606,
            "Ġrend": 6607,
            "å²Ľ": 6608,
            "Ġonde": 6609,
            "å°ļ": 6610,
            "ä¸¥": 6611,
            "Ġaqui": 6612,
            "Ġwrit": 6613,
            "iez": 6614,
            "åĹ": 6615,
            "Ġcomunic": 6616,
            "igu": 6617,
            "Cre": 6618,
            "Ġbit": 6619,
            "Ġfalse;": 6620,
            "uti": 6621,
            "Ġwithin": 6622,
            "lam": 6623,
            "abel": 6624,
            "agem": 6625,
            "Ġnada": 6626,
            "ĠGi": 6627,
            "Ġmajor": 6628,
            "Ġwaktu": 6629,
            "Ð¹": 6630,
            "Ġfic": 6631,
            "ĠnhiÃªn": 6632,
            "ready": 6633,
            "Ġsimilar": 6634,
            "ÊĴ": 6635,
            "Ġespec": 6636,
            "segur": 6637,
            "Element": 6638,
            "ĠÃ©ta": 6639,
            "Ġprior": 6640,
            "Ġsource": 6641,
            "Ã²a": 6642,
            "çĲĨäºĭä¼ļ": 6643,
            "can": 6644,
            "option": 6645,
            "Ġmight": 6646,
            "Ġ`": 6647,
            "terior": 6648,
            "çĴ": 6649,
            "Ġdesenvol": 6650,
            "ĠtÃłi": 6651,
            "Ġappe": 6652,
            "parent": 6653,
            "é¾Ļ": 6654,
            "éĻ©": 6655,
            "ç¦ģ": 6656,
            "é¡ŀ": 6657,
            "ä¹ĭåĲİ": 6658,
            "Ġefect": 6659,
            "tex": 6660,
            "ĠNeg": 6661,
            "ids": 6662,
            "èī¾": 6663,
            "Mas": 6664,
            "éłĺ": 6665,
            "Ġreally": 6666,
            "Ġdouble": 6667,
            "Ġtransport": 6668,
            "Ġsampai": 6669,
            "åĬ¿": 6670,
            "ograf": 6671,
            "ĠAct": 6672,
            "ĠtÃªn": 6673,
            "æĺ¥": 6674,
            "Ġpháº§n": 6675,
            "atos": 6676,
            "Ġep": 6677,
            "article": 6678,
            "Ġjan": 6679,
            "length": 6680,
            "ĠIng": 6681,
            "Ġ__": 6682,
            "æĢİä¹Ī": 6683,
            "Ġsoit": 6684,
            "Ã±os": 6685,
            "BN": 6686,
            "ĠgiÃ¡": 6687,
            "anti": 6688,
            "ĠLo": 6689,
            "ajo": 6690,
            "Ġtipo": 6691,
            "ĠYork": 6692,
            "ĠMod": 6693,
            "æĪĲåĳĺ": 6694,
            "ĠRec": 6695,
            "ĠSub": 6696,
            "[i]": 6697,
            "ĠfÃ©": 6698,
            "ĠCast": 6699,
            "Í¡": 6700,
            "ientos": 6701,
            "ĠnÃºmero": 6702,
            "mat": 6703,
            "roll": 6704,
            "jÃł": 6705,
            "position": 6706,
            "Map": 6707,
            "emplo": 6708,
            "Ġigual": 6709,
            "tice": 6710,
            "10æľĪ": 6711,
            "æĭ©": 6712,
            "ifa": 6713,
            "sung": 6714,
            "uage": 6715,
            "ĠtÆ°": 6716,
            "Quer": 6717,
            "d'": 6718,
            "Ġterjadi": 6719,
            "Ġsince": 6720,
            "avant": 6721,
            "æĸŃ": 6722,
            "è¦ª": 6723,
            "Ġsetelah": 6724,
            "éĢ£": 6725,
            "ĠbÃŃ": 6726,
            "Ġterk": 6727,
            "ĠÄĳiá»ĥm": 6728,
            "æİªæĸ½": 6729,
            "é¸": 6730,
            "Ġseh": 6731,
            "çİ¯å¢ĥ": 6732,
            "Ġnghiá»ĩp": 6733,
            "åģĩ": 6734,
            "-P": 6735,
            "ĠRob": 6736,
            "éĩĩåıĸ": 6737,
            "ĠDi": 6738,
            "æ£Ģ": 6739,
            "Ġcolumn": 6740,
            "Ġaument": 6741,
            "Ġindex": 6742,
            "Ġsy": 6743,
            "Ġmedia": 6744,
            "place": 6745,
            "Ġdefault": 6746,
            "æ¯Ľ": 6747,
            "ĠChina": 6748,
            "Ġlors": 6749,
            "Ġorganis": 6750,
            "error": 6751,
            "ĠDem": 6752,
            "åĵª": 6753,
            "è«ĸ": 6754,
            "arik": 6755,
            "Ġprofess": 6756,
            "umat": 6757,
            "utako": 6758,
            "tribute": 6759,
            "ĠMay": 6760,
            "Ġrelig": 6761,
            "\\;": 6762,
            "Index": 6763,
            "enez": 6764,
            "åħ³ç³»": 6765,
            "Ġsebuah": 6766,
            "çīĮ": 6767,
            "éŁĵ": 6768,
            "Ġdestin": 6769,
            "ĠngoÃłi": 6770,
            "ief": 6771,
            "ĠphÆ°Æ¡ng": 6772,
            "çĽ®åīį": 6773,
            "emente": 6774,
            "å±Ĥ": 6775,
            "Ãłm": 6776,
            "ĠÃ©galement": 6777,
            "link": 6778,
            "etako": 6779,
            "Ġenpres": 6780,
            "Size": 6781,
            "Ã¡g": 6782,
            "Ġgrandes": 6783,
            "All": 6784,
            "ancia": 6785,
            "Ġfree": 6786,
            "path": 6787,
            "Ġsolution": 6788,
            "Ġ/ËĪ": 6789,
            "iÃ¨res": 6790,
            "inho": 6791,
            "Ġl'imp": 6792,
            "hes": 6793,
            "Ġnotre": 6794,
            "Ġ500": 6795,
            "å°İ": 6796,
            "èµĦæºĲ": 6797,
            "alde": 6798,
            "Ġella": 6799,
            "erik": 6800,
            "ede": 6801,
            ":/": 6802,
            "bon": 6803,
            "å®ĮæĪĲ": 6804,
            ":0": 6805,
            "é»Ħ": 6806,
            "Ġchá»ĭ": 6807,
            "Ġconstit": 6808,
            "Ġsecret": 6809,
            "åħ´": 6810,
            "apkan": 6811,
            "çĶ»": 6812,
            "ĠBo": 6813,
            "Ġtá»¥": 6814,
            "ĠEd": 6815,
            "atkan": 6816,
            "Ġoutput": 6817,
            "Que": 6818,
            "ĠbÃ¡": 6819,
            "Ġseorang": 6820,
            "§à«": 6821,
            "Ġgiá»Ľi": 6822,
            "Ġcert": 6823,
            "Ġlarge": 6824,
            "portun": 6825,
            "_f": 6826,
            "sum": 6827,
            "ii": 6828,
            "Ġimm": 6829,
            "Ġitem": 6830,
            "uration": 6831,
            "Ġvideo": 6832,
            "ĠtravÃ©s": 6833,
            "ĠdÃ©velopp": 6834,
            "code": 6835,
            "ä¹ĭéĹ´": 6836,
            "Ġpessoas": 6837,
            "Ġthá»ĭ": 6838,
            "Ġzituen": 6839,
            "ju": 6840,
            "ĠaprÃ¨s": 6841,
            "Path": 6842,
            "è¨ĺ": 6843,
            "ĠprÃ©c": 6844,
            "Ġfacil": 6845,
            "Ġ{{": 6846,
            "TR": 6847,
            "Ð¿": 6848,
            "æķ£": 6849,
            "Ġchiáº¿n": 6850,
            "è¿ª": 6851,
            "enciÃ³n": 6852,
            "Ġmobil": 6853,
            "tar": 6854,
            "ĠGre": 6855,
            "engah": 6856,
            "Ãªte": 6857,
            "map": 6858,
            "è®¨": 6859,
            "ĨĲ": 6860,
            ",ĊĠĠĠĠĠĠĠĠĠĠĠ": 6861,
            "zeko": 6862,
            "Ġhead": 6863,
            "Ġmoins": 6864,
            "Ġgreat": 6865,
            "Ġniv": 6866,
            "Ġmb": 6867,
            "Ġjaneiro": 6868,
            "aso": 6869,
            "ĠSing": 6870,
            "Ġvig": 6871,
            "è¡¥": 6872,
            "FI": 6873,
            "State": 6874,
            "Ac": 6875,
            "Ġl'a": 6876,
            "ogo": 6877,
            "Ġ\"S": 6878,
            "Ġ1999": 6879,
            "Ġsep": 6880,
            "Ġs'ha": 6881,
            "xa": 6882,
            "Ġmendapat": 6883,
            "\\\\": 6884,
            "ĠTim": 6885,
            "èģ²": 6886,
            "åŁºéĩĳ": 6887,
            "Ġmean": 6888,
            "unca": 6889,
            "ç«¯": 6890,
            "ĠdÃŃas": 6891,
            "ditions": 6892,
            "Ġparl": 6893,
            "âĢĶâĢĶ": 6894,
            "thumb": 6895,
            ";;;;": 6896,
            "ç¼Ķçº¦": 6897,
            "è®Ń": 6898,
            "Ġtoo": 6899,
            "Ġmud": 6900,
            "ĠaixÃ²": 6901,
            "Ġudal": 6902,
            "ĉĉĉĉ": 6903,
            "Ġpower": 6904,
            "ä¼¤": 6905,
            "Ġmic": 6906,
            "ocal": 6907,
            "Æ°u": 6908,
            "ouvernement": 6909,
            "ikasi": 6910,
            "å°ģ": 6911,
            "ĠCe": 6912,
            "Ġchi": 6913,
            "ĠAnh": 6914,
            "Ġd'una": 6915,
            "ĠTe": 6916,
            "æ¼¢": 6917,
            "ĠxÃ£": 6918,
            "è°¢": 6919,
            "è¡Įä¸º": 6920,
            "Ġgain": 6921,
            "Ġpresident": 6922,
            "ä¸¹": 6923,
            "Ġsite": 6924,
            "ĠNa": 6925,
            "estr": 6926,
            "è¿ľ": 6927,
            "amba": 6928,
            "ĠsÃ¡t": 6929,
            "idget": 6930,
            "Int": 6931,
            "Ġgiáº£i": 6932,
            "çĸĹ": 6933,
            "3æľĪ": 6934,
            "å¥¥": 6935,
            "Ġprest": 6936,
            "message": 6937,
            "ANT": 6938,
            "Ġautom": 6939,
            "Ġgrupo": 6940,
            "ĠmÃ¡a": 6941,
            "dez": 6942,
            "Ġcet": 6943,
            "Ġpasado": 6944,
            "ï¼ļâĢľ": 6945,
            "I'm": 6946,
            "ULL": 6947,
            "ĠTamb": 6948,
            "Ġdesar": 6949,
            ".ĠĊ": 6950,
            "Ġhir": 6951,
            "ĠsegÃºn": 6952,
            "tats": 6953,
            "nel": 6954,
            "Ġ36": 6955,
            "Ġterrit": 6956,
            "ĠCre": 6957,
            "åıĳçĶŁ": 6958,
            "Ġavant": 6959,
            "Ġà³": 6960,
            "ĠAh": 6961,
            "Ġjika": 6962,
            "imal": 6963,
            "ĠNe": 6964,
            "è¦ĸ": 6965,
            "ivate": 6966,
            "PU": 6967,
            "oph": 6968,
            "Ã´t": 6969,
            "akt": 6970,
            "Ġxa": 6971,
            "Ġsuff": 6972,
            "åľĺ": 6973,
            "Ġfois": 6974,
            "å¥½çļĦ": 6975,
            "ÑĤÑĮ": 6976,
            "teur": 6977,
            "Ãªt": 6978,
            "Ġtá»īnh": 6979,
            "hec": 6980,
            "}{\\": 6981,
            "å¸¶": 6982,
            "ĠChar": 6983,
            "Ġmeses": 6984,
            "å¾Īå¤ļ": 6985,
            "Ġapenas": 6986,
            "ĠdespuÃ©s": 6987,
            "Ġsch": 6988,
            "Ab": 6989,
            "ference": 6990,
            "èī¯": 6991,
            "Ġnational": 6992,
            "Test": 6993,
            "èĹı": 6994,
            "Ġconvert": 6995,
            "ĠCovid-19": 6996,
            "å©ļ": 6997,
            "Ġháº¿t": 6998,
            "Ġapplication": 6999,
            "Ġok": 7000,
            "ift": 7001,
            "ĠGl": 7002,
            "Ġfall": 7003,
            "peon": 7004,
            "Ġterb": 7005,
            "osto": 7006,
            "ĠÄĥ": 7007,
            "ĠEspaÃ±a": 7008,
            "æĿĥåĪ©": 7009,
            "Ġorient": 7010,
            "Rec": 7011,
            "å¸ĮæľĽ": 7012,
            "ĠestÃł": 7013,
            "å¤ľ": 7014,
            "ĠCap": 7015,
            "ĠÑģ": 7016,
            "ĠMor": 7017,
            "IA": 7018,
            "äºĪ": 7019,
            "æľŁéĹ´": 7020,
            "ä»ħ": 7021,
            "unci": 7022,
            "/11": 7023,
            "Ġavoir": 7024,
            "æĿĲ": 7025,
            "aiss": 7026,
            "ĠlÃºc": 7027,
            "Ġminha": 7028,
            "Ġoct": 7029,
            "earch": 7030,
            "Ġgeh": 7031,
            "select": 7032,
            "æ²Ĵæľī": 7033,
            "iÃ£o": 7034,
            "Ã§os": 7035,
            "æĿ¿": 7036,
            "á»įÌģ": 7037,
            "Ġsegundo": 7038,
            "inha": 7039,
            "åľĸ": 7040,
            "TT": 7041,
            "Ġsebelum": 7042,
            "Ġtrying": 7043,
            "Ġtab": 7044,
            "ä½Ľ": 7045,
            "ĠtÃł": 7046,
            "ç¾İåľĭ": 7047,
            "ename": 7048,
            "ĠLat": 7049,
            "width": 7050,
            "Ġtang": 7051,
            "less": 7052,
            "èŀį": 7053,
            "ĠNot": 7054,
            "My": 7055,
            "ä¹ĭä¸Ģ": 7056,
            "ĠliÃªn": 7057,
            "Ġd'aut": 7058,
            "Ġmasyarakat": 7059,
            "uent": 7060,
            "oup": 7061,
            "Ã©ration": 7062,
            "Ġestim": 7063,
            "Ġinternacional": 7064,
            "Ġcelebr": 7065,
            "åį±": 7066,
            "py": 7067,
            "å¹´ï¼ī": 7068,
            "OL": 7069,
            "ĠnÄĥng": 7070,
            "ç¥ĸ": 7071,
            "Ġps": 7072,
            "ä¸ģ": 7073,
            "Ġalong": 7074,
            "Ġlead": 7075,
            "Ġ/>": 7076,
            "Kau": 7077,
            "Ġdepend": 7078,
            "point": 7079,
            "Ġvict": 7080,
            "sl": 7081,
            "Ġmáº¹": 7082,
            "æĢ¥": 7083,
            "ĠÄĥn": 7084,
            "è½ī": 7085,
            "iner": 7086,
            "agn": 7087,
            "Ġtel": 7088,
            "5æľĪ": 7089,
            "åĳ¼": 7090,
            "Ġdate": 7091,
            "Ġtip": 7092,
            "start": 7093,
            "å»¶": 7094,
            "ĠHo": 7095,
            "ĠEurope": 7096,
            "Ġmujer": 7097,
            "$$": 7098,
            "ï¼į": 7099,
            "Ġdunia": 7100,
            "Ġ39": 7101,
            "Ġlife": 7102,
            "Ġmismo": 7103,
            "Ġsyst": 7104,
            "vey": 7105,
            "çİ©": 7106,
            "Ġreun": 7107,
            "Ġhalaman": 7108,
            "Ġlot": 7109,
            "äº¡": 7110,
            "Ġinstal": 7111,
            "else": 7112,
            "èĩªå·±çļĦ": 7113,
            "ably": 7114,
            "ivity": 7115,
            "uny": 7116,
            "åĲĹï¼Ł": 7117,
            "ÃŃr": 7118,
            "peonato": 7119,
            "ingu": 7120,
            "org/": 7121,
            "Ġhoy": 7122,
            "uzt": 7123,
            "Ġtempor": 7124,
            "åŁ¹": 7125,
            "Ġear": 7126,
            "Ġlimit": 7127,
            "ÃŃvel": 7128,
            "Kh": 7129,
            "orge": 7130,
            "èĴĻ": 7131,
            "lec": 7132,
            "è®¢": 7133,
            "Ġ33": 7134,
            "ĠIII": 7135,
            "Ġlater": 7136,
            "ĠSud": 7137,
            "éĵģ": 7138,
            "å·¥ç¨ĭ": 7139,
            "Date": 7140,
            "ĠFeb": 7141,
            "Ġvent": 7142,
            "Array": 7143,
            "Ãłria": 7144,
            "NA": 7145,
            "egin": 7146,
            "ulis": 7147,
            "Ġlittle": 7148,
            "ĠIS": 7149,
            "Ġaround": 7150,
            "Ġciut": 7151,
            "Ġberd": 7152,
            "8æľĪ": 7153,
            "Ġthrow": 7154,
            "ĠÄĳá»ĭa": 7155,
            "ĠSin": 7156,
            "config": 7157,
            "ĠEuropa": 7158,
            "åĬªåĬĽ": 7159,
            "ĠcrÃ©": 7160,
            "Ġampl": 7161,
            "upa": 7162,
            "pose": 7163,
            "çĽ®æłĩ": 7164,
            "pas": 7165,
            "ĠGovern": 7166,
            "æŃ£å¼ı": 7167,
            "otel": 7168,
            "Ġregistr": 7169,
            "Ġservices": 7170,
            "é£ŀ": 7171,
            "Ġsingle": 7172,
            "Ġmengen": 7173,
            "auc": 7174,
            "rt": 7175,
            "Lay": 7176,
            "hadap": 7177,
            "è£ģ": 7178,
            "ä¸Ńæĸĩ": 7179,
            "What": 7180,
            "rary": 7181,
            "isema": 7182,
            "ĠĠ(": 7183,
            "Ġpertama": 7184,
            "char": 7185,
            "å·Ŀ": 7186,
            "Ġequip": 7187,
            "ĠSim": 7188,
            "ĠsÃ¬": 7189,
            "m_": 7190,
            "11æľĪ": 7191,
            "fait": 7192,
            "ouv": 7193,
            "Ġtarget": 7194,
            "witter": 7195,
            "unque": 7196,
            "PK": 7197,
            "Ġarea": 7198,
            "ateur": 7199,
            "å°Ī": 7200,
            "Ġ300": 7201,
            "Tu": 7202,
            "ĠGNU": 7203,
            "1æľĪ": 7204,
            "ä¹İ": 7205,
            "U+": 7206,
            "ĠÃ©p": 7207,
            "FA": 7208,
            "åŃĺåľ¨": 7209,
            "tead": 7210,
            "Ġdeta": 7211,
            "antu": 7212,
            "uth": 7213,
            "åĨ²": 7214,
            "å§Ĩ": 7215,
            "Ġvel": 7216,
            "post": 7217,
            "æ³°": 7218,
            "Ġconfirm": 7219,
            "ĠváºŃt": 7220,
            "4æľĪ": 7221,
            "æĺ¯åľ¨": 7222,
            "ĠMais": 7223,
            "jos": 7224,
            "'d": 7225,
            "arÃł": 7226,
            "Ġthá»©c": 7227,
            "åĿĲ": 7228,
            "Context": 7229,
            "Ent": 7230,
            "é¡Į": 7231,
            "Ġdiffic": 7232,
            "ienne": 7233,
            "ĠrÃ©sultats": 7234,
            "Ġpad": 7235,
            "fi": 7236,
            "/*": 7237,
            "ether": 7238,
            "idd": 7239,
            "Ġahora": 7240,
            "Ġtoute": 7241,
            "æĿŁ": 7242,
            "éģĩ": 7243,
            "ĠStates": 7244,
            "Ġthá»ĳng": 7245,
            "Î¿": 7246,
            "çķ«": 7247,
            "Ġpul": 7248,
            "Ġadv": 7249,
            "èĪī": 7250,
            "etr": 7251,
            "perty": 7252,
            "User": 7253,
            "ured": 7254,
            "Ġgive": 7255,
            "Ġsuas": 7256,
            "itan": 7257,
            "undial": 7258,
            "uter": 7259,
            "ĠNÃ£o": 7260,
            "áº·ng": 7261,
            "é»¨": 7262,
            "Ġconstru": 7263,
            "ĠMac": 7264,
            "ĠKBBI": 7265,
            "orial": 7266,
            "Ġcat": 7267,
            "áº¹ÌĢ": 7268,
            "è¨±": 7269,
            "è°Ī": 7270,
            "iff": 7271,
            "((": 7272,
            "ĠÄĳÃ¡nh": 7273,
            "âĢĻest": 7274,
            "ses": 7275,
            "su": 7276,
            "ä¸įä¼ļ": 7277,
            "Ġpur": 7278,
            "elect": 7279,
            "Ġassim": 7280,
            "Ġedit": 7281,
            "Ġcalcul": 7282,
            "áº·p": 7283,
            "Ġload": 7284,
            "df": 7285,
            "Ġtrou": 7286,
            "Ġfont": 7287,
            "chool": 7288,
            "ukum": 7289,
            "ä¸´": 7290,
            "Ġcompon": 7291,
            "éĴ±": 7292,
            "è¯º": 7293,
            "Ġtempat": 7294,
            "Ġpay": 7295,
            "Ġnu": 7296,
            "UE": 7297,
            "avam": 7298,
            "ĠQue": 7299,
            "Ġold": 7300,
            "wi": 7301,
            "Ġsistem": 7302,
            "Ġka": 7303,
            "ĠComiss": 7304,
            "eme": 7305,
            "1\"": 7306,
            "Ġveg": 7307,
            "Ġ.Ġ.Ġ.": 7308,
            "ĠláºŃp": 7309,
            "Ġecho": 7310,
            "ç¼º": 7311,
            "ĠeuropÃ©en": 7312,
            "Ġmening": 7313,
            "ĠtháºŃt": 7314,
            "ĠSte": 7315,
            "Ëĭ": 7316,
            "Las": 7317,
            "Ġeither": 7318,
            "Ġcanc": 7319,
            "Ġgal": 7320,
            "ç¬ĳ": 7321,
            "Ġinternational": 7322,
            "Ġd'A": 7323,
            "unto": 7324,
            "image": 7325,
            "onto": 7326,
            "Ġnghe": 7327,
            "vironment": 7328,
            "ĠMic": 7329,
            "ĠMad": 7330,
            "Ġcontext": 7331,
            "ä¸Ģèµ·": 7332,
            "qui": 7333,
            "anas": 7334,
            "Ġworking": 7335,
            "ĠgÃ©nÃ©ral": 7336,
            "istance": 7337,
            "Ã¡rios": 7338,
            "Ġpernah": 7339,
            "çĽ¸åħ³": 7340,
            "è¡ĮæĶ¿": 7341,
            "uriel": 7342,
            "ĠAustr": 7343,
            "ello": 7344,
            "ĠhabÃŃa": 7345,
            "ĠestÃ£o": 7346,
            "Ġproces": 7347,
            "ientras": 7348,
            "1;": 7349,
            "96": 7350,
            "ĠdiffÃ©r": 7351,
            "ĠDel": 7352,
            "Ġaccord": 7353,
            "ĠÄĳá»Ļ": 7354,
            "æ¬Ĭ": 7355,
            "è«ĭ": 7356,
            "eces": 7357,
            "Ġreduc": 7358,
            "QL": 7359,
            "Not": 7360,
            "oren": 7361,
            "Æ°á»Ľi": 7362,
            "xy": 7363,
            "arra": 7364,
            "icios": 7365,
            "Ġadopt": 7366,
            "imat": 7367,
            "ponent": 7368,
            "98": 7369,
            "forma": 7370,
            "uerdo": 7371,
            "ä¸įè¦ģ": 7372,
            "ar-se": 7373,
            "Model": 7374,
            "Ġface": 7375,
            "ä¼°": 7376,
            ")ĊĠĠĠĠĠĠĠĠĠĠĠ": 7377,
            "Ġintro": 7378,
            "endu": 7379,
            "Ġkup": 7380,
            "Ġrecib": 7381,
            "Ã»t": 7382,
            "Ġpartie": 7383,
            "Ġband": 7384,
            "ĠquÃ©": 7385,
            "Ġsuccess": 7386,
            "Ð½Ð¸": 7387,
            "çµ¦": 7388,
            "Ġhome": 7389,
            "Ġidea": 7390,
            "2]": 7391,
            "æĨ": 7392,
            "Ġwr": 7393,
            "1/": 7394,
            "Ġpuis": 7395,
            "Ġsemana": 7396,
            "åī§": 7397,
            "iene": 7398,
            "èŃ¯": 7399,
            "Ġdio": 7400,
            "Ġperts": 7401,
            "Els": 7402,
            "ĠmÃ¡y": 7403,
            "HO": 7404,
            "Ġnord": 7405,
            "Ġhub": 7406,
            "Over": 7407,
            "plac": 7408,
            "ä¸Ńå¤®": 7409,
            "PI": 7410,
            "çŃĶ": 7411,
            "anco": 7412,
            "Ġjadi": 7413,
            "########": 7414,
            "ifs": 7415,
            "Ġtrait": 7416,
            "0x": 7417,
            "Ġsendiri": 7418,
            "åħ¨çĲĥ": 7419,
            "araan": 7420,
            "çŁŃ": 7421,
            "âĢĿçļĦ": 7422,
            "Ġjornada": 7423,
            "äºĴ": 7424,
            "ĠPS": 7425,
            "Ġpersones": 7426,
            "t;": 7427,
            "Ġallow": 7428,
            "source": 7429,
            "çľ¾": 7430,
            "ĠnhÃ¬n": 7431,
            "Up": 7432,
            "Ã©tÃ©": 7433,
            "Ġpobl": 7434,
            "Ġmeans": 7435,
            "Ġsegunda": 7436,
            "istan": 7437,
            "T_": 7438,
            "Ġestas": 7439,
            "æĽ¼": 7440,
            "zu": 7441,
            "Ġela": 7442,
            "Ġmir": 7443,
            "âĢ¢": 7444,
            "/>": 7445,
            "quent": 7446,
            "åħ±åĴĮåĽ½": 7447,
            "ebook": 7448,
            "arias": 7449,
            "ĠPrem": 7450,
            "iek": 7451,
            "ĠSuper": 7452,
            "æİ§åĪ¶": 7453,
            "Ġegiten": 7454,
            "p>": 7455,
            "Ã©tait": 7456,
            "ester": 7457,
            "Ġerre": 7458,
            "ĠPara": 7459,
            "Ġaltres": 7460,
            "ĠthÃ¢n": 7461,
            "ĠkhÃ³": 7462,
            "ĠCOVID": 7463,
            "uzi": 7464,
            "itzaciÃ³": 7465,
            "ĠWhat": 7466,
            "ä»¥ä¸ĭ": 7467,
            "ended": 7468,
            "akit": 7469,
            "Ġsubjunt": 7470,
            "Ġblock": 7471,
            "Ġeas": 7472,
            "Ġcháº³ng": 7473,
            "Ġben": 7474,
            "áº¥m": 7475,
            "Ġ34": 7476,
            "Ġsubst": 7477,
            "Log": 7478,
            "pol": 7479,
            "Ġga": 7480,
            "icional": 7481,
            "Ġbud": 7482,
            "resent": 7483,
            "éĵ¶": 7484,
            "Ġalors": 7485,
            "æĪĸèĢħ": 7486,
            "ingan": 7487,
            "è½»": 7488,
            "ĠÄĳá»ģu": 7489,
            "[\"": 7490,
            "wah": 7491,
            "ĠàŃ§àŃ": 7492,
            "Ġbetter": 7493,
            "ĊĠĠĠĠĠĠĠĠĠĠĠĠĠĠĠĠĠĠĠĠĠĠĠĠĠĠĠ": 7494,
            "åİĭ": 7495,
            "Ġms": 7496,
            "å«": 7497,
            "iness": 7498,
            "ĠVer": 7499,
            "Ġdispon": 7500,
            "ck": 7501,
            "Ġmessage": 7502,
            "Anh": 7503,
            "Ġeso": 7504,
            "Ã¹n": 7505,
            "èĥĮ": 7506,
            "ental": 7507,
            "Pos": 7508,
            "aye": 7509,
            "ihak": 7510,
            "eters": 7511,
            "åĽŃ": 7512,
            "ĠÄĳá»ķi": 7513,
            "Ġspecific": 7514,
            "æĪĲç«ĭ": 7515,
            "onde": 7516,
            "Ġestud": 7517,
            "èĶ": 7518,
            "Ġzituzten": 7519,
            "ĠprÃ³xim": 7520,
            "ories": 7521,
            "ĠmÃ©": 7522,
            "Ġestava": 7523,
            "Ġable": 7524,
            "çİī": 7525,
            "Ã©dia": 7526,
            "ä¸ºäºĨ": 7527,
            "Ġdiscuss": 7528,
            "Ġcomment": 7529,
            "Ġmelhor": 7530,
            "ĠSeb": 7531,
            "Ġpopul": 7532,
            "éĢīæĭ©": 7533,
            "Ġdoit": 7534,
            "éģŃ": 7535,
            "éĢı": 7536,
            "sez": 7537,
            "Ġbang": 7538,
            "Ġláº¥y": 7539,
            "chez": 7540,
            "Ġstd::": 7541,
            "ä¸ĢçĽ´": 7542,
            "Î½": 7543,
            "amen": 7544,
            "Ġalc": 7545,
            "Ġnhá»Ľ": 7546,
            "Ġcoronavirus": 7547,
            "Ġestos": 7548,
            "ĠMont": 7549,
            "anks": 7550,
            "Ä©nh": 7551,
            "èĩº": 7552,
            "uciÃ³": 7553,
            "utos": 7554,
            "Ġtrain": 7555,
            "Ġpopular": 7556,
            "Of": 7557,
            "Ġperman": 7558,
            "duction": 7559,
            "Ġterhadap": 7560,
            "ĠÄĳáº¡o": 7561,
            "---": 7562,
            "Ġsure": 7563,
            "Ġbersama": 7564,
            "itzen": 7565,
            "head": 7566,
            "-5": 7567,
            "Ġtravail": 7568,
            "Ġtrá»ĭ": 7569,
            "èİ«": 7570,
            "åŃ©åŃĲ": 7571,
            "Æ°Æ¡i": 7572,
            "åŁĥ": 7573,
            "97": 7574,
            "Ġfiles": 7575,
            "Ġsituation": 7576,
            "Ġchu": 7577,
            "cion": 7578,
            "empat": 7579,
            "åıĤä¸İ": 7580,
            "Ġton": 7581,
            "Ġmembres": 7582,
            "Seg": 7583,
            "è¡£": 7584,
            "create": 7585,
            "Ġtoutes": 7586,
            "check": 7587,
            "xi": 7588,
            "åŁºæľ¬": 7589,
            "èĦĳ": 7590,
            "Ġchiáº¿": 7591,
            "Ġfit": 7592,
            "eff": 7593,
            "Ġagar": 7594,
            "Ð±": 7595,
            "reu": 7596,
            "Ġcast": 7597,
            "Ġregard": 7598,
            "Ġaspect": 7599,
            "amework": 7600,
            "olean": 7601,
            "Åĵ": 7602,
            "æľĢåĲİ": 7603,
            "Ġelect": 7604,
            "dr": 7605,
            "åºĶè¯¥": 7606,
            "Ġbased": 7607,
            "eto": 7608,
            "ney": 7609,
            "Ġavail": 7610,
            "å¦Ĥä½ķ": 7611,
            "Ġimper": 7612,
            "DD": 7613,
            "ä¹°": 7614,
            "Ġquáº£": 7615,
            "info": 7616,
            "pez": 7617,
            "e-": 7618,
            "Ġtecn": 7619,
            "enses": 7620,
            "è¾ĵ": 7621,
            "gunt": 7622,
            "UM": 7623,
            "ĠUTF": 7624,
            "Ġhagu": 7625,
            "Ġluar": 7626,
            "éĤĬ": 7627,
            "Ġ~": 7628,
            "Ġgel": 7629,
            "ç¯Ģ": 7630,
            "áŀ": 7631,
            "Ġkub": 7632,
            "Ġcount": 7633,
            "áº¡y": 7634,
            "ĠfranÃ§": 7635,
            "Ã¡Ãł": 7636,
            "Et": 7637,
            "Ġthings": 7638,
            "Ġselama": 7639,
            "CE": 7640,
            "Ġcuenta": 7641,
            "ÊĮ": 7642,
            "åĩºçİ°": 7643,
            "Ġalready": 7644,
            "Ġgá»įi": 7645,
            "Ġcan't": 7646,
            "åıªæĺ¯": 7647,
            "ĠKet": 7648,
            "icia": 7649,
[...]
